{
  "version": "1.0",
  "truncation": null,
  "padding": null,
  "added_tokens": [
    {
      "id": 0,
      "content": "[UNK]",
      "single_word": false,
      "lstrip": false,
      "rstrip": false,
      "normalized": false,
      "special": true
    },
    {
      "id": 1,
      "content": "[PAD]",
      "single_word": false,
      "lstrip": false,
      "rstrip": false,
      "normalized": false,
      "special": true
    },
    {
      "id": 2,
      "content": "[CLS]",
      "single_word": false,
      "lstrip": false,
      "rstrip": false,
      "normalized": false,
      "special": true
    },
    {
      "id": 3,
      "content": "[SEP]",
      "single_word": false,
      "lstrip": false,
      "rstrip": false,
      "normalized": false,
      "special": true
    },
    {
      "id": 4,
      "content": "[MASK]",
      "single_word": false,
      "lstrip": false,
      "rstrip": false,
      "normalized": false,
      "special": true
    }
  ],
  "normalizer": {
    "type": "Sequence",
    "normalizers": [
      {
        "type": "NFD"
      },
      {
        "type": "StripAccents"
      }
    ]
  },
  "pre_tokenizer": {
    "type": "ByteLevel",
    "add_prefix_space": false,
    "trim_offsets": true,
    "use_regex": true
  },
  "post_processor": null,
  "decoder": {
    "type": "ByteLevel",
    "add_prefix_space": true,
    "trim_offsets": true,
    "use_regex": true
  },
  "model": {
    "type": "BPE",
    "dropout": null,
    "unk_token": "[UNK]",
    "continuing_subword_prefix": null,
    "end_of_word_suffix": null,
    "fuse_unk": false,
    "byte_fallback": false,
    "ignore_merges": false,
    "vocab": {
      "[UNK]": 0,
      "[PAD]": 1,
      "[CLS]": 2,
      "[SEP]": 3,
      "[MASK]": 4,
      "!": 5,
      "\"": 6,
      "#": 7,
      "$": 8,
      "%": 9,
      "&": 10,
      "'": 11,
      "(": 12,
      ")": 13,
      "*": 14,
      "+": 15,
      ",": 16,
      "-": 17,
      ".": 18,
      "/": 19,
      "0": 20,
      "1": 21,
      "2": 22,
      "3": 23,
      "4": 24,
      "5": 25,
      "6": 26,
      "7": 27,
      "8": 28,
      "9": 29,
      ":": 30,
      ";": 31,
      "<": 32,
      "=": 33,
      ">": 34,
      "?": 35,
      "@": 36,
      "A": 37,
      "B": 38,
      "C": 39,
      "D": 40,
      "E": 41,
      "F": 42,
      "G": 43,
      "H": 44,
      "I": 45,
      "J": 46,
      "K": 47,
      "L": 48,
      "M": 49,
      "N": 50,
      "O": 51,
      "P": 52,
      "Q": 53,
      "R": 54,
      "S": 55,
      "T": 56,
      "U": 57,
      "V": 58,
      "W": 59,
      "X": 60,
      "Y": 61,
      "Z": 62,
      "[": 63,
      "\\": 64,
      "]": 65,
      "^": 66,
      "_": 67,
      "`": 68,
      "a": 69,
      "b": 70,
      "c": 71,
      "d": 72,
      "e": 73,
      "f": 74,
      "g": 75,
      "h": 76,
      "i": 77,
      "j": 78,
      "k": 79,
      "l": 80,
      "m": 81,
      "n": 82,
      "o": 83,
      "p": 84,
      "q": 85,
      "r": 86,
      "s": 87,
      "t": 88,
      "u": 89,
      "v": 90,
      "w": 91,
      "x": 92,
      "y": 93,
      "z": 94,
      "{": 95,
      "|": 96,
      "}": 97,
      "~": 98,
      "¡": 99,
      "¢": 100,
      "£": 101,
      "¤": 102,
      "¥": 103,
      "¦": 104,
      "§": 105,
      "¨": 106,
      "©": 107,
      "ª": 108,
      "«": 109,
      "¬": 110,
      "®": 111,
      "¯": 112,
      "°": 113,
      "±": 114,
      "²": 115,
      "³": 116,
      "´": 117,
      "µ": 118,
      "¶": 119,
      "·": 120,
      "¸": 121,
      "¹": 122,
      "º": 123,
      "»": 124,
      "¼": 125,
      "½": 126,
      "¾": 127,
      "¿": 128,
      "Â": 129,
      "Ã": 130,
      "Ä": 131,
      "Å": 132,
      "É": 133,
      "Ê": 134,
      "Ë": 135,
      "Î": 136,
      "Ï": 137,
      "Ð": 138,
      "Ñ": 139,
      "Ò": 140,
      "×": 141,
      "Ø": 142,
      "Ù": 143,
      "Ú": 144,
      "Û": 145,
      "à": 146,
      "á": 147,
      "â": 148,
      "ã": 149,
      "ä": 150,
      "å": 151,
      "æ": 152,
      "ç": 153,
      "è": 154,
      "é": 155,
      "ê": 156,
      "ï": 157,
      "ð": 158,
      "ĉ": 159,
      "Ċ": 160,
      "Ġ": 161,
      "Ģ": 162,
      "ģ": 163,
      "Ĥ": 164,
      "ĥ": 165,
      "Ħ": 166,
      "ħ": 167,
      "Ĩ": 168,
      "ĩ": 169,
      "Ī": 170,
      "ī": 171,
      "Ĭ": 172,
      "ĭ": 173,
      "Į": 174,
      "į": 175,
      "İ": 176,
      "ı": 177,
      "Ĳ": 178,
      "ĳ": 179,
      "Ĵ": 180,
      "ĵ": 181,
      "Ķ": 182,
      "ķ": 183,
      "ĸ": 184,
      "Ĺ": 185,
      "ĺ": 186,
      "Ļ": 187,
      "ļ": 188,
      "Ľ": 189,
      "ľ": 190,
      "Ŀ": 191,
      "ŀ": 192,
      "Ł": 193,
      "ł": 194,
      "Ń": 195,
      "à®": 196,
      "Ġà®": 197,
      "ķà®": 198,
      "à®¤": 199,
      "à®ķà®": 200,
      "ªà®": 201,
      "à®°": 202,
      "à®©": 203,
      "à®Ł": 204,
      "à®²": 205,
      "à®®": 206,
      "à®¯": 207,
      "à®±": 208,
      "à®µ": 209,
      "à®ªà®": 210,
      "Ġà®ķà®": 211,
      "Ġà®ªà®": 212,
      "Ġà®®": 213,
      "à®¤à®¤": 214,
      "à®ķà®³": 215,
      "à®ļ": 216,
      "à®ķà®ķà®": 217,
      "à®³": 218,
      "Ġà®ĩ": 219,
      "Ġà®µ": 220,
      "Ġà®¤": 221,
      "à®¨": 222,
      "Ġà®ħ": 223,
      "Ġà®ļ": 224,
      "à®ķ": 225,
      "à®£": 226,
      "Ġà®¨": 227,
      "à®¨à®¤": 228,
      "à®ªà®ªà®": 229,
      "à®Ļ": 230,
      "à®ª": 231,
      "Ġà®Ĩ": 232,
      "Ġà®İ": 233,
      "Łà®Ł": 234,
      "à®´": 235,
      "Ġà®ī": 236,
      "à®±à®±": 237,
      "à®µà®°": 238,
      "Ġà®ªà®°": 239,
      "à®Łà®Ł": 240,
      "à®¯à®²": 241,
      "à®ķà®ķ": 242,
      "Ġà®İà®©": 243,
      "à®£à®Ł": 244,
      "à®ªà®ª": 245,
      "Ġà®ª": 246,
      "Ġ1": 247,
      "Ġs": 248,
      "Ġà®Ĵ": 249,
      "Ġà®ĩà®°": 250,
      "à®ªà®ªà®Ł": 251,
      "ro": 252,
      "à®Ļà®ķà®³": 253,
      "Ġ(": 254,
      "à®ķà®®": 255,
      "à®²à®®": 256,
      "ed": 257,
      "à®³à®³": 258,
      "à®¤à®²": 259,
      "à®¯à®®": 260,
      "in": 261,
      "à®¸": 262,
      "ar": 263,
      "ªà®ªà®": 264,
      "à®¯à®©": 265,
      "to": 266,
      "à®ķà®°": 267,
      "à®ķà®¤": 268,
      "Ġà®¤à®°": 269,
      "Ġà®ķà®£": 270,
      "à®¤à®©": 271,
      "à®ªà®Ł": 272,
      "à®²à®²": 273,
      "Ġà®®à®±à®±": 274,
      "Ġà®µà®°": 275,
      "à®ªà®°": 276,
      "Ġà®ķà®°": 277,
      "à®¯à®°": 278,
      "à®¤à®¤à®²": 279,
      "à®¤à®°": 280,
      "an": 281,
      "Ġà®ªà®±": 282,
      "00": 283,
      "à®ķà®ķà®®": 284,
      "Ġà®ķà®±": 285,
      "à®©à®°": 286,
      "Ġà®ķà®Ł": 287,
      "Ġ2": 288,
      "à®®à®©": 289,
      "à®ķà®©": 290,
      "Ġw": 291,
      "à®µà®¤": 292,
      "à®ļà®ļ": 293,
      "à®ªà®ªà®Łà®Ł": 294,
      "Ġà®¨à®Ł": 295,
      "à®µà®©": 296,
      "Ġà®ķà®²": 297,
      "Ġà®®à®±à®±à®®": 298,
      "à®ķà®¯": 299,
      "à®ķà®ķà®³": 300,
      "Ġà®Ĵà®°": 301,
      "à®ķà®±": 302,
      "th": 303,
      "Ġà®®à®©": 304,
      "ol": 305,
      "Ġo": 306,
      "Ġà®µà®³": 307,
      "à®ķà®²": 308,
      "Ġà®ªà®²": 309,
      "ra": 310,
      "à®Łà®°": 311,
      "Ġà®ªà®©": 312,
      "Ġà®ªà®¤": 313,
      "à®ķà®ķà®ªà®ªà®": 314,
      "Ġà®ªà®¯": 315,
      "Ġà®ħà®®": 316,
      "Ġà®ļà®°": 317,
      "is": 318,
      "à®ķà®µ": 319,
      "Ġà®¤à®©": 320,
      "à®ªà®¤": 321,
      "Ġà®ĩà®¨à®¤": 322,
      "at": 323,
      "50": 324,
      "Ġà®İà®©à®±": 325,
      "ll": 326,
      "Ġà®ªà®Ł": 327,
      "à®°à®ķà®³": 328,
      "à®ĩ": 329,
      "à®Łà®©": 330,
      "ĠĊ": 331,
      "lo": 332,
      "à®µà®²": 333,
      "ng": 334,
      "de": 335,
      "Ġà®µà®´": 336,
      "à®¯à®¤": 337,
      "me": 338,
      "Ġ-": 339,
      "Ġà®®à®±": 340,
      "Ġto": 341,
      "Ġà®īà®³à®³": 342,
      "à®©à®±": 343,
      "ck": 344,
      "ing": 345,
      "à®¤à®¤à®°": 346,
      "à®¤à®¤à®©": 347,
      "Ġà®ı": 348,
      "tock": 349,
      "à®ķà®³à®²": 350,
      "Ġà®ħà®¤": 351,
      "olu": 352,
      "Ġv": 353,
      "olume": 354,
      "Ġstock": 355,
      "Ġà®ķà®Łà®Ł": 356,
      "Ġà®°": 357,
      "Ġà®ķà®£à®Ł": 358,
      "Ġvolume": 359,
      "Ġà®Ł": 360,
      "Ġ19": 361,
      "ear": 362,
      "Ġà®¨à®°": 363,
      "Ġà®ĩà®¤": 364,
      "âĢ": 365,
      "à®ķà®ķà®¯": 366,
      "à®°à®ļ": 367,
      "Ġà®Ĩà®£à®Ł": 368,
      "te": 369,
      "à®ķà®±à®¤": 370,
      "ic": 371,
      "en": 372,
      "Ġà®ħà®µà®°": 373,
      "à®¨à®¤à®°": 374,
      "Ġà®ļà®²": 375,
      "à®¯à®ķ": 376,
      "tro": 377,
      "Ġà®µà®Ł": 378,
      "à®®à®´": 379,
      "Ġà®¨à®²": 380,
      "trong": 381,
      "Ġwe": 382,
      "à®±à®ķ": 383,
      "rg": 384,
      "es": 385,
      "Ġà®ļà®¯": 386,
      "ak": 387,
      "Ġstrong": 388,
      "à®ķà®ķà®ªà®ªà®Łà®Ł": 389,
      "à®±à®©": 390,
      "à®ķà®ķà®©": 391,
      "ig": 392,
      "ly": 393,
      "à®©à®®": 394,
      "Ġà®ķà®´": 395,
      "Ġon": 396,
      "Ġà®ķà®³": 397,
      "ith": 398,
      "Ġwith": 399,
      "Ġat": 400,
      "ined": 401,
      "à®Łà®®": 402,
      "Ġà®ªà®£": 403,
      "ĠA": 404,
      "Ġà®ľ": 405,
      "à®ľ": 406,
      "à®ķà®ķà®²": 407,
      "Ġà®ļà®®": 408,
      "à®¨à®¤à®¤": 409,
      "à®±à®µ": 410,
      "ning": 411,
      "à®°à®¨à®¤": 412,
      "ĠM": 413,
      "Ġà®ħà®Ł": 414,
      "nings": 415,
      "earnings": 416,
      "ĠĠ": 417,
      "à®µà®®": 418,
      "Ġearnings": 419,
      "Ġà®ĩà®²": 420,
      "à®ķà®³à®©": 421,
      "à®£à®®": 422,
      "Ġà®īà®°": 423,
      "Ġà®¤à®Ł": 424,
      "à®ķà®ķà®¤": 425,
      "à®ķà®Ł": 426,
      "à®ªà®Łà®Ł": 427,
      "à®ķà®ķà®±": 428,
      "à®±à®¤": 429,
      "à®ªà®ªà®©": 430,
      "Ġà®¤à®²": 431,
      "19": 432,
      "à®ªà®²": 433,
      "à®Ļà®ķ": 434,
      "à®ķà®ļ": 435,
      "ĠâĢ": 436,
      "re": 437,
      "à®²à®²à®¤": 438,
      "Ġà®®à®²": 439,
      "à®ļà®¯": 440,
      "Ġd": 441,
      "pp": 442,
      "à®ŀ": 443,
      "à®ķà®´": 444,
      "à®ħ": 445,
      "Ġà®®à®°": 446,
      "à®ļà®°": 447,
      "à®ªà®Łà®¤à®¤": 448,
      "Ġà®®à®¤à®²": 449,
      "se": 450,
      "los": 451,
      "Ġà®®à®Ł": 452,
      "rade": 453,
      "à®ªà®©": 454,
      "à®ªà®ªà®¤": 455,
      "Ġà®µà®²": 456,
      "Ġg": 457,
      "à®ķà®ªà®ªà®": 458,
      "Ġà®ªà®¯à®©": 459,
      "Ġà®®à®²à®®": 460,
      "à®Ĩ": 461,
      "à®µà®³": 462,
      "Ġà®ªà®Łà®Ł": 463,
      "à®ķà®ķà®ķà®": 464,
      "Ġweak": 465,
      "Ġà®²": 466,
      "Ġà®ĩà®°à®¨à®¤": 467,
      "Ġà®ļà®±": 468,
      "Ġà®ªà®±à®±": 469,
      "à®µà®ķà®³": 470,
      "on": 471,
      "à®©à®²": 472,
      "Ġà®¨à®±": 473,
      "à®ªà®ªà®°": 474,
      "le": 475,
      "à®ķà®ķà®°": 476,
      "Ġà®¤à®®à®´": 477,
      "à®ªà®ªà®ķà®³": 478,
      "à®®à®±": 479,
      "à®ªà®¯": 480,
      "Ġà®Ĩà®®": 481,
      "Ġà®®à®¤": 482,
      "à®Łà®¯": 483,
      "à®ķà®ķà®µ": 484,
      "Ġ\"": 485,
      "ter": 486,
      "à®ķà®µà®®": 487,
      "Ġà®®à®´": 488,
      "Ġà®Ĩà®ķà®¯": 489,
      "à®¨à®²": 490,
      "Ġ+": 491,
      "Ġà®ªà®°à®®": 492,
      "ti": 493,
      "Ġà®ĩà®¯": 494,
      "Ġà®İà®©à®ªà®¤": 495,
      "à®ķà®ķà®Ł": 496,
      "à®µà®¯": 497,
      "Ġà®ħà®²à®²à®¤": 498,
      "Ġ3": 499,
      "Ġà®ĩà®µà®°": 500,
      "ĠT": 501,
      "tly": 502,
      "à®µà®±à®±": 503,
      "à®ķà®ª": 504,
      "à®®à®ª": 505,
      "à®Łà®Łà®®": 506,
      "ay": 507,
      "igh": 508,
      "Ġà®¤à®Łà®°": 509,
      "Ġà®īà®¯à®°": 510,
      "Ġà®¯": 511,
      "à®©à®©": 512,
      "Ġà®ªà®ķà®¤": 513,
      "ue": 514,
      "Ġp": 515,
      "Ġà®ħà®³": 516,
      "Ġà®¤à®°à®ªà®ªà®Ł": 517,
      "à®İ": 518,
      "Ġà®ĩà®£": 519,
      "Ġà®Ĳ": 520,
      "et": 521,
      "à®·": 522,
      "Ġà®ħà®°à®ļ": 523,
      "ven": 524,
      "à®ªà®±": 525,
      "à®ķà®ķà®ªà®ªà®Ł": 526,
      "Ġ200": 527,
      "Ġre": 528,
      "venue": 529,
      "à®£à®Łà®®": 530,
      "Ġà®¹": 531,
      "Ġà®ķà®µ": 532,
      "à®¯à®Ł": 533,
      "al": 534,
      "ish": 535,
      "Ġb": 536,
      "à®ļà®®": 537,
      "Ġf": 538,
      "à®Ļà®ķà®²": 539,
      "Ġà®ħà®°": 540,
      "à®ķà®£": 541,
      "à®ļà®²": 542,
      "75": 543,
      "ĠâĢĵ": 544,
      "à®µà®ķ": 545,
      "à®¤à®®": 546,
      "à®µà®Ł": 547,
      "Ġrevenue": 548,
      "Ġà®ķà®¤": 549,
      "Ġà®İà®´": 550,
      "à®ķà®©à®±à®©": 551,
      "org": 552,
      "à®ļà®©": 553,
      "har": 554,
      "à®³à®³à®¤": 555,
      "Ġà®ıà®±": 556,
      "Ġ4": 557,
      "Ġà®¤à®±": 558,
      "Ġà®ĩà®Ł": 559,
      "Ġà®ħà®±": 560,
      "Ġà®Ĩà®°": 561,
      "Ġà®ĵ": 562,
      "Ġà®ħà®´": 563,
      "organ": 564,
      "IC": 565,
      "à®¤à®¤à®¤": 566,
      "ell": 567,
      "cl": 568,
      "Ġde": 569,
      "200": 570,
      "urg": 571,
      "urged": 572,
      "ained": 573,
      "pped": 574,
      "ropped": 575,
      "rose": 576,
      "lli": 577,
      "ĠS": 578,
      "à®³à®°": 579,
      "à®ªà®ªà®Łà®®": 580,
      "Ġà®īà®²": 581,
      "à®ªà®µ": 582,
      "lost": 583,
      "Ġsurged": 584,
      "Ġ20": 585,
      "clined": 586,
      "à®Ļà®ķà®³à®²": 587,
      "Ļà®ķà®³": 588,
      "Ġà®¸": 589,
      "Ġdropped": 590,
      "à®µà®±": 591,
      "Ġgained": 592,
      "Ġà®ħà®®à®°": 593,
      "Ġrose": 594,
      "Ġth": 595,
      "à®µà®Łà®Ł": 596,
      "Ġà®ħà®©": 597,
      "ralli": 598,
      "rallied": 599,
      "Ġà®Ĵà®©à®±": 600,
      "Ġlost": 601,
      "Ġà®¨à®ķà®°": 602,
      "Ġà®ªà®¯à®©à®ªà®Łà®¤à®¤": 603,
      "Ġà®ĩà®¨à®¤à®¯": 604,
      "Ġà®īà®°à®µ": 605,
      "Ġdeclined": 606,
      "à®Łà®ļ": 607,
      "Ġà®ħà®£": 608,
      "Ġfell": 609,
      "à®ķà®ķà®ķ": 610,
      "Ġrallied": 611,
      "old": 612,
      "à®µà®°à®ķà®³": 613,
      "Ġà®Ĩà®ķà®®": 614,
      "à®®à®®": 615,
      "Ġà®®à®ķà®ķà®³": 616,
      "à®Ļà®ķà®¯": 617,
      "à®ķà®ªà®": 618,
      "¨à®¤": 619,
      "it": 620,
      "Ġà®īà®Ł": 621,
      "Ġà®ļà®¯à®²": 622,
      "Ġà®¤à®´": 623,
      "Ġ5": 624,
      "Ġà®ĩà®¤à®©": 625,
      "Ġ8": 626,
      "Ġà®ªà®³": 627,
      "Ġa": 628,
      "ĠG": 629,
      "Ġà®¨à®¯": 630,
      "à®³à®®": 631,
      "Ġà®ķà®¯": 632,
      "Ġà®İà®¤à®°": 633,
      "Ġà®īà®±": 634,
      "à®£à®£": 635,
      "à®ķà®ķà®±à®¤": 636,
      "à®ªà®ªà®Łà®Łà®¤": 637,
      "Ġà®ªà®©à®±": 638,
      "Ġà®ĩà®ļ": 639,
      "Ġà®Ĭ": 640,
      "ĠP": 641,
      "),": 642,
      "à®°à®©": 643,
      "Ġà®ĩà®µ": 644,
      "ok": 645,
      "Ġà®ķà®©": 646,
      "à®¨à®Ł": 647,
      "Ġà®¨à®ķà®´": 648,
      "Ġà®ĩà®©": 649,
      "Ġà®ķà®®": 650,
      "ni": 651,
      "à®¤à®¤à®¯": 652,
      "à®ī": 653,
      "à®ķà®¸": 654,
      "Ġà®ªà®ļ": 655,
      "as": 656,
      "Morgan": 657,
      "Ġà®ļà®©": 658,
      "à®¯à®±": 659,
      "ia": 660,
      "à®²à®ķà®³": 661,
      "à®ªà®ªà®Łà®ķà®±à®¤": 662,
      "à®ķà®¤à®¤": 663,
      "à®ķà®ķà®ª": 664,
      "Ġà®¨à®©": 665,
      "er": 666,
      "ut": 667,
      "Ġà®ªà®¯à®°": 668,
      "à®®à®°": 669,
      "Ġà®µà®Łà®Ł": 670,
      "Ġà®ħà®¤à®©": 671,
      "fic": 672,
      "Ġà®ļà®¯à®¯": 673,
      "à®¯à®Łà®Ł": 674,
      "à®¤à®¤à®®": 675,
      "ĠI": 676,
      "Ġà®ħà®µ": 677,
      "Ġà®¤à®µ": 678,
      "Ġà®¤à®°à®µ": 679,
      "Ġà®Ī": 680,
      "Ġà®µà®£": 681,
      "Ġc": 682,
      "Ġà®µà®±": 683,
      "Ġà®ĩà®°à®£à®Ł": 684,
      "à®¯à®µ": 685,
      "Ġh": 686,
      "Ġà®ħà®²": 687,
      "ĠB": 688,
      "à®¤à®¤à®ķ": 689,
      "Ġà®İà®©à®©à®®": 690,
      "ow": 691,
      "Ġsig": 692,
      "ĠN": 693,
      "nific": 694,
      "nifican": 695,
      "Ġsignifican": 696,
      "Ġsignificantly": 697,
      "Ġà®ĩà®±": 698,
      "ce": 699,
      "Ġà®ªà®°à®³": 700,
      "Ġà®İà®Ł": 701,
      "Ġà®¨à®±à®µà®©": 702,
      "à®ĥ": 703,
      "id": 704,
      "à®ķà®³à®®": 705,
      "à®ķà®³à®ķà®ķ": 706,
      "à®Ļà®ķà®®": 707,
      "ir": 708,
      "ligh": 709,
      "ek": 710,
      "Ġout": 711,
      "la": 712,
      "ma": 713,
      "90": 714,
      "look": 715,
      "à®°à®®": 716,
      "Ġaf": 717,
      "Ġoutlook": 718,
      "à®ķà®ķà®£": 719,
      "Ġà®ļà®µ": 720,
      "à®ªà®®": 721,
      "Ġsligh": 722,
      "Ġafter": 723,
      "Ġslightly": 724,
      "day": 725,
      "og": 726,
      "Ġà®īà®³à®³à®¤": 727,
      "à®©à®¤": 728,
      "Ġstrongly": 729,
      "Ġtoday": 730,
      "ĠĠĠĠ": 731,
      "Ġthis": 732,
      "Ġweek": 733,
      "Ġà®ªà®´": 734,
      "Ġà®ĥ": 735,
      "ĠC": 736,
      "Ġà®ħà®±à®µ": 737,
      "ric": 738,
      "man": 739,
      "Ġà®ļà®¯à®¤": 740,
      "el": 741,
      "Ġà®¨à®Łà®¤à®¤": 742,
      "à®ªà®ªà®²": 743,
      "à®ĩà®¨à®¤": 744,
      "os": 745,
      "ĊĊ": 746,
      "à®ªà®ªà®Łà®¤à®¤": 747,
      "Ġà®ļà®°à®¨à®¤": 748,
      "à®¤à®¯": 749,
      "Ġ15": 750,
      "ian": 751,
      "Ġà®ķà®£à®Łà®°": 752,
      "ĠR": 753,
      "Ġ24": 754,
      "Ġà®Ĩà®©à®²": 755,
      "tra": 756,
      "à®®à®ķ": 757,
      "Ġà®ļà®±à®±": 758,
      "Ġà®ļà®Łà®Ł": 759,
      "à®ķà®Łà®Ł": 760,
      "ot": 761,
      "Ġà®ĩà®°à®ķà®ķà®®": 762,
      "Ġà®µà®¯": 763,
      "Ġà®Ĩà®£à®Łà®²": 764,
      "Ġà®¨à®Łà®Ł": 765,
      "up": 766,
      "à®ªà®³": 767,
      "Ġm": 768,
      "rof": 769,
      "à®®à®±à®ķà®³": 770,
      "Ġà®µà®ļ": 771,
      "à®±à®©à®°": 772,
      "à®ķà®ķà®Łà®Ł": 773,
      "à®ŀà®ļ": 774,
      "à®ķà®ķà®ķà®³": 775,
      "à®¤à®µ": 776,
      "row": 777,
      "à®ķà®ķà®ªà®ªà®Łà®Łà®¤": 778,
      "ĠH": 779,
      "Ġ28": 780,
      "ngrade": 781,
      "owngrade": 782,
      "à®¹": 783,
      "rofit": 784,
      "Ġà®ħà®¨à®¤": 785,
      "ding": 786,
      "à®ªà®ªà®±": 787,
      "à®®à®²": 788,
      "à®³à®°à®ķà®³": 789,
      "ĠW": 790,
      "ys": 791,
      "Ġà®ļà®¨à®¤": 792,
      "rice": 793,
      "Ġà®®à®©à®±": 794,
      "pen": 795,
      "ark": 796,
      "à®ķà®ªà®ªà®Ł": 797,
      "ard": 798,
      "low": 799,
      "Ġ32": 800,
      "so": 801,
      "à®Ĩà®®": 802,
      "Ġà®¤à®°à®ªà®ªà®Łà®Ļà®ķà®³": 803,
      "ip": 804,
      "ft": 805,
      "Ġà®¨à®³": 806,
      "Ġà®ĩà®Łà®®": 807,
      "Ġ100": 808,
      "ull": 809,
      "grade": 810,
      "upgrade": 811,
      "à®ªà®ªà®¯": 812,
      "ani": 813,
      "à®ķà®³à®ķ": 814,
      "trading": 815,
      "DF": 816,
      "Ġà®¤à®Łà®ªà®ªà®Łà®Ł": 817,
      "Ġà®ªà®Ļ": 818,
      "ata": 819,
      "Ġà®Ĩà®²": 820,
      "à®¯à®ª": 821,
      "rowth": 822,
      "arket": 823,
      "Ġà®®à®ķà®ķà®¯": 824,
      "losed": 825,
      "à®¤à®¤à®±": 826,
      "BI": 827,
      "pened": 828,
      "Ġà®µà®©": 829,
      "Ġà®®à®©à®©": 830,
      "earish": 831,
      "tel": 832,
      "Ġà®ªà®©à®©à®°": 833,
      "Ġà®¤à®©à®¤": 834,
      "esla": 835,
      "ullish": 836,
      "Ġ150": 837,
      "oldman": 838,
      "irtel": 839,
      "à®µà®´": 840,
      "pple": 841,
      "icro": 842,
      "nf": 843,
      "Ġà®µà®°à®²": 844,
      "vid": 845,
      "hares": 846,
      "Ġà®ķ": 847,
      "à®ªà®Łà®®": 848,
      "oog": 849,
      "oogle": 850,
      "uti": 851,
      "JP": 852,
      "DFC": 853,
      "Ġ6": 854,
      "à®¤à®¤à®µ": 855,
      "JPMorgan": 856,
      "soft": 857,
      "icrosoft": 858,
      "Ġdowngrade": 859,
      "Ġprofit": 860,
      "zon": 861,
      "or": 862,
      "CS": 863,
      "isa": 864,
      "Ġà®ħà®¤à®ķà®°": 865,
      "Ġà®īà®£": 866,
      "osys": 867,
      "nfosys": 868,
      "Ġà®ķà®ªà®ªà®": 869,
      "dani": 870,
      "mazon": 871,
      "vidia": 872,
      "xis": 873,
      "à®ķà®Ļà®ķà®³": 874,
      "Ġà®ļà®´": 875,
      "aster": 876,
      "Visa": 877,
      "aruti": 878,
      "Ġ18": 879,
      "Ġhigh": 880,
      "à®ªà®ªà®³": 881,
      "Kot": 882,
      "Pal": 883,
      "Kotak": 884,
      "Ġprice": 885,
      "ayPal": 886,
      "elian": 887,
      "eliance": 888,
      "Ġ175": 889,
      "Ġà®ħà®µà®°à®ķà®³": 890,
      "ICI": 891,
      "ICICI": 892,
      "Ġà®¤à®°à®®": 893,
      "eta": 894,
      "Ġà®µà®¤": 895,
      "Ġ2800": 896,
      "Ġà®µà®¨à®¤": 897,
      "card": 898,
      "harti": 899,
      "astercard": 900,
      "Ġupgrade": 901,
      "Ġ50": 902,
      "Ġclosed": 903,
      "Ġ3250": 904,
      "Ġ450": 905,
      "Ġ1200": 906,
      "Ġ2450": 907,
      "Ġlow": 908,
      "Ġtrading": 909,
      "Ġ890": 910,
      "Ġbullish": 911,
      "à®¤à®ķ": 912,
      "Ġà®ªà®³à®³": 913,
      "à®ļà®ļà®°": 914,
      "Ġgrowth": 915,
      "Ġbearish": 916,
      "à®µà®¯à®²": 917,
      "Ġopened": 918,
      "Ġà®¤à®´à®²": 919,
      "ipro": 920,
      "Ġà®ķà®°à®¤": 921,
      "Ġà®ķà®ªà®": 922,
      "Ġà®¤à®¯à®°": 923,
      "Ġmarket": 924,
      "à®ķà®ªà®ª": 925,
      "à®²à®©": 926,
      "Ġshares": 927,
      "Ġà®®à®ķà®µà®®": 928,
      "Ġà®ħà®®à®¨à®¤": 929,
      "Ġà®ħà®®à®°à®ķà®ķ": 930,
      "à®ªà®ªà®ķ": 931,
      "à®¯à®²à®®": 932,
      "Ġà®ķà®Łà®ļ": 933,
      "à®¨à®ķà®°": 934,
      "Ġà®¤à®µà®°": 935,
      "à®ªà®¤à®¤": 936,
      "Ġà®ªà®°à®¤": 937,
      "à®ķà®ķà®´": 938,
      "Ġà®ªà®¤à®¤": 939,
      "20": 940,
      "Ġà®ļà®¤": 941,
      "Ġà®µà®±à®±": 942,
      "Ġà®®à®Łà®Ł": 943,
      "Ġà®µà®³à®¯à®Łà®Ł": 944,
      "Ġà®ļà®Ļ": 945,
      "Ġà®ķà®°à®£à®®": 946,
      "est": 947,
      "Ġà®®à®¯": 948,
      "Ġà®¨à®±à®±": 949,
      "à®ķà®¤à®¤à®²": 950,
      "à®°à®²": 951,
      "Ġà®ħà®³à®µ": 952,
      "à®ªà®±à®±": 953,
      "bu": 954,
      "à®¯à®±à®±": 955,
      "à®ķà®ķà®²à®®": 956,
      "Ġà®İà®´à®¤à®¤": 957,
      "à®ĩà®²": 958,
      "à®¤à®©à®®": 959,
      "Ġà®ľà®©": 960,
      "Ġà®®à®£": 961,
      "Ġ199": 962,
      "Ġà®µà®´à®Ļ": 963,
      "Ġà®¤à®®": 964,
      "à®®à®±à®ķà®³à®ķà®³": 965,
      "Ġà®¤à®³": 966,
      "Ġà®ªà®µ": 967,
      "Ġà®®à®¤à®¤": 968,
      "à®ķà®¯à®²": 969,
      "Ġà®ļà®²à®²": 970,
      "Ġof": 971,
      "à®¤à®¤à®±à®ķ": 972,
      "Ġà®®à®Łà®Łà®®": 973,
      "à®ķà®©à®±à®¤": 974,
      "à®®à®©à®±": 975,
      "Ġà®ħà®µà®°à®¤": 976,
      "Ġà®ķà®²à®²": 977,
      "à®ªà®ļ": 978,
      "à®µà®°à®®": 979,
      "Ġà®µà®£à®Łà®®": 980,
      "à®¯à®¯à®²": 981,
      "à®¤à®²à®²": 982,
      "Ġà®ļà®©à®±": 983,
      "Ġà®ħà®Łà®ªà®ªà®Ł": 984,
      "Ġà®¤à®£": 985,
      "Ġà®īà®³à®³à®©": 986,
      "Ġà®ªà®°à®µ": 987,
      "Ġà®µà®³à®µ": 988,
      "Ġà®ªà®°à®¯": 989,
      "18": 990,
      "trade": 991,
      "Ġà®¤à®£à®Ł": 992,
      "à®³à®³à®©": 993,
      "à®Łà®ķà®³": 994,
      "Ġà®ªà®Łà®Łà®¯à®²": 995,
      "Ġà®ªà®±à®ķ": 996,
      "à®³à®³à®°": 997,
      "à®ªà®°à®®": 998,
      "sell": 999,
      "inv": 1000,
      "Ġà®Ĩà®ķà®¯à®µà®±à®±": 1001,
      "buy": 1002,
      "Ġà®ªà®¤à®¯": 1003,
      "à®°à®ķ": 1004,
      "à®¨à®Łà®Ł": 1005,
      "invest": 1006,
      "hold": 1007,
      "Ġà®¨à®¤": 1008,
      "Ġà®¤à®ķà®¤": 1009,
      "à®ķà®ķà®©à®±à®©": 1010,
      "à®µà®²à®²": 1011,
      "Ġà®¨à®±à®±à®£à®Ł": 1012,
      "Ġà®ªà®°à®¨à®¤": 1013,
      "Ġà®İà®£à®£": 1014,
      "à®ķà®ķà®ļ": 1015,
      "Âł": 1016,
      "à®±à®ķà®©": 1017,
      "Ġà®®à®¨à®²": 1018,
      "Ġà®ĩà®°à®¨à®¤à®¤": 1019,
      "Ġà®µà®°à®®": 1020,
      "Ġà®ķà®±à®±": 1021,
      "Ġà®ĵà®°": 1022,
      "Ġà®İà®©à®±à®®": 1023,
      "à®Ĵ": 1024,
      "à®°à®ļà®ļ": 1025,
      "à®®à®¯": 1026,
      "Ġà®®à®µà®Łà®Ł": 1027,
      "à®ķà®±à®°": 1028,
      "Ġà®µà®³à®¯à®Ł": 1029,
      "à®ªà®ªà®®": 1030,
      "à®¯à®©à®¤": 1031,
      "Ġà®µà®°à®¤": 1032,
      "Ġà®¨à®Łà®ķà®³": 1033,
      "Ġà®ªà®°à®ļ": 1034,
      "Ġà®ªà®©à®©": 1035,
      "à®Ļà®ķà®³à®©": 1036,
      "Ġ7": 1037,
      "Ġà®¤à®Łà®Ł": 1038,
      ").": 1039,
      "Ġ=": 1040,
      "à®¨à®¤à®©": 1041,
      "à®Ļà®ķà®©": 1042,
      "à®ķà®ļà®ļ": 1043,
      "ĊĠ": 1044,
      "ĠD": 1045,
      "à®²à®¯": 1046,
      "Ġà®¤à®©à®©": 1047,
      "à®ªà®ķ": 1048,
      "à®¨à®°": 1049,
      "Ġà®¤à®²à®®": 1050,
      "à®ªà®ªà®£": 1051,
      "à®¤à®¤à®ª": 1052,
      "à®ªà®£": 1053,
      "Ġà®ļà®©à®©": 1054,
      "000": 1055,
      "Ġà®ķà®Łà®®": 1056,
      "and": 1057,
      "Ġà®µà®£à®Ł": 1058,
      "à®ķà®©à®±à®©à®°": 1059,
      "Ġà®ļà®¤à®©": 1060,
      "à®¤à®®à®´": 1061,
      "Ġà®¨à®®": 1062,
      "Ġà®¤à®Łà®°à®¨à®¤": 1063,
      "Ġà®ªà®°à®Łà®Ł": 1064,
      "à®¸à®Ł": 1065,
      "Ġà®ķà®°à®¤à®¤": 1066,
      "à®µà®ļ": 1067,
      "Ġà®ķà®²à®®": 1068,
      "à®ķà®ķà®¤à®¤": 1069,
      "à®µà®£": 1070,
      "à®ªà®ªà®µ": 1071,
      "Ġ'": 1072,
      "à®®à®ķà®®": 1073,
      "ĠF": 1074,
      "Ġà®īà®±à®ªà®ªà®©": 1075,
      "Ġà®İà®©à®ªà®µ": 1076,
      "à®©à®¯": 1077,
      "Ġà®ħà®¤à®ķà®®": 1078,
      "à®±à®ķà®ķ": 1079,
      "à®±à®±à®®": 1080,
      "Ġ,": 1081,
      "à®ķà®ķà®ªà®ªà®Łà®®": 1082,
      "à®ªà®¸": 1083,
      "à®ķà®¤à®¤à®©": 1084,
      "Ġà®ĩà®£à®ªà®ªà®ķà®³": 1085,
      "Ġà®·": 1086,
      "à®ªà®ªà®Łà®ķà®©à®±à®©": 1087,
      "Ġà®Łà®°": 1088,
      "à®±à®±à®²": 1089,
      "à®¤à®¤à®ļ": 1090,
      "Ġà®Ĩà®£": 1091,
      "Ġ198": 1092,
      "Ġà®¤à®©à®®": 1093,
      "Ġà®®à®©à®©à®°": 1094,
      "Ġà®¨à®±à®µ": 1095,
      "Ġà®ªà®¤à®¤à®°": 1096,
      "à®¤à®¤à®©à®°": 1097,
      "Ġà®ķà®ķà®": 1098,
      "Ġà®Ĩà®¤à®°": 1099,
      "Ġà®ħà®µà®±à®±": 1100,
      "à®®à®©à®¤": 1101,
      "à®±à®ļ": 1102,
      "Ġà®ļà®ķà®¤": 1103,
      "ch": 1104,
      "à®Ļà®ķà®°": 1105,
      "à®¨à®¯": 1106,
      "ion": 1107,
      "Ġà®ªà®°à®®à®ªà®²": 1108,
      "à®İà®¸": 1109,
      "Ġà®ħà®°à®ļà®¯à®²": 1110,
      "Ġà®ħà®®à®ªà®ª": 1111,
      "Ġà®Ĵà®²": 1112,
      "Ġ197": 1113,
      "Ġ.": 1114,
      "Ġà®ķà®°à®£": 1115,
      "à®ķà®Ļ": 1116,
      "à®ķà®ķà®¤à®¤à®²": 1117,
      "Ġà®ªà®Łà®²": 1118,
      "à®¤à®¤à®¯à®®": 1119,
      "Ġà®ķà®°à®®": 1120,
      "Ġà®ªà®²à®µà®±": 1121,
      "Ġà®¤à®ļ": 1122,
      "à®Ļà®ķà®³à®®": 1123,
      "à®Ļà®ķà®ķà®³": 1124,
      "à®°à®Ł": 1125,
      "Ġà®®à®¤à®°": 1126,
      "à®Ļà®ķà®Ł": 1127,
      "Ġà®ķà®±à®ªà®ªà®Łà®Ł": 1128,
      "Ġà®®à®²à®²": 1129,
      "à®µà®ķà®ķ": 1130,
      "Ġà®İà®¸": 1131,
      "à®ķà®ķà®ªà®ªà®Łà®ķà®±à®¤": 1132,
      "à®µà®¤à®®": 1133,
      "Ġà®®à®©à®¤": 1134,
      "à®µà®¤à®±à®ķ": 1135,
      "ĠSBI": 1136,
      "Ġà®¤à®®à®´à®¤": 1137,
      "Ġà®®à®ķ": 1138,
      "à®Ĳ": 1139,
      "Ġà®ķà®ļ": 1140,
      "Ġà®µà®Łà®µà®®": 1141,
      "Ġ201": 1142,
      "à®ªà®ªà®ķà®¤": 1143,
      "à®ķà®ªà®ªà®Łà®Ł": 1144,
      "à®µà®µà®°": 1145,
      "Ġà®ħà®©à®±": 1146,
      "ĠE": 1147,
      "à®ķà®£à®Ł": 1148,
      "ĠGoogle": 1149,
      "Ġà®ļà®±à®¨à®¤": 1150,
      "Ġà®İà®Łà®¤à®¤": 1151,
      "Ġà®ķà®Ļ": 1152,
      "Ġà®Ĳà®°": 1153,
      "Ġà®Ĩà®Ļà®ķà®²": 1154,
      "à®ķà®¯à®©": 1155,
      "à®¯à®°à®ķà®³": 1156,
      "ĠTesla": 1157,
      "ĠL": 1158,
      "Ġà®ªà®°à®¤à®¤": 1159,
      "Ġà®ĩà®²à®²": 1160,
      "Ġà®ķà®³à®³": 1161,
      "ĠGoldman": 1162,
      "Ġà®ķà®±à®¤à®¤": 1163,
      "Ġthe": 1164,
      "Ġà®Ĵà®³": 1165,
      "Ġà®¤à®ļà®¯": 1166,
      "Ġ10": 1167,
      "Ġà®İà®²à®²": 1168,
      "Ġà®Ĩà®±": 1169,
      "Ġà®ķà®±à®ªà®ªà®Ł": 1170,
      "Ġà®Ĩà®Łà®ļ": 1171,
      "ĠNvidia": 1172,
      "Ġà®ħà®ļ": 1173,
      "ĠInfosys": 1174,
      "ĠHDFC": 1175,
      "Ġà®ħà®Łà®¤à®¤": 1176,
      "à®ķà®³à®²à®®": 1177,
      "Ġà®®à®³": 1178,
      "à®ķà®µà®²": 1179,
      "Ġ196": 1180,
      "à®ĥà®ª": 1181,
      "à®¯à®ķà®®": 1182,
      "à®ķà®³à®¯à®®": 1183,
      "ĠPayPal": 1184,
      "ĠReliance": 1185,
      "he": 1186,
      "Ġà®ªà®°à®°à®ļ": 1187,
      "ĠApple": 1188,
      "ĠJPMorgan": 1189,
      "Ġà®ªà®¤à®µ": 1190,
      "ĠMorgan": 1191,
      "Ġà®ªà®°à®©": 1192,
      "Ġà®ıà®±à®±": 1193,
      "ĠMicrosoft": 1194,
      "Ġà®ĩà®±à®¤": 1195,
      "Ġà®Ĩà®µà®°": 1196,
      "Ġà®īà®³": 1197,
      "ĠAirtel": 1198,
      "à®ķà®ķà®µà®®": 1199,
      "ĠAdani": 1200,
      "Ġà®Ĩà®°à®®à®ª": 1201,
      "Ġà®īà®Łà®©": 1202,
      "ĠKotak": 1203,
      "à®ŀà®ļà®²": 1204,
      "ĠAmazon": 1205,
      "ĠAxis": 1206,
      "à®¯à®²à®©": 1207,
      "ĠTata": 1208,
      "Airtel": 1209,
      "ĠTCS": 1210,
      "Ġà®ĩà®´": 1211,
      "Ġà®¨à®ķà®´à®ļà®ļ": 1212,
      "ĠVisa": 1213,
      "à®¨à®¤à®¯": 1214,
      "Ġà®ªà®¤à®µà®ķ": 1215,
      "à®®à®Ł": 1216,
      "Ġ12": 1217,
      "à®¤à®±": 1218,
      "à®ķà®¨à®¤": 1219,
      "Apple": 1220,
      "à®ľà®©": 1221,
      "Ġà®¤à®Ļà®ķà®³": 1222,
      "Ġà®ªà®®": 1223,
      "ĠMaruti": 1224,
      "ĠMeta": 1225,
      "à®¨à®¤à®©à®°": 1226,
      "Ġà®ķà®°à®£à®®à®ķ": 1227,
      "Ġà®ķà®Łà®Łà®®": 1228,
      "Ġà®ıà®±à®ªà®Łà®Ł": 1229,
      "à®ªà®ªà®¨": 1230,
      "Ġà®ķà®²à®¤à®¤à®²": 1231,
      "Maruti": 1232,
      "à®ªà®ªà®Łà®Łà®°": 1233,
      "à®ªà®°à®³": 1234,
      "Ġand": 1235,
      "à®ķà®³à®³": 1236,
      "Bharti": 1237,
      "à®°à®®à®©": 1238,
      "Ġà®µà®¤à®¤": 1239,
      "à¤": 1240,
      "Ġà®Ĩà®¯": 1241,
      "à®ªà®ªà®©à®®": 1242,
      "Ġà®ªà®±à®±à®°": 1243,
      "ĠWipro": 1244,
      "Microsoft": 1245,
      "Mastercard": 1246,
      "ĠĠĠĠĠĠĠĠ": 1247,
      "Goldman": 1248,
      "Amazon": 1249,
      "Tesla": 1250,
      "à®°à®µ": 1251,
      "Ġà®ĩà®¨": 1252,
      "Ġà®ĩà®¤à®²": 1253,
      "TCS": 1254,
      "Ġà®¤à®²à®µà®°": 1255,
      "Ġ16": 1256,
      "HDFC": 1257,
      "Ġà®®à®®": 1258,
      "Ġà®µà®Łà®µ": 1259,
      "Ġà®ªà®¯à®©à®ªà®Ł": 1260,
      "Tata": 1261,
      "Adani": 1262,
      "ĠICICI": 1263,
      "à®Łà®²": 1264,
      "Ġà®Ĵà®°à®µà®°": 1265,
      "ĠMastercard": 1266,
      "om": 1267,
      "Ġà®¤à®¯": 1268,
      "à®ķà®¨": 1269,
      "à®°à®¤à®¤": 1270,
      "ĠBharti": 1271,
      "Ġà®İà®¨à®¤": 1272,
      "Ġà®ĩà®°à®£à®Łà®®": 1273,
      "Ġ17": 1274,
      "Ġà®®à®£à®Ł": 1275,
      "à®¤à®¤à®Łà®©": 1276,
      "Ġà®ĩà®¯à®²": 1277,
      "à®¸à®Łà®°": 1278,
      "Axis": 1279,
      "Ġ9": 1280,
      "ŀà®ļ": 1281,
      "à®®à®¯à®©": 1282,
      "à®Łà®Łà®°": 1283,
      "Ġà®ħà®±à®¯": 1284,
      "Ġà®ķà®±à®¨à®¤": 1285,
      "Ġà®µà®³à®µà®¨à®¤": 1286,
      "Infosys": 1287,
      "us": 1288,
      "à®ķà®ķà®³à®³": 1289,
      "Ġà®®à®£à®Łà®®": 1290,
      "Nvidia": 1291,
      "Meta": 1292,
      "Ġà®ħà®®à®°à®ķà®ķà®µ": 1293,
      "à®ķà®ķà®ªà®ªà®Łà®Łà®°": 1294,
      "à®ķà®ªà®ªà®°": 1295,
      "Google": 1296,
      "Ġà®ĩà®©à®±": 1297,
      "Ġà®İà®©à®ª": 1298,
      "Ġà®ĩà®Ļà®ķ": 1299,
      "à®¯à®ļ": 1300,
      "Ġà®ħà®£à®Ł": 1301,
      "Ġà®¨à®©à®ķ": 1302,
      "à®°à®Łà®ļ": 1303,
      "Ġà®ķà®´à®¨à®¤": 1304,
      "âĢĵ": 1305,
      "PayPal": 1306,
      "Ġà®ªà®ķà®¤à®¯à®²": 1307,
      "Ġà®İà®´à®¤": 1308,
      "Reliance": 1309,
      "198": 1310,
      "Ġà®ıà®±à®ªà®Ł": 1311,
      "Ġà®İà®©à®®": 1312,
      "à®¯à®£": 1313,
      "à®¤à®¤à®²à®®": 1314,
      "à®ªà®°à®²": 1315,
      "Ġà®ħà®³à®µà®²": 1316,
      "à®ı": 1317,
      "Ġà®Ĩà®¯à®µ": 1318,
      "Ġà®īà®£à®Ł": 1319,
      "Ġà®°à®ľ": 1320,
      "Ġà®Ĳà®ķà®ķà®¯": 1321,
      "SBI": 1322,
      "Ġà®¨à®ªà®°": 1323,
      "Ġà®¯à®©": 1324,
      "Ġà®¤à®±à®ªà®¤": 1325,
      "Wipro": 1326,
      "Ġà®¤à®¤": 1327,
      "Ġà®ĩà®³": 1328,
      "à®¯à®¤à®¤à®²": 1329,
      "199": 1330,
      "Ġà®ªà®±à®±à®¯": 1331,
      "à®ķà®ķà®Łà®¯": 1332,
      "Ġà®ĩà®µà®°à®¤": 1333,
      "Ġà®ªà®¯à®£": 1334,
      "à®ªà®°à®Ł": 1335,
      "ĠĊĊ": 1336,
      "Ġà®®à®µ": 1337,
      "Ġà®¨à®£": 1338,
      "Ġà®®à®ķà®©": 1339,
      "Ġà®ħà®ļà®ļ": 1340,
      "Ġà®ķà®Łà®²": 1341,
      "Ġà®ªà®©à®±à®µ": 1342,
      "à®°à®¸": 1343,
      "à®ļà®¤": 1344,
      "Ġà®ªà®°à®Ł": 1345,
      "Ġà®ħà®©à®¤à®¤": 1346,
      "ation": 1347,
      "à®ĩà®°": 1348,
      "ur": 1349,
      "Ġà®ħà®¤à®ķ": 1350,
      "Ġà®ªà®²à®ķà®²": 1351,
      "à®ĩà®¨à®¤à®¯": 1352,
      "Ġà®ķà®µà®²": 1353,
      "à®®à®¤": 1354,
      "Ġà®®à®¤à®©à®®": 1355,
      "Ġà®ªà®ªà®": 1356,
      "ĠO": 1357,
      "Ġà®Ĵà®µà®µà®°": 1358,
      "à®·à®£": 1359,
      "Ġ194": 1360,
      "Ġà®ķà®¯à®²": 1361,
      "am": 1362,
      "Ġà®ļà®®à®°": 1363,
      "Ġà®µà®³à®³": 1364,
      "Ġà®ķà®Łà®¯à®°": 1365,
      "Ġà®®à®Łà®¯à®®": 1366,
      "à®¯à®±à®ļ": 1367,
      "Ġà®ªà®Łà®²à®ķà®³": 1368,
      "Ġà®ªà®¤à®ªà®ª": 1369,
      "Ġà®ķà®£à®Łà®¤": 1370,
      "Ġà®ĩà®²à®ķà®ķà®¯": 1371,
      "Ġà®ıà®±à®ªà®Łà®¤à®¤": 1372,
      "10": 1373,
      "||": 1374,
      "Ġà®µà®²à®²": 1375,
      "Ġà®īà®°à®®": 1376,
      "Ġà®¨à®°à®®": 1377,
      "à®´à®¤à®¤": 1378,
      "Ġà®µà®°à®²à®±": 1379,
      "à®±à®¯": 1380,
      "Ġà®Īà®Ł": 1381,
      "Ġà®µà®µ": 1382,
      "à®¯à®³": 1383,
      "197": 1384,
      "Ġà®ļà®¯à®¯à®ªà®ªà®Łà®Ł": 1385,
      "à®°à®¯": 1386,
      "ĠU": 1387,
      "17": 1388,
      "Ġà®ĩà®°à®ªà®ªà®¤": 1389,
      "à®ªà®¯à®©": 1390,
      "Ġà®®à®°à®¨à®¤": 1391,
      "à®ļà®ļà®²": 1392,
      "à®ķà®ķà®£à®Ł": 1393,
      "Ġà®®à®¤à®©": 1394,
      "Ġà®¤à®¨à®¤": 1395,
      "Ġà®İà®®": 1396,
      "Ġà®µà®°à®²à®±à®±": 1397,
      "Ġà®İà®£": 1398,
      "Ġà®ĩà®µà®±à®±": 1399,
      "à®ªà®ķà®³": 1400,
      "à®¤à®°à®®": 1401,
      "Ġà®ªà®±à®ªà®ªà®ķà®³": 1402,
      "Ġà®ĩà®¤à®©à®²": 1403,
      "Ġà®ħà®±à®µà®¯à®²": 1404,
      "Ġà®¨à®®à®ª": 1405,
      "à®¯à®Ļà®ķà®³": 1406,
      "Ġà®īà®Łà®²": 1407,
      "Ġ14": 1408,
      "Ġà®ļà®¯à®²à®ªà®Ł": 1409,
      "Ġà®ļà®¤à®¤": 1410,
      "Ġà®Ĩà®ķà®¯à®µ": 1411,
      "..": 1412,
      "Ġà®ķà®ªà®ªà®±": 1413,
      "Ġà®¨à®°à®µ": 1414,
      "à®¯à®²à®°à®¨à®¤": 1415,
      "Ġà®¨à®²à®²": 1416,
      "Ġà®µà®°à®Ł": 1417,
      "à®ķà®ķà®Ļà®ķà®³": 1418,
      "Ġà®µà®³à®°à®ļà®ļ": 1419,
      "Ġà®ĩà®¯à®±": 1420,
      "Ġà®®à®¯à®±à®ļ": 1421,
      "Ġà®µà®ķ": 1422,
      "à®ļà®°à®¯à®°": 1423,
      "Ġà®®à®¤à®®": 1424,
      "Ġà®ļà®ķà®ļà®ļ": 1425,
      "Ġà®īà®±à®ªà®¤à®¤": 1426,
      "à®µà®¤à®²": 1427,
      "Ġà®ªà®±à®±à®¤": 1428,
      "Ġà®īà®²à®ķ": 1429,
      "Ġà®īà®±à®ªà®ªà®©à®°à®ķà®³": 1430,
      "Ġà®İà®²": 1431,
      "à®Łà®Łà®©": 1432,
      "Ġà®īà®¤à®µ": 1433,
      "Ġà®®à®°à®¤à®¤": 1434,
      "à®µà®°à®²": 1435,
      "à®ŀà®°": 1436,
      "Ġà®¨à®²à®ķà®³": 1437,
      "à®ķà®©à®±": 1438,
      "à®ķà®ķà®¯à®²": 1439,
      "à®ķà®ķà®ķà®ķà®": 1440,
      "un": 1441,
      "à®³à®³à®©à®°": 1442,
      "Ġin": 1443,
      "Ġà®¤à®±à®©": 1444,
      "Ġà®ĩà®°à®ķà®ķà®±à®¤": 1445,
      "Ġà®ļà®Ł": 1446,
      "Ġà®¨à®Łà®µà®Ł": 1447,
      "à®Ļà®ķà®¯à®¤": 1448,
      "Ġà®¤à®Łà®ªà®ªà®Łà®Łà®ª": 1449,
      "à®´à®²": 1450,
      "Ġà®¨à®±à®µà®©à®®": 1451,
      "Ġà®ħà®®à®¨à®¤à®³à®³à®¤": 1452,
      "Ġà®µà®°à®ļ": 1453,
      "Ġà®ķà®²à®µ": 1454,
      "Ġà®ļà®±à®¯": 1455,
      "Ġà®Ĩà®ķà®¯à®°": 1456,
      "Ġà®ªà®Ļà®ķ": 1457,
      "Ġà®ªà®£à®ķà®³": 1458,
      "Ġà®ķà®¨à®¤": 1459,
      "il": 1460,
      "à®¯à®¤à®¤": 1461,
      "à®ªà®ķà®¤": 1462,
      "Ġà®µà®ķà®ķà®³": 1463,
      "Ġà®īà®£à®®": 1464,
      "à®ķà®°à®®": 1465,
      "à®ªà®¯à®²": 1466,
      "Ġà®¤à®Łà®ªà®ªà®Łà®Łà®ķà®ķà®°": 1467,
      "Ġà®®à®°à®ļ": 1468,
      "à®Ļà®ķà®³à®ķ": 1469,
      "Ġà®ķà®²à®¨à®¤": 1470,
      "Ġà®ªà®ķà®´": 1471,
      "Ġà®ļà®¤à®°": 1472,
      "Ġ13": 1473,
      "à®©à®ķà®³": 1474,
      "Ġà®ļà®¯à®±": 1475,
      "à®Ĵà®°": 1476,
      "Ġà®µà®®": 1477,
      "Ġà®®à®²à®²à®¯à®©": 1478,
      "à®ļà®µ": 1479,
      "à®ªà®ªà®¤à®²": 1480,
      "à®µà®©à®¤": 1481,
      "Ġà®ļà®¨à®¤à®°": 1482,
      "196": 1483,
      "Ġà®ķà®ªà®ª": 1484,
      "Ġà®ªà®²à®²": 1485,
      "Ġà®®à®°à®¤à®¤à®µ": 1486,
      "Ġà®Ĩà®©": 1487,
      "ĠâĢĶ": 1488,
      "à®ķà®²à®®": 1489,
      "âĢĿ": 1490,
      "Ġà®ªà®²à®ķà®²à®ķà®ķà®´": 1491,
      "Ġà®¤à®±à®±": 1492,
      "à®Ļà®ķà®¤": 1493,
      "à®¤à®©à®°": 1494,
      "à®Ļà®ķà®³à®ķà®ķ": 1495,
      "à®¸à®¤à®°": 1496,
      "Ġà®¨à®Łà®ķà®°": 1497,
      "Ġà®®à®±à®ķ": 1498,
      "Ġà®ªà®ļà®ļ": 1499,
      "Ġ:": 1500,
      "Ġà®µà®®à®©": 1501,
      "Ġà®ķà®Łà®¯": 1502,
      "Ġà®ķà®Łà®®à®ª": 1503,
      "à®¨à®³": 1504,
      "Ġà®ĩà®°à®¨à®¤à®°": 1505,
      "ĠK": 1506,
      "Ġà®¤à®²à®²": 1507,
      "à®£à®µ": 1508,
      "à®²à®®à®²": 1509,
      "à®ªà®¯à®°": 1510,
      "à®©à®¸": 1511,
      "à®ªà®ªà®ķà®ķà®³": 1512,
      "Ġà®Ĳà®¨à®¤": 1513,
      "Ġà®¤à®°à®¨à®¤": 1514,
      "Ġà®ªà®¨à®¤": 1515,
      "12": 1516,
      "Ġà®ħà®¤à®²": 1517,
      "Ġà®Ĩà®Ł": 1518,
      "Ġ2008": 1519,
      "à®²à®°à®¨à®¤": 1520,
      "à®°à®¤": 1521,
      "à®ªà®ªà®ª": 1522,
      "Ġà®īà®³à®³à®Ł": 1523,
      "ag": 1524,
      "Ġà®®à®µà®Łà®Łà®¤à®¤à®²": 1525,
      "Ġà®®à®µà®Łà®Łà®®": 1526,
      "à®ķà®³à®ª": 1527,
      "à®³à®µ": 1528,
      "à®ŀà®°à®ķà®³": 1529,
      "Ġà®ħà®²à®µà®²": 1530,
      "à®¯à®Łà®©": 1531,
      "Ġà®ķà®Łà®Łà®ªà®ªà®Łà®Ł": 1532,
      "Ġà®ªà®¤à®²": 1533,
      "à®ļà®¤à®¤": 1534,
      "Ġà®¤à®©à®±": 1535,
      "Ġà®ªà®°à®¤à®®": 1536,
      "Ġà®µà®´à®ķà®ķ": 1537,
      "Ġà®¤à®Łà®Łà®®": 1538,
      "Ġà®Łà®²": 1539,
      "à®µà®¤à®ķ": 1540,
      "16": 1541,
      "Ġà®ħà®©à®®": 1542,
      "Ġà®ķà®£à®Łà®ªà®Ł": 1543,
      "Ġà®ĩà®Ļà®ķà®²": 1544,
      "à®ķà®°à®©": 1545,
      "Ġà®¨à®ªà®°à®ķà®³": 1546,
      "Ġà®ķà®Łà®Łà®Ł": 1547,
      "Ġà®®à®¤à®²à®²": 1548,
      "Ġà®īà®£à®µ": 1549,
      "Ġà®ĩà®Łà®¤à®¤à®²": 1550,
      "Ġà®µà®ķà®¤": 1551,
      "à®¨à®±": 1552,
      "Ġà®ªà®ķà®¤à®ķà®³": 1553,
      "Ġà®µà®°à®µ": 1554,
      "Ġà®ªà®±à®¨à®¤": 1555,
      "Ġà®ªà®¤à®®": 1556,
      "Ġà®İà®©à®ªà®µà®°": 1557,
      "Ġà®¨à®²à®¯à®²": 1558,
      "Ġà®ļà®¯à®¯à®®": 1559,
      "Ġ195": 1560,
      "à®ķà®ķà®±à®°": 1561,
      "Ġà®ĩà®£à®¨à®¤": 1562,
      "Ġà®µà®ķà®¯à®²": 1563,
      "Ġà®¨à®Łà®¨à®¤": 1564,
      "à®ļà®®à®ªà®°": 1565,
      "Ġà®¨à®Łà®ķà®³à®²": 1566,
      "Ġà®ªà®°à®¤à®¤à®©": 1567,
      "194": 1568,
      "Ġà®ļà®ķà®ķà®²": 1569,
      "Ġà®īà®¤": 1570,
      "Ġà®ĩà®¨à®¤à®¯à®µà®©": 1571,
      "à®ķà®ķà®©à®°": 1572,
      "ĠV": 1573,
      "à®ļà®±": 1574,
      "Ġà®ķà®£à®ķà®ķà®Ł": 1575,
      "à®ªà®ªà®³à®³": 1576,
      "à®Łà®¸": 1577,
      "Ġà®ĩà®Łà®¯": 1578,
      "Ġà®Ĩà®±à®±à®²": 1579,
      "à®¯à®©à®°": 1580,
      "Ġà®µà®°à®¤à®¤": 1581,
      "à®ĵ": 1582,
      "à®®à®£": 1583,
      "Ġà®ªà®°à®ªà®²": 1584,
      "Ġ193": 1585,
      "à®ķà®±à®±": 1586,
      "tion": 1587,
      "11": 1588,
      "Ġà®ķà®Łà®¤à®¤": 1589,
      "Ġà®ªà®Łà®ķà®³": 1590,
      "à®İà®©": 1591,
      "Ġ0": 1592,
      "à®¯à®ķà®ķ": 1593,
      "à®±à®ķà®®": 1594,
      "Ġà®ªà®°à®µà®²": 1595,
      "Ġà®Ĩà®°à®¯": 1596,
      "à®ķà®µà®¤": 1597,
      "Ġà®µà®©à®±": 1598,
      "Ġà®¨à®Łà®ªà®±": 1599,
      "Ġà®ĩà®¤à®¤": 1600,
      "Ġà®ªà®¤à®©": 1601,
      "Ġà®ĩà®°à®ªà®ªà®©à®®": 1602,
      "à®ĩà®¤": 1603,
      "Ġà®Ĩà®£à®Łà®ķà®³": 1604,
      "à®ķà®ķà®©à®±à®¤": 1605,
      "Ġà®®à®¤à®¤à®¯": 1606,
      "à®ķà®ªà®°": 1607,
      "Ġà®¤à®°à®µà®¤": 1608,
      "ĠThe": 1609,
      "à®ªà®ªà®ļ": 1610,
      "Ġà®®à®±à®ªà®Łà®Ł": 1611,
      "à®µà®°à®ļ": 1612,
      "Ġà®®à®ļ": 1613,
      "Ġà®¨à®ļ": 1614,
      "Ġà®Ĩà®±à®±": 1615,
      "Ġà®īà®±à®¤": 1616,
      "à®µà®±à®±à®¯à®®": 1617,
      "Ġà®Łà®Ł": 1618,
      "Ġà®ĥà®ªà®°": 1619,
      "à®ªà®ªà®Łà®¤à®¤à®²": 1620,
      "Ġà®ªà®£à®Ł": 1621,
      "à®ķà®ķà®Łà®ļ": 1622,
      "Ġà®ĵà®Łà®Ł": 1623,
      "Ġà®¨à®Łà®¤à®¤à®°": 1624,
      "Ġà®µà®¨à®¤à®¤": 1625,
      "Ġ2007": 1626,
      "à®Ļà®ķà®¯à®©": 1627,
      "Ġà®İà®°": 1628,
      "Ġà®¤à®´à®²à®¨à®Ł": 1629,
      "à®¤à®¤à®ķà®ķ": 1630,
      "à®ªà®Łà®ķà®³": 1631,
      "Ġà®µà®¯à®¤": 1632,
      "à®¸à®²à®®": 1633,
      "Ġà®µà®°à®¯à®±": 1634,
      "Ġà®ľà®°à®®à®©": 1635,
      "ĠIn": 1636,
      "Ġà®®à®ķà®ª": 1637,
      "Ġà®ļà®¤à®¤à®°": 1638,
      "Ġà®µà®µà®°": 1639,
      "Ġà®ļà®£à®Ł": 1640,
      "Ġà®ķà®£à®Łà®Ł": 1641,
      "Ġà®ļà®°à®®": 1642,
      "Ġà®ĩà®²à®Ļà®ķ": 1643,
      "à®ªà®ªà®°à®³": 1644,
      "à®ªà®´": 1645,
      "Ġà®ªà®Łà®¤à®¤": 1646,
      "Ġà®°à®¤": 1647,
      "15": 1648,
      "Ġà®ķà®µà®©": 1649,
      "à®²à®ķ": 1650,
      "à®µà®°à®©": 1651,
      "Ġà®µà®Łà®¤à®²": 1652,
      "Ġà®ĩà®°à®£à®Łà®µà®¤": 1653,
      "à®°à®ķà®³à®©": 1654,
      "Ġà®Ĩà®ķà®ļ": 1655,
      "Ġà®®à®±à®¯à®²": 1656,
      "Ġà®ªà®°à®®à®ªà®²à®®": 1657,
      "Ġà®ķà®Łà®±": 1658,
      "ĠâĢľ": 1659,
      "Ġà®®à®ķà®®": 1660,
      "Ġà®ļà®¯à®¤à®°": 1661,
      "Ġà®ħà®Łà®ªà®ªà®Łà®¯à®²": 1662,
      "Ġà®ªà®°à®Łà®ķà®³": 1663,
      "Ġà®ļà®±à®ªà®ª": 1664,
      "Ġà®¤à®ķà®ķà®¤": 1665,
      "Ġà®ĩà®¨à®¤à®ª": 1666,
      "à®İà®®": 1667,
      "Ġà®ħà®®à®¨à®¤à®³à®³": 1668,
      "à®®à®²à®®": 1669,
      "Ġà®ķà®°à®ªà®ª": 1670,
      "Ġà®ķà®£à®Łà®³à®³à®¤": 1671,
      "Ġà®¤à®³à®°": 1672,
      "Ġà®ªà®°à®¨à®¤à®°": 1673,
      "à®¯à®²à®²": 1674,
      "Ġ2009": 1675,
      "Ġà®ħà®´à®¤à®¤": 1676,
      "Ġà®¨à®²à®®": 1677,
      "Ġà®°à®ļ": 1678,
      "Ġà®ıà®°": 1679,
      "Ġà®®à®±à®ķà®³": 1680,
      "à®Ļà®ķà®©à®°": 1681,
      "Ġà®ħà®Ļà®ķ": 1682,
      "Ġà®Ĩà®³": 1683,
      "Ġà®ªà®±à®ªà®ª": 1684,
      "Ġà®ĩà®¨à®¤à®ķ": 1685,
      "Ġà®ļà®²à®²à®®": 1686,
      "Ġà®ķà®±à®ªà®ªà®Łà®¤à®¤": 1687,
      "à®°à®ľ": 1688,
      "Ġà®®à®Ļà®ķà®²": 1689,
      "Ġà®µà®³à®®": 1690,
      "à®·à®©": 1691,
      "Ġà®¤à®ķà®µà®²": 1692,
      "Ġ11": 1693,
      "à®¸à®²": 1694,
      "Ġà®ķà®£à®£": 1695,
      "à®ªà®Łà®®à®ªà®°": 1696,
      "Ġà®ĩà®¤à®¤à®°": 1697,
      "Ġà®¨à®¯à®®": 1698,
      "à®ªà®ªà®¨à®¤": 1699,
      "Ġà®Ĵà®´": 1700,
      "ri": 1701,
      "Ġà®°à®®": 1702,
      "à®µà®®à®ªà®°": 1703,
      "à®¨à®¤à®²": 1704,
      "Ġà®ªà®Łà®®": 1705,
      "ĠJ": 1706,
      "Ġà®µà®³à®¯": 1707,
      "Ġà®®à®Łà®µ": 1708,
      "ul": 1709,
      "Ġà®¤à®®à®´à®¨à®Ł": 1710,
      "Ġà®ĩà®µà®°à®ķà®³": 1711,
      "Ġà®ħà®ķà®Ł": 1712,
      "Ġà®¨à®°à®Ł": 1713,
      "Ġà®İà®´à®¤à®¯": 1714,
      "ve": 1715,
      "à®¯à®³à®°à®ķà®³": 1716,
      "Ġà®¤à®±à®ķà®²": 1717,
      "à®ķà®±à®°à®ķà®³": 1718,
      "ĠĊĠĊ": 1719,
      "à®ķà®ķà®¨": 1720,
      "Ġ30": 1721,
      "à®ķà®ªà®ªà®Łà®¤à®¤": 1722,
      "Ġà®®à®±à®±à®°": 1723,
      "à®ĩà®µà®±à®±à®¯à®®": 1724,
      "Ġà®ļà®ķà®°": 1725,
      "Ġà®Īà®°": 1726,
      "à®¯à®¤à®¤à®©": 1727,
      "Ġ25": 1728,
      "Ġà®¸à®Łà®°": 1729,
      "à®¤à®ķà®³": 1730,
      "Ġà®ªà®¸": 1731,
      "à®ķà®Łà®°": 1732,
      "Ġà®µà®Łà®ķà®ķ": 1733,
      "Ġà®®à®ķà®°": 1734,
      "Ġà®µà®¸": 1735,
      "Ġà®ķà®±à®ªà®ªà®ķ": 1736,
      "Ġà®¨à®£à®Ł": 1737,
      "Ġà®ķà®Łà®¤à®²": 1738,
      "Ġà®®à®©à®µ": 1739,
      "Ġà®ĩà®ļà®¯à®®": 1740,
      "Ġà®ķà®²à®²à®°": 1741,
      "Ġà®¤à®ķ": 1742,
      "Ġà®İà®©à®ķ": 1743,
      "à®ķà®ķà®³à®²": 1744,
      "Ġà®ĩà®¤à®±à®ķ": 1745,
      "à®ļà®Łà®Ł": 1746,
      "à®£à®Łà®©": 1747,
      "à®ªà®ªà®Łà®Łà®©": 1748,
      "Ġà®ıà®©": 1749,
      "à®ªà®ªà®Łà®Łà®³à®³à®¤": 1750,
      "Ġà®¤à®Łà®ªà®ªà®Łà®Łà®ķà®ķà®°à®°à®ķà®³": 1751,
      "Ġà®ķà®°à®µ": 1752,
      "Ġà®ķà®Łà®µà®³": 1753,
      "à®ķà®ķà®¤à®¤à®©": 1754,
      "195": 1755,
      "14": 1756,
      "à®¯à®®à®ķ": 1757,
      "à®ªà®¤à®®": 1758,
      "Ġà®µà®´à®ķà®ķà®®": 1759,
      "ad": 1760,
      "tt": 1761,
      "Ġ||": 1762,
      "à®ªà®ªà®±à®±": 1763,
      "à®ļà®ļà®©": 1764,
      "Ġà®ªà®£à®¯à®±à®±": 1765,
      "Ġà®®à®¨à®¤à®¯": 1766,
      "Ġà®ķà®±à®ķà®ķà®®": 1767,
      "à®°à®ļà®©": 1768,
      "Ġà®¹à®²": 1769,
      "13": 1770,
      "à®ļà®ļà®¤à®¤": 1771,
      "Ġà®µà®£à®ķ": 1772,
      "Ġà®İà®³": 1773,
      "Ġà®ªà®°à®²": 1774,
      "Ġà®ļà®²à®µ": 1775,
      "à®ļà®¯à®¯": 1776,
      "à®Ĩà®°": 1777,
      "Ġà®ªà®°à®³à®¤à®°": 1778,
      "Ġà®ķà®²à®µà®¯": 1779,
      "Ġà®ªà®ªà®°": 1780,
      "Ġà®ħà®©à®®à®¤": 1781,
      "Ġà®ªà®°à®ķà®ķ": 1782,
      "Ġà®µà®³à®°": 1783,
      "Ġà®ļà®°à®¯à®©": 1784,
      "à®Ļà®ķà®²à®®": 1785,
      "Ġà®µà®¤à®®": 1786,
      "à®´à®ªà®ªà®£": 1787,
      "Ġà®ªà®©à®¤": 1788,
      "à®ķà®ķà®³à®©": 1789,
      "à®µà®¤à®±à®ķà®©": 1790,
      "Ġà®ĩà®¯à®¨à®¤à®°": 1791,
      "à®Łà®Łà®²": 1792,
      "ver": 1793,
      "à®µà®Łà®®": 1794,
      "Ġà®Ĩà®Łà®Ł": 1795,
      "Ġà®µà®´à®¨à®¤": 1796,
      "Ġà®ªà®£à®£": 1797,
      "à®ªà®Łà®¯": 1798,
      "Ġà®ħà®¤à®±à®ķ": 1799,
      "Ġà®®à®¤à®²à®®": 1800,
      "Ġà®Ĳà®°à®ªà®ªà®¯": 1801,
      "Ġà®¤à®®à®°": 1802,
      "Ġà®¤à®Łà®°à®ª": 1803,
      "Ġà®¤à®°à®¨à®¤à®Ł": 1804,
      "à®ķà®ķà®ªà®ªà®Łà®ķà®©à®±à®©": 1805,
      "Ġ2006": 1806,
      "à®¯à®³à®°": 1807,
      "à®¤à®¤à®©à®®": 1808,
      "Ġà®¤à®²à®µ": 1809,
      "Ġà®ļà®ķà®¤à®°": 1810,
      "Ġà®¤à®µà®ķà®³": 1811,
      "Ġà®İà®©à®ªà®ªà®Łà®®": 1812,
      "Ġà®¤à®°à®ªà®ªà®Łà®®": 1813,
      "Ġà®¤à®³à®°à®ļà®ļ": 1814,
      "à®ķà®ķà®ķà®±": 1815,
      "à®Łà®ķ": 1816,
      "à®Ļà®ķà®³à®¯à®®": 1817,
      "Ġà®ħà®µà®°à®Łà®¯": 1818,
      "Ġà®¤à®²à®¨à®ķà®°": 1819,
      "Ġà®ķà®ªà®ªà®²": 1820,
      "Ġà®īà®³à®³à®Łà®Ł": 1821,
      "Ġà®Łà®®": 1822,
      "Ġà®ªà®°à®®à®ªà®²à®©": 1823,
      "ph": 1824,
      "Ġà®İà®Łà®¤à®¤à®ķà®ķà®Łà®Ł": 1825,
      "Ġà®İà®©à®µ": 1826,
      "Ġà®ķà®£à®ªà®ªà®Łà®®": 1827,
      "Ġà®ķà®±à®µ": 1828,
      "Ġà®®à®Łà®¯à®¤": 1829,
      "Ġà®ķà®´à®ķà®ķ": 1830,
      "à®Ļà®ķà®£": 1831,
      "à®ªà®¤à®¤à®°": 1832,
      "Ġà®ªà®ķà®ķà®µ": 1833,
      "Ġà®ªà®²à®®": 1834,
      "à®ķà®ªà®Ł": 1835,
      "à®°à®ķà®ķ": 1836,
      "à®ªà®ªà®Łà®ķà®©à®±à®¤": 1837,
      "Ġà®ıà®±à®ªà®Łà®®": 1838,
      "Ġà®¤à®ķà®ªà®ª": 1839,
      "Ġà®®à®©à®¤à®°": 1840,
      "à®£à®Łà®²": 1841,
      "à®ķà®°à®ķà®³": 1842,
      "//": 1843,
      "à®ļà®¤à®¤à®°": 1844,
      "Ġ192": 1845,
      "Ġà®¨à®±à®µà®©à®Ļà®ķà®³": 1846,
      "à®¯à®®à®©": 1847,
      "Ġà®Ĩà®£à®Łà®©": 1848,
      "à®ķà®ķà®ªà®ªà®Łà®Łà®©": 1849,
      "Ġà®®à®ķà®ķà®¯à®®à®©": 1850,
      "ttp": 1851,
      "://": 1852,
      "ĠĠĊ": 1853,
      "Ġà®Ĩà®ĥà®ª": 1854,
      "à®µà®°à®ķ": 1855,
      "à®ķà®ķà®ªà®ªà®Łà®Łà®³à®³à®¤": 1856,
      "Ġà®ħà®Łà®¯": 1857,
      "Ġà®ħà®µà®±à®±à®©": 1858,
      "à®¤à®¤à®²à®°à®¨à®¤": 1859,
      "Ġà®ķà®Łà®¨à®¤": 1860,
      "Ġà®ĩà®¤à®´": 1861,
      "Ġà®®à®ķà®ªà®ªà®°": 1862,
      "à®¤à®¤à®³": 1863,
      "Ġà®ªà®¤à®ķà®ªà®ª": 1864,
      "à®¯à®¤à®ķ": 1865,
      "nt": 1866,
      "à®ªà®Ļà®ķà®³": 1867,
      "Ġà®ļà®ªà®Łà®®à®ªà®°": 1868,
      "Ġà®¨à®µà®®à®ªà®°": 1869,
      "à®ªà®ªà®ªà®": 1870,
      "à®ľà®¯": 1871,
      "Ġà®ļà®®à®¯": 1872,
      "Ġà®ħà®°à®ķà®²": 1873,
      "à®īà®¯à®°": 1874,
      "à®ķà®³à®Łà®©": 1875,
      "Ġà®®à®©à®ª": 1876,
      "Ġà®ļà®°à®ļà®°": 1877,
      "Ġà®ħà®°à®ļà®¯à®²à®µà®¤": 1878,
      "à®¯à®¯à®®": 1879,
      "Ġà®ªà®ŀà®ļ": 1880,
      "Ġà®ĩà®°à®ķà®ķà®²à®®": 1881,
      "à®ªà®ªà®´": 1882,
      "à®µà®¤à®ļ": 1883,
      "Ġà®ıà®´": 1884,
      "Ġà®ĩà®¨à®¤à®¯à®µà®²": 1885,
      "à®ļà®©à®©": 1886,
      "Ġà®µà®Ļà®ķ": 1887,
      "Ġà®İà®©à®µà®®": 1888,
      "Ġà®Ĵà®ªà®ªà®¨": 1889,
      "ess": 1890,
      "à®ķà®ķà®©à®±à®©à®°": 1891,
      "Ġà®ļà®¯à®²à®ªà®Łà®Ł": 1892,
      "Ġà®µà®±à®ªà®©": 1893,
      "Ġà®ķà®°à®¤à®ªà®ªà®Łà®ķà®±à®¤": 1894,
      "Ġà®ªà®©à®©à®Łà®Ł": 1895,
      "Ġà®ķà®£à®©": 1896,
      "à®®à®©à®±à®¤": 1897,
      "Ġà®¨à®ķà®°à®®": 1898,
      "à®Łà®¤à®¤": 1899,
      "Ġà®ªà®Ļà®ķà®³": 1900,
      "Ġà®ªà®²à®©": 1901,
      "Ġà®¨à®°à®²": 1902,
      "à®ªà®¨": 1903,
      "Ġà®Ĩà®ļà®¯": 1904,
      "à®ķà®®à®©": 1905,
      "à®¤à®¤à®µà®®": 1906,
      "Ġà®Ĩà®ª": 1907,
      "Ġà®ĩà®°à®ļà®ļ": 1908,
      "Ġà®Ĵà®²à®µ": 1909,
      "ªà®ªà®Łà®Ł": 1910,
      "Ġà®®à®±à®¯": 1911,
      "à®ķà®®à®ķ": 1912,
      "Ġà®ļà®²à®¤à®¤": 1913,
      "Ġà®ĩà®®": 1914,
      "Ġà®Łà®©": 1915,
      "Ġà®¨à®´": 1916,
      "Ġà®µà®´à®¯à®ķ": 1917,
      "Ġà®ķà®´à®¯": 1918,
      "Ġà®®à®²à®ķà®ķà®±": 1919,
      "Ġà®¨à®Łà®Łà®©": 1920,
      "Ġà®ªà®ªà®°à®µà®°": 1921,
      "à®¯à®©à®®": 1922,
      "Ġà®µà®°à®ķà®±à®¤": 1923,
      "Ġà®ķà®²à®µà®Łà®Ł": 1924,
      "à®°à®ķà®³à®²": 1925,
      "Ġà®ħà®¤à®µà®¤": 1926,
      "Ġà®®à®°à®£": 1927,
      "Ġà®īà®²à®ķà®©": 1928,
      "à®ķà®¸à®Ł": 1929,
      "co": 1930,
      "Ġà®ıà®ªà®°à®²": 1931,
      "à®¯à®µà®©": 1932,
      "Ġà®ĩà®¤à®¤à®²": 1933,
      "ap": 1934,
      "Ġà®µà®¤à®¤à®°": 1935,
      "à®¤à®¤à®°à®ķà®®": 1936,
      "à®ªà®ªà®°à®µ": 1937,
      "à®ļà®¯à®®": 1938,
      "Ġà®ħà®µà®©": 1939,
      "Ġà®ĩà®©à®©à®®": 1940,
      "hi": 1941,
      "à®£à®Łà®°": 1942,
      "à®ķà®ķà®ķà®©": 1943,
      "Ġà®ªà®¯à®°à®²": 1944,
      "Ġà®İà®´à®¤à®¤à®³à®°": 1945,
      "à®ķà®µà®©": 1946,
      "à®ħà®®à®°": 1947,
      "Ġà®ļà®´à®²": 1948,
      "Ġà®¸à®Ł": 1949,
      "à®ķà®ªà®ªà®Łà®Łà®¤": 1950,
      "Ġà®ħà®²à®²": 1951,
      "Ġà®İà®©à®©": 1952,
      "Ġà®ķà®°à®·à®£": 1953,
      "à®ķà®ķà®©à®±": 1954,
      "Ġà®ªà®¯à®©à®ªà®Łà®Ł": 1955,
      "à®ķà®ķà®°à®®": 1956,
      "Ġà®¤à®°à®¤à®²": 1957,
      "Ġà®¨à®Łà®³": 1958,
      "âĢĻ": 1959,
      "Ġà®ħà®±à®ķà®±": 1960,
      "Ġà®ªà®°à®ķà®ķà®µà®®": 1961,
      "Ġà®ķà®°à®©": 1962,
      "Ġà®ªà®ķà®¤à®ķà®³à®²": 1963,
      "Ġà®ħà®£à®¯à®©": 1964,
      "Ġ22": 1965,
      "Ġà®ĩà®Łà®¯à®²": 1966,
      "Ġà®µà®¨à®¤à®°": 1967,
      "à®ķà®µà®°": 1968,
      "à®°à®ķà®³à®®": 1969,
      "Ġà®ħà®°à®ļà®©": 1970,
      "à®ķà®·": 1971,
      "tor": 1972,
      "Ġà®ķà®Łà®ķà®ķà®®": 1973,
      "à®µà®¤à®²à®²": 1974,
      "Ġà®ĩà®°à®£à®µ": 1975,
      "Ġà®ľà®²": 1976,
      "à®ļà®ķ": 1977,
      "Ġà®ķà®ªà®°": 1978,
      "Ġ)": 1979,
      "à®µà®£à®Ł": 1980,
      "à®¤à®¤à®´": 1981,
      "Ġà®İà®µ": 1982,
      "à®ªà®°à®¯": 1983,
      "Ġà®¨à®ķà®´à®µà®ķà®³": 1984,
      "Ġà®İà®©à®ªà®¤à®²": 1985,
      "Ġà®ħà®ķà®Łà®ªà®°": 1986,
      "Ġà®¤à®ķà®µ": 1987,
      "Ġà®ħà®ªà®ªà®¤": 1988,
      "Ġà®īà®±à®µ": 1989,
      "Ġà®Ĩà®´": 1990,
      "à®ķà®ķà®¯à®¤": 1991,
      "Ġà®ķà®°à®²": 1992,
      "à®¯à®°à®®": 1993,
      "à®ªà®ªà®¤à®±à®ķ": 1994,
      "Ġà®ħà®¨": 1995,
      "à®¸à®ķ": 1996,
      "Ġà®¤à®Ļ": 1997,
      "Ġà®ħà®µà®°à®ķà®³à®©": 1998,
      "Ġà®ĥà®ªà®¯": 1999,
      "Ġà®ļà®°à®ķà®ķà®°": 2000,
      "Ġà®®à®´à®µà®¤à®®": 2001,
      "Ġà®ĩà®µà®µà®±": 2002,
      "Ġà®µà®´à®Ļà®ķà®ªà®ªà®Ł": 2003,
      "Ġà®ħà®°à®£": 2004,
      "Ġà®Łà®ļà®®à®ªà®°": 2005,
      "Ġà®ķà®Ļà®ķà®°": 2006,
      "à®µà®Łà®©": 2007,
      "Ġà®īà®³à®³à®°": 2008,
      "Ġà®Ĵà®±à®±": 2009,
      "Ġà®¯à®´à®ªà®ªà®£": 2010,
      "Ġ2005": 2011,
      "Ġà®īà®²à®ķà®®": 2012,
      "Ġà®ħà®¤à®ķà®®à®ķ": 2013,
      "à®ķà®Ļà®ķà®³à®²": 2014,
      "à®ķà®ķà®ķà®ķà®Ł": 2015,
      "Ġà®ĩà®Ļà®ķà®²à®¨à®¤": 2016,
      "à®³à®µà®²": 2017,
      "Ġà®¨à®²à®¯à®®": 2018,
      "à®µà®´à®®": 2019,
      "ci": 2020,
      "à®¤à®¤à®Ł": 2021,
      "à®ķà®³à®ķà®ķà®©": 2022,
      "Ġà®ĩà®°à®ķà®ķ": 2023,
      "Ġà®¤à®²à®µà®²": 2024,
      "Ġà®®à®²à®®à®ķ": 2025,
      "à®Ļà®ķà®³à®²à®®": 2026,
      "à®Ļà®ķà®¯à®²": 2027,
      "à®¤à®©à®²": 2028,
      "à®ªà®Łà®©": 2029,
      "Ġà®¨à®Łà®ªà®±à®±": 2030,
      "Ġà®ħà®±à®®": 2031,
      "Ġà®¤à®©à®©à®Łà®¯": 2032,
      "Ġà®Ĩà®¸à®¤à®°": 2033,
      "Ġà®¤à®®à®¤": 2034,
      "Ġà®ķà®ªà®ªà®±à®±": 2035,
      "um": 2036,
      "à®Ī": 2037,
      "à®¤à®ļ": 2038,
      "Ġà®®à®ķà®ļ": 2039,
      "Ġà®µà®£à®£": 2040,
      "à®ªà®ªà®³à®°": 2041,
      "=\"": 2042,
      "Ġà®ªà®ķ": 2043,
      "Ġ23": 2044,
      "Ġà®¨à®¯à®³": 2045,
      "Ġà®ľà®©à®µà®°": 2046,
      "à®µà®ª": 2047,
      "Ġà®ĩà®¯à®ķà®ķà®¤à®¤à®²": 2048,
      "Ġà®İà®Łà®Ł": 2049,
      "à®ķà®ķà®µà®¤": 2050,
      "Ġà®¨à®ķà®´à®µ": 2051,
      "Ġà®¨à®±à®µà®©à®¤à®¤à®©": 2052,
      "Ġà®ĩà®¨à®¤à®¤": 2053,
      "Ġà®µà®´à®®": 2054,
      "Ġà®®à®±à®®": 2055,
      "à®ªà®³à®³": 2056,
      "Ġà®īà®£à®°": 2057,
      "Ġà®®à®ķà®¤": 2058,
      "Ġà®ªà®ķà®°": 2059,
      "Ġà®²à®Ł": 2060,
      "à®ķà®ķà®°à®¯": 2061,
      "ct": 2062,
      "Ġà®ħà®®à®ªà®ªà®ķà®³": 2063,
      "à®µà®³à®¯à®£": 2064,
      "à®Ĭ": 2065,
      "à®²à®¨à®¤": 2066,
      "Ġà®ªà®²à®µ": 2067,
      "Ġà®¤à®²à®ķà®ķà®Łà®ļ": 2068,
      "Ġà®ĩà®Łà®®à®ªà®±à®±": 2069,
      "ang": 2070,
      "Ġà®ħà®µà®°à®ķà®ķ": 2071,
      "Ġà®¤à®´à®±": 2072,
      "Ġà®®à®¨à®²à®¤à®¤à®²": 2073,
      "à®±à®ķà®ª": 2074,
      "Ġà®Ĵà®ªà®ªà®¨à®¤": 2075,
      "Ġhttp": 2076,
      "Ġà®Ĩà®°à®¯à®ļà®ļ": 2077,
      "à®¤à®¤à®¤à®²": 2078,
      "Ġà®ķà®±à®¸": 2079,
      "à®®à®©à®©": 2080,
      "Ġà®ķà®©à®©": 2081,
      "Ġà®ħà®®à®°à®ķà®ķà®µà®²": 2082,
      "Ġà®¤à®±à®ķ": 2083,
      "à®ªà®ªà®Łà®µà®¤": 2084,
      "à®¸à®©": 2085,
      "à®©à®°à®ķà®³": 2086,
      "à®ħà®¤": 2087,
      "à®ķà®£à®Łà®°": 2088,
      "Ġà®Ĩà®°à®®": 2089,
      "à®±à®ķà®³": 2090,
      "Ġà®ķà®±à®¯à®Ł": 2091,
      "Ġ26": 2092,
      "Ġà®ªà®¤à®µà®©": 2093,
      "à®¤à®¤à®©à®²": 2094,
      "Ġ/": 2095,
      "Ġà®ĩà®²à®²à®¤": 2096,
      "Ġà®ķà®Łà®Łà®°": 2097,
      "Ġà®¨à®°à®¤à®¤à®²": 2098,
      "Ġà®®à®ķà®³": 2099,
      "à®®à®©à®®": 2100,
      "Ġà®¨à®Łà®ķ": 2101,
      "Ġà®ķà®²à®ª": 2102,
      "Ġà®ªà®´à®¯": 2103,
      "à®ªà®ªà®¨à®²": 2104,
      "Ġà®ĩà®°à®ķà®®": 2105,
      "Ġà®¤à®°à®¤à®¤": 2106,
      "Ġà®²à®ķ": 2107,
      "Ġà®¸à®°": 2108,
      "Ġà®ķà®±à®ªà®ªà®Łà®ķà®±à®¤": 2109,
      "à®ĩà®µà®°": 2110,
      "Ġà®Ĵà®©à®±à®ķà®®": 2111,
      "à®ĩà®¨à®¤à®¯à®¤": 2112,
      "Ġà®ļà®±à®±à®²": 2113,
      "à®ļà®ª": 2114,
      "Ġà®µà®ķà®¯": 2115,
      "Ġà®ħà®Łà®Ł": 2116,
      "Ġà®ľà®®": 2117,
      "Ġà®¤à®°à®ªà®ªà®Łà®®à®ķà®®": 2118,
      "Ġà®İà®¤à®°à®ķ": 2119,
      "ta": 2120,
      "Ġà®īà®¤à®°": 2121,
      "Ġà®¤à®°à®ļà®ļ": 2122,
      "ew": 2123,
      "Ġà®ªà®°à®£": 2124,
      "à®ķà®²à®¤à®¤à®²": 2125,
      "193": 2126,
      "Ġà®ķà®£à®Łà®°à®ķà®ķà®®": 2127,
      "à®ļà®¯à®¤": 2128,
      "ity": 2129,
      "Ġà®ķà®©à®Ł": 2130,
      "à®ķà®ķà®ķà®±à®¤": 2131,
      "Ġà®īà®³à®³à®©à®°": 2132,
      "Ġà®Ĭà®Ł": 2133,
      "à®µà®¤à®±à®ķà®ķ": 2134,
      "Ġà®¨à®Łà®ŀà®ļà®²": 2135,
      "à®ķà®ķà®µà®²à®²": 2136,
      "Ġà®ķà®¤à®°": 2137,
      "Ġà®ªà®´à®¤": 2138,
      "ww": 2139,
      "Ġà®Ĩà®£à®Łà®ķà®³à®²": 2140,
      "Ġà®īà®¯à®°à®¨à®¤": 2141,
      "Ġà®İà®¤à®°à®©": 2142,
      "Ġà®Īà®Łà®ªà®Łà®Ł": 2143,
      "Ġà®®à®ķà®ķ": 2144,
      "Ġà®ķà®±à®©à®°": 2145,
      "Ġà®ħà®®à®ªà®ªà®©": 2146,
      "Ġà®µà®´à®µ": 2147,
      "ent": 2148,
      "Ġà®¨à®²à®¯": 2149,
      "à®¨à®²à®®": 2150,
      "Ġà®īà®²à®ķà®ª": 2151,
      "Ġà®µà®¤à®¯": 2152,
      "Ġà®ħà®µà®³": 2153,
      "à®®à®©à®¯": 2154,
      "Ġà®¨à®±à®±à®£à®Łà®²": 2155,
      "Ġà®¨à®©à®±": 2156,
      "Ġà®ĩà®°à®ķà®ķà®©à®±à®©": 2157,
      "Ġà®ļà®°à®µà®¤à®ļ": 2158,
      "Ġà®Łà®°à®©": 2159,
      "à®ķà®ªà®ªà®¯": 2160,
      "Ġà®®à®Łà®Łà®°": 2161,
      "à®ķà®ķà®ªà®": 2162,
      "Ġà®ħà®Ļ": 2163,
      "Ġà®İà®¤": 2164,
      "Ġà®ļà®®à®ķ": 2165,
      "Ġà®®à®¤à®²à®µà®¤": 2166,
      "Ġà®ĩà®°à®¨à®¤à®©": 2167,
      "Ġà®µà®²à®®": 2168,
      "ine": 2169,
      "Ġà®ķà®±à®µà®©": 2170,
      "Ġà®ªà®©à®µà®°": 2171,
      "à®ªà®ªà®ķà®¤à®¯à®²": 2172,
      "à®µà®°à®²à®±": 2173,
      "ub": 2174,
      "Ġà®¤à®Ļà®ķ": 2175,
      "Ġà®ĩà®°à®®": 2176,
      "à®İà®ļ": 2177,
      "Ġà®®à®ķà®ªà®ªà®°à®¯": 2178,
      ".,": 2179,
      "ment": 2180,
      "Ġà®ķà®´à®µ": 2181,
      "à®ªà®¨à®¤": 2182,
      "Ġà®µà®ķà®¯à®©": 2183,
      "à®ķà®ļà®©": 2184,
      "Ġà®ħà®¤à®©à®²": 2185,
      "à®ļà®¯à®²": 2186,
      "Ġà®ªà®²à®°à®®": 2187,
      "à®¨à®¤à®°à®©": 2188,
      "Ġà®ĩà®¯à®ķà®ķà®¨": 2189,
      "Ġà®¨à®Łà®³à®®à®©à®±": 2190,
      "Ġà®ħà®¤à®¤à®Łà®©": 2191,
      "Ġà®īà®¯à®°à®©": 2192,
      "pe": 2193,
      "à®µà®¸": 2194,
      "Ġà®®à®ķà®£": 2195,
      "à®¤à®¤à®Łà®Ł": 2196,
      "Ġà®Ĩà®ļà®°à®¯à®°": 2197,
      "Ġà®ªà®±à®¨à®¤à®°": 2198,
      "Ġà®®à®©à®©à®³": 2199,
      "Ġà®ĩà®¤à®¤à®°à®ªà®ªà®Łà®¤à®¤à®²": 2200,
      "Ġà®®à®ķà®´": 2201,
      "Ġà®µà®©à®²": 2202,
      "à®µà®©à®®": 2203,
      "Ġà®ªà®Łà®¯à®Ł": 2204,
      "Ġ2004": 2205,
      "Ġà®®à®©à®±à®®": 2206,
      "à®µà®¤à®¤": 2207,
      "Ġ2003": 2208,
      "ĠĠĠĠĠĠĠĠĠĠĠĠĠĠĠĠ": 2209,
      "à®¯à®©à®±": 2210,
      "Ġà®µà®°à®°à®ķà®³": 2211,
      "Ġà®ķà®°à®µà®ķà®³": 2212,
      "Ġà®°à®Ł": 2213,
      "Ġà®ķà®´à®®": 2214,
      "Ġà®¨à®±à®±à®£à®Łà®©": 2215,
      "à®ļà®¤à®¤à®£": 2216,
      "Ġà®ļà®®à®©": 2217,
      "à®ªà®¤à®¤à®²": 2218,
      "Ġà®İà®ļ": 2219,
      "Ġà®¨à®ķà®°à®²": 2220,
      "Ġà®¤à®ķà®µà®²à®ķà®³": 2221,
      "Ġà®µà®ªà®ª": 2222,
      "Ġà®¤à®¤à®°": 2223,
      "à®¨à®ķà®ķà®¯": 2224,
      "à®¨à®ķà®´": 2225,
      "Ġà®µà®³à®ªà®ªà®Ł": 2226,
      "Ġà®ªà®¯à®£à®®": 2227,
      "Ġà®¤à®Łà®Ļ": 2228,
      "à®ķà®ªà®ªà®©": 2229,
      "Ġà®Ĭà®°": 2230,
      "Ġ&": 2231,
      "à®¯à®µà®²": 2232,
      "à®µà®¤à®©": 2233,
      "à®ªà®Ļ": 2234,
      "Ġà®¨à®±à®¤à®¤": 2235,
      "à®īà®ļà®¤à®¤à®£": 2236,
      "Ġà®ħà®®à®°à®ķà®ķà®µà®©": 2237,
      "Ġà®®à®¯à®®": 2238,
      "Ġà®®à®¨à®¤à®°": 2239,
      "à®ªà®¤à®¤à®¯": 2240,
      "Ġà®ĩà®°à®Łà®Ł": 2241,
      "à®¤à®©à®©": 2242,
      "Ġà®¤à®Łà®°à®ªà®©": 2243,
      "Ġà®µà®±à®ªà®Łà®Ł": 2244,
      "Ġà®İà®£à®£à®ķà®ķ": 2245,
      "Ġà®ħà®¤à®ķà®®à®©": 2246,
      "Ġà®¨à®Łà®µà®Łà®ķà®ķà®ķà®³": 2247,
      "Ġà®ĩà®ļà®ļ": 2248,
      "à®¯à®²à®³à®°": 2249,
      "Ġà®Ĵà®¤": 2250,
      "Ġà®ªà®Łà®Łà®ķà®³à®²à®®": 2251,
      "Ġà®ªà®°à®µà®¯": 2252,
      "Ġ2001": 2253,
      "Ġà®¤à®±à®®": 2254,
      "Ġà®µà®³à®¯à®Łà®ªà®ªà®Łà®Łà®¤": 2255,
      "Ġà®µà®©à®°": 2256,
      "à®¯à®©à®²": 2257,
      "à®¯à®°à®ķ": 2258,
      "Ġà®ķà®±à®ķà®³": 2259,
      "Ġà®ķà®Łà®©": 2260,
      "à®ªà®ªà®Łà®Łà®©à®°": 2261,
      "à®ķà®ķà®³à®®": 2262,
      "Ġà®®à®±à®ķà®³à®³": 2263,
      "Ġà®ħà®ļà®ķà®°": 2264,
      "à®°à®ķà®ķà®®": 2265,
      "à®ļà®Ł": 2266,
      "Ġà®ļà®¨à®¤à®¤": 2267,
      "Ġà®ļà®µà®ķà®³": 2268,
      "Ġà®¨à®ķà®ķ": 2269,
      "à®¨à®¤à®®": 2270,
      "Ġà®ªà®±à®®": 2271,
      "Ġà®ļà®¯à®¤à®¤": 2272,
      "Ġà®ĩà®±à®ªà®ªà®ķà®³": 2273,
      "Ġà®ħà®ķà®£": 2274,
      "Ġà®¨à®µà®©": 2275,
      "à®¯à®Łà®®": 2276,
      "Ġ2000": 2277,
      "Ġà®ªà®¯à®©à®ªà®Łà®¤à®¤à®ªà®ªà®Łà®ķà®±à®¤": 2278,
      "Ġà®ķà®³à®°": 2279,
      "à®ļà®°à®®": 2280,
      "Ġà®ĩà®±à®¨à®¤": 2281,
      "à®¨à®©": 2282,
      "Ġà®ļà®µà®©": 2283,
      "à®¸à®Łà®©": 2284,
      "Ġà®ªà®¯à®°à®ķà®³": 2285,
      "Ġà®īà®¯à®°à®ļà®ļà®¤à®¤": 2286,
      "Ġà®¹à®°à®Ł": 2287,
      "Ġà®ķà®µà®°": 2288,
      "Ġà®ĩà®©à®®": 2289,
      "Ġà®īà®ļà®ļ": 2290,
      "Ġà®Ĵà®¤à®¤": 2291,
      "Ġà®īà®°à®µà®ķà®ķà®®": 2292,
      "Ġà®®à®¤à®¤à®®": 2293,
      "à®ķà®³à®¤": 2294,
      "Ġà®Ĩà®ķà®¸à®Ł": 2295,
      "Ġà®¤à®°à®®à®©": 2296,
      "à®ªà®°à®©": 2297,
      "à®ķà®±à®©": 2298,
      "Ġà®ĩà®Łà®Ļà®ķà®³à®²": 2299,
      "à®µà®°à®°": 2300,
      "Ġà®®à®©à®©à®©": 2301,
      "Ġà®ħà®´à®ķà®ķà®ªà®ªà®Łà®ķà®±à®¤": 2302,
      "Ġà®¨à®¤à®®à®©à®±": 2303,
      "Ġà®ĩà®ªà®ªà®°": 2304,
      "à®ªà®ªà®ķà®ķ": 2305,
      "Ġà®ļà®°à®¯": 2306,
      "Ġà®ªà®°à®¤à®ļ": 2307,
      "Ġà®Ĳà®°à®ªà®ªà®µ": 2308,
      "Ġà®ĩà®±à®¤à®¯à®²": 2309,
      "à®µà®¯à®®": 2310,
      "Ġà®ªà®ķà®¸": 2311,
      "à®ķà®°à®¤": 2312,
      "Ġà®ķà®Łà®ªà®Ł": 2313,
      "Ġ21": 2314,
      "Ġà®ļà®¤à®¨à®¤à®°": 2315,
      "Ġà®ĥà®ªà®¯à®Ł": 2316,
      "Ġà®ªà®±à®¤à®¤": 2317,
      "Ġà®ķà®£à®Łà®±": 2318,
      "à®ħà®Ł": 2319,
      "Ġà®µà®²à®Ļà®ķà®ķà®³": 2320,
      "à®ªà®ªà®°à®ķà®ķ": 2321,
      "Ġà®®à®£à®Łà®²": 2322,
      "Ġà®µà®µà®µà®±": 2323,
      "\",": 2324,
      "com": 2325,
      "Ġn": 2326,
      "Ġà®ħà®©à®©": 2327,
      "Ġà®ķà®Łà®Łà®ªà®ªà®Ł": 2328,
      "Ġà®ķà®Łà®Łà®ªà®ªà®Łà®¤à®¤": 2329,
      "à®ªà®©à®°": 2330,
      "à®ķà®ķà®£à®®": 2331,
      "à®ķà®ķà®£à®Łà®°": 2332,
      "à®¨à®Łà®Łà®²": 2333,
      "Ġà®ªà®°à®¤à®¤à®©à®¯": 2334,
      "Ġà®Ĩà®ķà®ļà®ļà®©": 2335,
      "Ġà®ħà®Łà®¯à®³à®®": 2336,
      "à®µà®¯à®©": 2337,
      "Ġà®Ĩà®©à®¤": 2338,
      "Ġà®¤à®°à®¨à®²": 2339,
      "Ġà®®à®©à®®": 2340,
      "Ġfor": 2341,
      "Ġà®ķà®¤à®²": 2342,
      "Ġà®¤à®µà®¯à®©": 2343,
      "à®ķà®³à®ķà®ķà®®": 2344,
      "à®¨à®¤à®¤à®²": 2345,
      "Ġà®İà®©à®±à®´": 2346,
      "à®Łà®®à®°à®¨à®¤": 2347,
      "Ġà®µà®£à®Łà®¯": 2348,
      "à®¯à®µà®°": 2349,
      "Ġà®Ĩà®µà®¤": 2350,
      "Ġà®Ĵà®Łà®Ł": 2351,
      "à®ķà®ķà®¯à®©": 2352,
      "Ġà®ªà®Łà®Łà®ķà®³à®²": 2353,
      "Ġà®®à®¤à®ªà®ªà®Ł": 2354,
      "Ġà®®à®´à®¯à®²": 2355,
      "Ġà®ļà®ķà®ķà®°": 2356,
      "Ġà®ĩà®¤à®µ": 2357,
      "à®ķà®ķà®µà®²": 2358,
      "Ġà®¤à®°à®®à®£à®®": 2359,
      ".\"": 2360,
      "Ġà®ªà®°à®ķ": 2361,
      "Ġà®ĩà®°à®¯à®²": 2362,
      "à®Ļà®ķà®³à®¤": 2363,
      "Ġà®ķà®Łà®Łà®®à®ªà®ª": 2364,
      "tu": 2365,
      "Ġà®¨à®ļà®ļ": 2366,
      "Ġà®Ĩà®ķ": 2367,
      "à®Łà®©à®©": 2368,
      "Ġà®ĩà®¯à®ļ": 2369,
      "Ġà®ĩà®¯à®±à®±": 2370,
      "ĠCh": 2371,
      "Ġà®®à®©à®©à®£": 2372,
      "'s": 2373,
      "25": 2374,
      "Ġà®µà®ªà®ªà®¨à®²": 2375,
      "39": 2376,
      "Ġà®ıà®©à®©à®²": 2377,
      "21": 2378,
      "à®¤à®Łà®°": 2379,
      "Ġà®ħà®ª": 2380,
      "Ġà®Ĩà®£à®Łà®ķà®³à®ķà®ķ": 2381,
      "à®£à®®à®ķ": 2382,
      "Ġà®ĩà®¯à®ķà®ķ": 2383,
      "Ġà®Ĵà®©à®±à®ķ": 2384,
      "Ġà®īà®Łà®ªà®Ł": 2385,
      "Ġà®Ĩà®ķà®¯à®µà®±à®±à®©": 2386,
      "Ġà®®à®ķà®¨à®¤": 2387,
      "Ġà®ļà®¤à®®": 2388,
      "à®ªà®ªà®¤à®®": 2389,
      "Ġà®¤à®®à®´à®ķ": 2390,
      "Ġà®ħà®±à®®à®ķà®®": 2391,
      "okia": 2392,
      "Ġà®µà®£à®®à®©": 2393,
      "Ġe": 2394,
      "Ġà®¨à®ķà®ķà®®": 2395,
      "à®ķà®°à®¤à®¤": 2396,
      "Ġà®ķà®°à®¯": 2397,
      "Ġà®ķà®Łà®Łà®²à®®": 2398,
      "Ġà®¯à®°": 2399,
      "Ġ40": 2400,
      "Ġà®ĩà®µà®µ": 2401,
      "Ġà®µà®£à®µà®³": 2402,
      "Ġà®µà®¯à®¤à®²": 2403,
      "Ġà®ķà®ķà®ķà®": 2404,
      "Ġà®ªà®©à®±à®µà®±à®±": 2405,
      "à®ļà®¯à®¯à®ķà®ķà®ķ": 2406,
      "30": 2407,
      "Ġ[": 2408,
      "Ġà®¤à®±à®±à®®": 2409,
      "Ġà®µà®³à®µà®ķà®³": 2410,
      "Ġà®ªà®©à®ªà®±à®±": 2411,
      "Ġà®ħà®®à®ļà®ļà®°": 2412,
      "à®ªà®ªà®¤à®¤à®°": 2413,
      "Ġà®ªà®¯à®±à®ļ": 2414,
      "Ġà®ļà®°à®¤à®¤": 2415,
      "à®ªà®ªà®¤à®ķ": 2416,
      "Ġà®®à®©à®±à®µà®¤": 2417,
      "Ġà®īà®±à®ªà®ªà®©à®°": 2418,
      "Ġà®ªà®°à®°à®Łà®ļ": 2419,
      "ĠâĢĺ": 2420,
      "Ġà®ªà®°à®°à®ļà®©": 2421,
      "à®ļà®¯à®©": 2422,
      "à®ļà®¸à®Łà®°": 2423,
      "à®Ļà®ķà®³à®ª": 2424,
      "Ġ29": 2425,
      "à®ªà®µà®°": 2426,
      "vi": 2427,
      "à®®à®±à®±": 2428,
      "Ġà®Ĩà®¤": 2429,
      "Ġà®Ĵà®©": 2430,
      "Ġà®µà®³à®ķà®ķà®®": 2431,
      "Ġà®µà®³à®¯à®±à®±": 2432,
      "à®¤à®¤à®±à®ķà®ķ": 2433,
      "à®¤à®¤à®±à®ķà®©": 2434,
      "Ġà®İà®´à®¤à®¤à®³à®°à®ķà®³": 2435,
      "60": 2436,
      "à®¯à®ķà®µà®®": 2437,
      "Ġà®¤à®µà®²": 2438,
      "Ġà®ļà®¤à®¤à®¯à®®": 2439,
      "Ġà®¨à®£à®£": 2440,
      "à®µà®°à®ķà®³à®²": 2441,
      "ªà®ªà®Ł": 2442,
      "à®ķà®±à®ªà®ªà®ķà®³": 2443,
      "Ġà®ħà®´à®ķà®ķà®ªà®ªà®Łà®®": 2444,
      "2006": 2445,
      "Ġà®ħà®©à®¤à®¤à®®": 2446,
      "Ġà®ĩà®µà®µà®°": 2447,
      "Ġà®Ĩà®²à®ªà®®": 2448,
      "Ġà®ļà®±à®¤": 2449,
      "à®ķà®®à®°": 2450,
      "à®ļà®Ļ": 2451,
      "Ġà®¨à®Łà®®à®±": 2452,
      "Ġà®®à®´à®ķà®³": 2453,
      "Ġà®®à®®à®ªà®Łà®¤à®¤": 2454,
      "ab": 2455,
      "Ġà®ķà®ķ": 2456,
      "Ġà®ªà®¤à®°": 2457,
      "Ġà®ĩà®°à®µ": 2458,
      "à®ªà®°à®ķà®ķ": 2459,
      "Ġà®®à®±à®ªà®°": 2460,
      "Ġà®°à®¯à®²": 2461,
      "Ġà®¤à®Łà®Ļà®ķà®©à®°": 2462,
      "Ġà®µà®²à®µà®¯": 2463,
      "à®ļà®²à®©": 2464,
      "Ġà®ĩà®Łà®®à®ķà®²": 2465,
      "à®µà®¨à®¤": 2466,
      "à®ªà®ķà®ķ": 2467,
      "Ġà®ħà®®à®¨à®¤à®°": 2468,
      "Ġà®İà®©à®±à®²": 2469,
      "Ġà®®à®ķà®ķà®³à®©": 2470,
      "Ġà®¨à®©à®µ": 2471,
      "Ġà®¤à®ķà®ķà®¤à®²": 2472,
      "Ġà®¤à®£à®£": 2473,
      "Ġà®¨à®Łà®ķà®³à®©": 2474,
      "Ġà®Ĵà®°à®Ļà®ķà®£": 2475,
      "à®ļà®®à®ķ": 2476,
      "Ġà®īà®°à®µà®ķà®ķ": 2477,
      "à®¨à®Łà®ķ": 2478,
      "ers": 2479,
      "Ġà®ĩà®ļà®¯à®®à®¤à®¤": 2480,
      "ge": 2481,
      "à®Łà®ªà®ªà®Łà®Ł": 2482,
      "à®²à®°": 2483,
      "Ġà®®à®¤à®¤à®°": 2484,
      "Ġà®ħà®¤à®¤": 2485,
      "Ġà®µà®°à®ķà®©à®±à®©": 2486,
      "Ġà®ħà®µà®°à®ķà®³à®¤": 2487,
      "Ġ$": 2488,
      "à®¯à®³à®³": 2489,
      "à®±à®®": 2490,
      "Ġà®µà®ļà®¯à®¯à®ķà®ķà®ķ": 2491,
      "Ġà®ķà®£à®ªà®ªà®Łà®ķà®±à®¤": 2492,
      "à®ķà®³à®²à®°à®¨à®¤": 2493,
      "Ġà®ªà®£à®Łà®¯": 2494,
      "à®®à®ķà®ķà®³": 2495,
      "Ġà®®à®ķà®ķà®²": 2496,
      "Ġà®ļà®Łà®Łà®®": 2497,
      "Ġà®īà®Łà®¯": 2498,
      "à®Ļà®ķà®³à®³": 2499,
      "âĢİ": 2500,
      "Ġà®ļà®¯à®µà®¤": 2501,
      "Ġà®īà®°à®µà®ķà®ķà®ªà®ªà®Łà®Ł": 2502,
      "Ġà®µà®±à®ªà®Ł": 2503,
      "Ġà®®à®¯à®¯à®¯à®²": 2504,
      "Ġà®ķà®´à®¨à®¤à®ķà®³": 2505,
      "Ġà®ªà®©à®µà®°à®®à®±": 2506,
      "à®ªà®ªà®Łà®¤": 2507,
      "Ġà®µà®°à®°": 2508,
      "Ġà®¨à®Łà®ļà®¤à®¤à®°": 2509,
      "Ġà®µà®³à®Ļ": 2510,
      "à®ķà®ķà®²à®¤à®¤à®²": 2511,
      "à®ªà®µà®°à®ķà®³": 2512,
      "Ġà®İà®¤à®°à®ªà®°": 2513,
      "od": 2514,
      "à®²à®Ł": 2515,
      "Ġà®ĩà®®à®®": 2516,
      "Ġà®ħà®¤à®°": 2517,
      "Ġà®ªà®°à®ļà®ļ": 2518,
      "Ġà®ªà®°à®ŀà®ļ": 2519,
      "à®ķà®²à®©": 2520,
      "Ġ190": 2521,
      "Ġà®µà®¯à®¨à®¤": 2522,
      "Ġà®Ĩà®¸à®¤à®°à®²à®¯": 2523,
      "ou": 2524,
      "Ġl": 2525,
      "à®¤à®£": 2526,
      "à®¤à®±à®©": 2527,
      "Ġà®ķà®¸": 2528,
      "Ġà®µà®Łà®Łà®®": 2529,
      "Ġà®ĩà®¨à®¤à®°": 2530,
      "Ġà®ªà®Łà®¤à®¤à®²": 2531,
      "à®ħà®®": 2532,
      "Ġà®ķà®¤à®¤à®°": 2533,
      "Ġà®¸à®Łà®Ł": 2534,
      "Ġà®ĥà®ªà®²": 2535,
      "Â°": 2536,
      "Ġà®ĩà®³à®®": 2537,
      "Ġà®ħà®Łà®®": 2538,
      "Ġà®ļà®ª": 2539,
      "Ġà®ªà®°à®£à®®": 2540,
      "Ġà®ķà®£à®®": 2541,
      "Ġà®ªà®²à®°": 2542,
      "Ġà®ĩà®²à®²à®®à®²": 2543,
      "Ġà®ļà®µà®¯à®¤": 2544,
      "Ġ2010": 2545,
      "Ġà®¤à®±à®ªà®¤à®¯": 2546,
      "Ġà®ĩà®¯à®±à®ªà®¯à®²": 2547,
      "40": 2548,
      "ty": 2549,
      "Ġà®ķà®ª": 2550,
      "Ġà®ķà®´à®ķà®ķà®³": 2551,
      "Ġà®¤à®Łà®°à®ļà®ļ": 2552,
      "2008": 2553,
      "à®ķà®¤à®¤à®¯": 2554,
      "Ġà®ļà®¤à®°à®£": 2555,
      "Ġà®ķà®±à®ķà®ķà®±à®¤": 2556,
      "Ġà®µà®³à®¯à®±": 2557,
      "Ġà®ıà®±à®ªà®Łà®Łà®¤": 2558,
      "à®ħà®°": 2559,
      "Ġà®Ĩà®ķà®¯à®µà®±à®±à®²": 2560,
      "Ġà®®à®¨à®¤": 2561,
      "Ġà®¨à®³à®®": 2562,
      "Ġà®ĩà®¨à®¤à®¯à®¤": 2563,
      "ĠMo": 2564,
      "Ġà®ĩà®²à®Ļà®ķà®¯à®©": 2565,
      "Ġà®®à®²à®£à®®": 2566,
      "Ġà®īà®²à®ķà®²": 2567,
      "22": 2568,
      "Ġà®ŀ": 2569,
      "à®¤à®´": 2570,
      "Ġà®¤à®Ļà®ķà®®": 2571,
      "ate": 2572,
      "Ġà®ļà®Łà®Łà®®à®©à®±à®¤": 2573,
      "à®¤à®¤à®±à®ķà®®": 2574,
      "à®ªà®£à®Ł": 2575,
      "Ġà®Ĩà®¯à®µà®ķà®³": 2576,
      "Ġà®¤à®ķà®ķ": 2577,
      "Ġà®Ĩà®µà®£": 2578,
      "à®²à®®à®©": 2579,
      "Ġà®ħà®®à®¤": 2580,
      "à®ªà®Łà®Łà®¤": 2581,
      "Ġà®®à®°à®ª": 2582,
      "Ġà®Ĵà®©à®±à®©": 2583,
      "Ġà®ķà®±à®ªà®ªà®Łà®¤à®¤à®ķà®ķ": 2584,
      "Ġà®Ĵà®ªà®ªà®¨à®¤à®Ļà®ķà®³": 2585,
      "Ġà®ķà®¨": 2586,
      "Ġà®ªà®ª": 2587,
      "Ġà®¤à®³à®®": 2588,
      "ary": 2589,
      "Ġà®¤à®©à®ªà®ªà®Łà®Ł": 2590,
      "Ġà®µà®Łà®®": 2591,
      "Ġà®ªà®°à®®à®ªà®°": 2592,
      "Ġà®ķà®¤à®¤": 2593,
      "Ġà®ķà®¤à®¤à®²": 2594,
      "à®µà®¯à®ķ": 2595,
      "Ġà®ĩà®ªà®ªà®¤": 2596,
      "Ġà®īà®¤à®¤à®°": 2597,
      "Ġà®ªà®°à®¸": 2598,
      "Ġà®¤à®°à®µà®ķà®³": 2599,
      "Ġà®ªà®±à®¯à®¯à®²": 2600,
      "Ġà®ķà®Łà®Łà®¯": 2601,
      "Ġà®ļà®²à®°": 2602,
      "Ġà®¤à®Łà®Ļà®ķà®¯à®¤": 2603,
      "Ġà®ļà®´à®¨à®²": 2604,
      "à®µà®³à®¯à®£à®ªà®ªà®ķà®³": 2605,
      "Ċĉ": 2606,
      "Ġ|": 2607,
      "Ġà®ªà®°à®µà®ķà®³": 2608,
      "Ġà®ķà®£à®ªà®ªà®Łà®ķà®©à®±à®©": 2609,
      "Ġà®®à®±à®±à®Ļà®ķà®³": 2610,
      "à®Łà®©à®®": 2611,
      "Ġà®¨à®Łà®Łà®²": 2612,
      "Ġà®īà®³à®¨à®Łà®Ł": 2613,
      "Ġà®µà®©à®°à®¤": 2614,
      "à®ķà®ķà®®à®ķ": 2615,
      "Ġà®ķà®²à®ķà®Łà®Ł": 2616,
      "à®ĩà®©": 2617,
      "Ġà®°à®·": 2618,
      "à®ªà®³à®¯à®®": 2619,
      "Ġà®µà®®à®°à®ļ": 2620,
      "Ġà®ĩà®¤à®¤à®ķà®¯": 2621,
      "Ġà®µà®Ļ": 2622,
      "Ġà®ĩà®°à®¤à®¤à®ļ": 2623,
      "à®¸à®°": 2624,
      "Ġ27": 2625,
      "à®ķà®¯à®ķ": 2626,
      "Ġà®µà®²à®¯à®®": 2627,
      "ĠY": 2628,
      "Ġà®®à®¸à®²à®®": 2629,
      "Ġà®ļà®µà®²": 2630,
      "Ġà®īà®ªà®¯": 2631,
      "à®µà®°à®¤à®¤": 2632,
      "Ġà®ĩà®°à®µà®°à®®": 2633,
      "Ġà®®à®©à®µà®°": 2634,
      "Ġà®µà®ļà®¤": 2635,
      "80": 2636,
      "em": 2637,
      "Ġà®µà®ªà®ªà®®": 2638,
      "à®ķà®ķà®±à®°à®ķà®³": 2639,
      "à®ħà®©": 2640,
      "Ġà®¤à®®à®´à®²": 2641,
      "Ġà®¤à®°à®ªà®ªà®Łà®¤à®¤à®²": 2642,
      "Ġ1999": 2643,
      "à®ķà®ķà®¸": 2644,
      "Ġà®ħà®Łà®°": 2645,
      "Ġà®İà®ķà®¸": 2646,
      "Ġà®ķà®Łà®¯à®¤": 2647,
      "der": 2648,
      "Ġà®ªà®°à®¤à®®à®°": 2649,
      "à®µà®°à®¤": 2650,
      "Ġà®ªà®ķà®ķ": 2651,
      "Ġà®ķà®±à®ªà®ª": 2652,
      "à®¯à®µà®²à®²": 2653,
      "we": 2654,
      "à®ķà®ķà®®à®©": 2655,
      "Ġà®ħà®®à®ļ": 2656,
      "ist": 2657,
      "Ġà®ªà®£à®ªà®°": 2658,
      "Ġà®¤à®±à®¨à®¤": 2659,
      "Ġà®ħà®±à®¨à®¤": 2660,
      "Ġà®ļà®¯à®¯à®ªà®ªà®Łà®Łà®¤": 2661,
      "23": 2662,
      "our": 2663,
      "Ġà®İà®©à®ªà®©": 2664,
      "à®¯à®°à®²": 2665,
      "Ġà®ĩà®¯à®±à®ķ": 2666,
      "Ġà®¹à®°": 2667,
      "Ġà®ķà®¯à®²à®ķà®³": 2668,
      "ĠNokia": 2669,
      "Ġà®¤à®¯à®°à®ªà®ª": 2670,
      "Ġà®ķà®£à®ķà®ķà®Łà®ªà®ªà®©": 2671,
      "Ġà®ļà®±à®µ": 2672,
      "Ġà®ļà®ªà®ªà®°": 2673,
      "Ġà®ªà®°à®¤à®©": 2674,
      "Ġà®®à®©à®ªà®°à®³": 2675,
      "à®ĩà®±": 2676,
      "Ġ1990": 2677,
      "à®ªà®©à®©": 2678,
      "à®ķà®ķà®ķà®ķ": 2679,
      "Ġà®ªà®¯à®©à®ªà®Łà®¤à®¤à®ªà®ªà®Łà®®": 2680,
      "Ġà®ķà®®à®°": 2681,
      "à®ĥà®ªà®°": 2682,
      "Ġ2011": 2683,
      "Ġà®ªà®°à®©à®ļ": 2684,
      "ER": 2685,
      "ĠÎ": 2686,
      "à®¯à®°à®©": 2687,
      "à®¤à®¤à®²à®ķ": 2688,
      "Ġà®İà®©à®±à®²à®®": 2689,
      "à®ĩà®¤à®©": 2690,
      "ĠĠĠ": 2691,
      "Ġà®ªà®Łà®Łà®ķà®³": 2692,
      "Ġà®¤à®Łà®°à®ªà®Łà®¯": 2693,
      "Ġà®ļà®´à®±à®ļ": 2694,
      "Ġà®ļà®¯à®±à®ķà®ķà®ķà®³": 2695,
      "ress": 2696,
      "ŀà®ļà®®": 2697,
      "à®£à®¯": 2698,
      "à®ķà®©à®°": 2699,
      "Ġà®ĩà®µà®°à®ķà®ķ": 2700,
      "Ġà®ħà®©à®ªà®µ": 2701,
      "à®ŀà®ļà®ķà®ªà®ªà®Ł": 2702,
      "Ġà®µà®°à®¤à®ķà®³": 2703,
      "Ġà®ªà®ķà®ķà®µà®°à®¤à®¤": 2704,
      "|-": 2705,
      "Ġà®®à®ķà®²": 2706,
      "Ġà®®à®ŀà®ļ": 2707,
      "Ġà®µà®¯à®²": 2708,
      "Ġà®¨à®ªà®²": 2709,
      "à®ķà®¤à®°": 2710,
      "Ġà®ķà®£à®ķ": 2711,
      "Ġà®ľà®©à®¤": 2712,
      "à®¨à®²à®ª": 2713,
      "ha": 2714,
      "à®ļà®¨à®¤à®°": 2715,
      "Ġà®¤à®¤à®¤à®µ": 2716,
      "à®µà®°à®ķà®³à®©": 2717,
      "Ġà®ªà®°à®®à®©": 2718,
      "à®¸à®¤à®©": 2719,
      "Ġà®ķà®°à®Ł": 2720,
      "Ġ2002": 2721,
      "Ġà®ħà®£à®ķà®ķ": 2722,
      "Ġà®Ĵà®ªà®ªà®¨à®¤à®®": 2723,
      "Ġà®µà®ķà®ªà®ªà®Ł": 2724,
      "Ġà®¨à®ķà®ļà®ļ": 2725,
      "Ġà®İà®©à®ķà®±": 2726,
      "Ġà®ĩà®°à®ªà®ª": 2727,
      "Ġà®Ĵà®°à®¨à®³": 2728,
      "olog": 2729,
      "Ġà®ªà®£à®ªà®Łà®Ł": 2730,
      "Ġà®ħà®Łà®¯à®³": 2731,
      "Ġà®īà®°à®µà®ķà®ķà®¯": 2732,
      "Ġà®ĥà®ªà®¸": 2733,
      "ĠRe": 2734,
      "à®ªà®ªà®¯à®°": 2735,
      "Ġà®īà®¤à®µà®¯": 2736,
      "art": 2737,
      "Ġà®ħà®®à®²": 2738,
      "à®ĩà®µ": 2739,
      "à®ªà®²à®®": 2740,
      "à®ªà®ªà®°à®©": 2741,
      "Ġà®µà®£à®Łà®¸": 2742,
      "Ġà®ĩà®¯à®ķà®ķà®¨à®°": 2743,
      "99": 2744,
      "ED": 2745,
      "ac": 2746,
      "Ġà®Ĵà®ªà®ªà®Ł": 2747,
      "Ġà®µà®³à®°à®¨à®¤": 2748,
      "à®ŀà®©": 2749,
      "Ġà®ĵà®Ł": 2750,
      "Ġà®ħà®´à®±à®ļ": 2751,
      "Ġà®ªà®´à®Ļà®ķà®Ł": 2752,
      "Ġà®ªà®¤à®²à®ķ": 2753,
      "Ġà®ĵà®Łà®Łà®Ļà®ķà®³": 2754,
      "Ġà®®à®¯à®²": 2755,
      "à®ļà®ķà®°": 2756,
      "Ġà®ĩà®ªà®ªà®Ł": 2757,
      "Ġà®µà®·": 2758,
      "à®µà®°à®Ł": 2759,
      "Ġà®ªà®°à®Ļà®ķà®Ł": 2760,
      "Ġà®ķà®£à®Łà®³à®³à®°": 2761,
      "Ġà®ªà®Łà®Łà®®": 2762,
      "Ġà®ıà®±à®¤à®¤à®´": 2763,
      "Ġà®ħà®´à®ķà®ķà®ªà®ªà®Ł": 2764,
      "di": 2765,
      "ite": 2766,
      "à®ªà®°à®ķ": 2767,
      "Ġà®ķà®Łà®¤à®¤à®¤": 2768,
      "à®ķà®ķà®¯à®®": 2769,
      "Ġà®ĩà®¨à®¨à®²": 2770,
      "Ġà®ªà®²à®²à®¯à®©": 2771,
      "ath": 2772,
      "à®®à®Łà®Ł": 2773,
      "Ġà®µà®°à®µà®¤": 2774,
      "Ġà®ķà®³à®ªà®Łà®©": 2775,
      "Ġà®®à®¤à®¤à®¤à®²": 2776,
      "Ġà®Łà®Łà®Ł": 2777,
      "à®¤à®Ł": 2778,
      "Ġà®ħà®ŀà®ļà®²": 2779,
      "Ġà®ĩà®°à®¤à®¤": 2780,
      "Ġà®®à®±à®ķà®£à®Ł": 2781,
      "Ġà®°à®ķ": 2782,
      "ign": 2783,
      "à®ŀà®ļà®¯": 2784,
      "à®µà®³à®µ": 2785,
      "Ġà®ĩà®°à®¨à®¤à®²": 2786,
      "Ġà®®à®¤à®ªà®ª": 2787,
      "Ġà®İà®Łà®¤à®¤à®ķà®ķà®Łà®Łà®ķ": 2788,
      "à®°à®¨à®¤à®¤": 2789,
      "Ġà®¤à®¤à®¤": 2790,
      "Ġà®¤à®±à®µ": 2791,
      "à®ķà®ķà®³à®ķ": 2792,
      "Ġà®ªà®Łà®ªà®ªà®Ł": 2793,
      "Ġà®ķà®Łà®Łà®£": 2794,
      "Ġà®ªà®°à®®à®ªà®©": 2795,
      "Ġà®ķà®¤à®ķà®³": 2796,
      "à®®à®¯à®²": 2797,
      "à®ªà®ªà®ªà®ªà®Łà®Ł": 2798,
      "Ġà®ªà®°à®Łà®ļ": 2799,
      "Ġà®ķà®£à®ªà®ªà®Ł": 2800,
      "à®¯à®°à®ľ": 2801,
      "à®µà®©à®²": 2802,
      "Ġà®µà®³à®µà®ķ": 2803,
      "ĠAr": 2804,
      "Ġà®ľà®©à®©": 2805,
      "à®ħà®°à®ļ": 2806,
      "Ġà®ĩà®Łà®Ļà®ķà®³": 2807,
      "Ġà®ĩà®ļà®ķà®ķà®´": 2808,
      "Ġ1970": 2809,
      "à®®à®¤à®²": 2810,
      "à®®à®¯à®ķ": 2811,
      "Ġà®Ĩà®ķà®µ": 2812,
      "à®ķà®¯à®®": 2813,
      "à®Łà®°à®©": 2814,
      "Ġà®ļà®°à®¯à®ķ": 2815,
      "Ġà®ħà®Łà®Ļà®ķà®®": 2816,
      "à®ķà®ªà®ªà®²": 2817,
      "Ġà®ĩà®ļà®¤à®¤": 2818,
      "Ġà®ĩà®ļà®²à®®": 2819,
      "Ġà®ļà®¯à®¤à®ķà®³": 2820,
      "Ġà®ķà®ªà®²": 2821,
      "Ġà®µà®´à®Ļà®ķà®ªà®ªà®Łà®Łà®¤": 2822,
      "Ġà®ĩà®¸à®²à®®": 2823,
      "Ġà®ħà®ķà®²": 2824,
      "Ġà®ļà®µà®®": 2825,
      "Ġà®ļà®¤à®µ": 2826,
      "à®ķà®ķà®ªà®ªà®Łà®Łà®³à®³à®©": 2827,
      "Ġà®ļà®®à®¯à®®": 2828,
      "Ġà®¤à®²à®µà®¯": 2829,
      "2007": 2830,
      "Ġà®īà®°à®µà®ķà®ķà®ªà®ªà®Łà®Łà®¤": 2831,
      "à®ªà®®à®©": 2832,
      "Ġà®µà®²à®²à®¯à®®": 2833,
      "age": 2834,
      "Ġà®ªà®°à®ªà®²à®®à®©": 2835,
      "Ġà®®à®ļà®ļ": 2836,
      "Ġà®İà®²à®®": 2837,
      "Ġà®µà®°à®Łà®®": 2838,
      "Ġà®ķà®Łà®ķà®³": 2839,
      "Ġà®ħà®®à®¯à®®": 2840,
      "Ġà®ļà®°à®²": 2841,
      "Ġà®ªà®Łà®¯": 2842,
      "Ġà®ķà®£à®Łà®³à®³à®©": 2843,
      "Ġà®ľà®¯": 2844,
      "Ġà®īà®²à®ķà®³": 2845,
      "Ġà®µà®Łà®Łà®°": 2846,
      "growth": 2847,
      "market": 2848,
      "à®³à®ķà®³": 2849,
      "Ġà®¤à®ķà®ķà®®": 2850,
      "Ġà®Ĩà®©à®®": 2851,
      "Ġà®ķà®±à®¯": 2852,
      "Ġà®ķà®Łà®ļà®¯": 2853,
      "à®ķà®©à®©": 2854,
      "Ġà®ķà®²à®ļà®ļà®°": 2855,
      "Ġà®ıà®©à®¯": 2856,
      "à®ķà®ķà®ķà®®": 2857,
      "Ġà®ĩà®¯à®ķà®ķà®®": 2858,
      "à®µà®¯à®ķà®®": 2859,
      "Ġà®īà®¯à®°à®£": 2860,
      "Ġà®īà®Łà®±": 2861,
      "Ġ1980": 2862,
      "à®ªà®ªà®ªà®Ł": 2863,
      "Ġà®µà®ľà®¯": 2864,
      "Ġà®¤à®¯à®²": 2865,
      "Ġà®¤à®¯à®®": 2866,
      "à®¨à®®": 2867,
      "Ġà®¨à®©à®®": 2868,
      "Ġà®¤à®°à®®à®ª": 2869,
      "Ġà®ķà®°à®ķà®ķ": 2870,
      "Ġà®®à®©à®ļà®°": 2871,
      "Ġà®ªà®¯à®©à®°": 2872,
      "à®ªà®²à®©": 2873,
      "à®ªà®ªà®¤à®±à®ķà®ķ": 2874,
      "Ġà®ĩà®°à®¨à®¤à®²à®®": 2875,
      "à®µà®°à®ķà®³à®ķà®ķ": 2876,
      "Ġà®¤à®°à®µà®´": 2877,
      "Ġà®¨à®³à®²": 2878,
      "Ġà®¨à®Łà®µà®Łà®ķà®ķ": 2879,
      "Ġà®īà®³à®³à®Łà®ķà®ķà®¯": 2880,
      "Ġà®ħà®²à®µà®²à®ķà®®": 2881,
      "70": 2882,
      "Ġà®¤à®ķà®´": 2883,
      "Ġà®ħà®£à®®": 2884,
      "Ġà®ªà®°à®ļà®ļà®©": 2885,
      "Ġà®¤à®°à®¤à®²à®²": 2886,
      "à®ªà®°à®¸": 2887,
      "à®¤à®°à®ªà®ªà®Łà®®": 2888,
      "Ġà®ķà®³à®ķ": 2889,
      "Ġà®ľà®ķà®ķ": 2890,
      "Ġà®¤à®®à®´à®°": 2891,
      "Ġà®ķà®©à®®": 2892,
      "à®ªà®ªà®±à®ķ": 2893,
      "Ġà®¤à®³à®ªà®¤": 2894,
      "Ġà®¤à®Łà®Łà®Ļà®ķà®³": 2895,
      "Ġà®ªà®¨à®¤à®¯": 2896,
      "Ġà®İà®µà®µà®±": 2897,
      "Ġà®µà®©à®®": 2898,
      "Ġà®ķà®Łà®ªà®Łà®Ł": 2899,
      "à®ķà®Łà®²": 2900,
      "Ġà®ĵà®µà®¯": 2901,
      "Ġà®®à®ķà®ķà®¯à®¤à®¤à®µà®®": 2902,
      "Ġà®ªà®µà®¯à®¯à®²": 2903,
      "Ġà®ķà®Łà®®à®ªà®®": 2904,
      "Ġà®¨à®±à®µà®±à®±": 2905,
      "Ġà®ķà®Łà®¯à®°à®ļ": 2906,
      "à®ªà®ķà®¤à®¯à®²": 2907,
      "à®ħà®®à®°à®ķà®ķ": 2908,
      "Ġà®ħà®±à®®à®ķà®ªà®ªà®Łà®¤à®¤": 2909,
      "im": 2910,
      "à®Łà®¤à®¤à®²": 2911,
      "Ġà®ªà®·": 2912,
      "à®Łà®Łà®¤": 2913,
      "Ġà®µà®°à®¨à®¤": 2914,
      "Ġà®ķà®°à®¨à®Łà®ķ": 2915,
      "Ġà®µà®´à®¯": 2916,
      "Ġà®¨à®²à®¯à®©": 2917,
      "Ġà®¤à®Łà®Ļà®ķ": 2918,
      "à®ªà®ªà®©à®¯": 2919,
      "Ġà®ĩà®Łà®®à®ªà®±": 2920,
      "Ġà®ħà®Łà®ªà®ªà®Łà®¯à®ķà®ķ": 2921,
      "Ġà®Ĩà®£à®ķà®³": 2922,
      "downgrade": 2923,
      "strong": 2924,
      "shares": 2925,
      "à®µà®±à®ķ": 2926,
      "Ġà®µà®¨à®¯": 2927,
      "à®ªà®¤à®¤à®©": 2928,
      "Ġà®µà®°à®µà®²": 2929,
      "Ġà®®à®©à®©à®±": 2930,
      "Ġà®ªà®²à®µà®°": 2931,
      "à®ķà®ķà®ķà®µ": 2932,
      "ĠSt": 2933,
      "Ġ80": 2934,
      "Ġà®ħà®³à®µà®ķà®ķ": 2935,
      "Ġà®®à®®à®ªà®Łà®Ł": 2936,
      "Ġhttps": 2937,
      "à®µà®°à®ķà®ķà®®": 2938,
      "rom": 2939,
      "à®ķà®°à®¯": 2940,
      "Ġà®®à®©à®¤à®©": 2941,
      "Ġà®ªà®©à®ª": 2942,
      "Ġà®¨à®°à®©": 2943,
      "ical": 2944,
      "à®ķà®Łà®°à®¯": 2945,
      "Ġà®ªà®ķà®¤à®¯à®ķ": 2946,
      "Ġà®Īà®´": 2947,
      "Ġ60": 2948,
      "Ġà®ªà®³à®³à®ķà®³": 2949,
      "Ġ1996": 2950,
      "opened": 2951,
      "price": 2952,
      "Ġà®µà®°à®®à®ª": 2953,
      "à®ªà®°à®µ": 2954,
      "Ġà®ķà®²à®¨à®²": 2955,
      "Ġà®ķà®²à®ŀà®°": 2956,
      "190": 2957,
      "Ġà®ĩà®°à®¨à®¤à®©à®°": 2958,
      "Ġà®ħà®¤à®ķà®°à®¤à®¤": 2959,
      "Ġà®¤à®°à®®à®£": 2960,
      "Ġà®ªà®°à®µà®²à®ķ": 2961,
      "%)": 2962,
      "AS": 2963,
      "Ġà®¨à®°à®Ļà®ķà®³à®²": 2964,
      "à®ķà®ķà®¤à®²": 2965,
      "Ġà®ªà®¯à®©à®ªà®Łà®®": 2966,
      "Ġà®Ĩà®ķà®¯à®©": 2967,
      "Ġà®İà®©à®ªà®¤à®Łà®©": 2968,
      "Ġà®ªà®¯à®©à®ªà®Łà®¤à®¤à®®": 2969,
      "Ġà®ļà®¯à®¯à®ªà®ªà®Łà®®": 2970,
      "Ġà®ķà®£à®Łà®°à®¨à®¤": 2971,
      "Ġà®®à®¯à®¨à®ķà®°": 2972,
      "Ġà®ıà®±à®±à®ķà®ķà®³à®³": 2973,
      "Ġà®¯à®©à®Łà®Ł": 2974,
      "Ġà®Īà®Łà®ªà®Ł": 2975,
      "Ġà®Ĵà®²à®µà®Ļà®ķà®ķà®³": 2976,
      "76": 2977,
      "ne": 2978,
      "à®©à®ķ": 2979,
      "à®£à®©": 2980,
      "Ġà®īà®°à®ļ": 2981,
      "Ġà®ķà®²à®ŀà®°à®ķà®³": 2982,
      "Ġà®®à®±à®ªà®Ł": 2983,
      "Ġà®ķà®£à®Łà®±à®¯": 2984,
      "Ġà®ļà®¯à®¤à®©à®°": 2985,
      "ĠâĢİ": 2986,
      "à®Ĳà®ķà®ķà®¯": 2987,
      "Ġà®¤à®Ļà®ķà®³à®¤": 2988,
      "Ġà®ĩà®©à®±à®¯": 2989,
      "Ġà®ļà®°à®ķà®ķà®°à®ķ": 2990,
      "Ġà®®à®¹": 2991,
      "Ġà®µà®ķà®©": 2992,
      "Ġà®İà®ķà®ª": 2993,
      "Ġà®īà®´": 2994,
      "à®ªà®ªà®Łà®²": 2995,
      "à®ªà®°à®ķà®³": 2996,
      "Ġà®¨à®Łà®¤à®¤à®¯": 2997,
      "Ġà®®à®±à®¯à®ķ": 2998,
      "Ġà®ķà®Łà®Łà®¤à®¤à®Łà®Ł": 2999,
      "à®ľà®°": 3000,
      "Ġà®ļà®±à®ķà®³": 3001,
      "Ġà®ļà®Łà®Łà®®à®©à®±": 3002,
      "Ġà®ķà®Łà®®à®¯à®©": 3003,
      "Ġà®®à®°à®¤à®¤à®µà®®à®©": 3004,
      "Ġà®ķà®Łà®±à®ªà®Ł": 3005,
      "Ġà®ªà®©à®©à®Łà®Łà®¤": 3006,
      "Ġà®¤à®´à®±à®ļà®²": 3007,
      "Ġà®ªà®ľ": 3008,
      "à®¯à®°à®ķà®³à®©": 3009,
      "Ġà®µà®³à®¯à®²": 3010,
      "Ġà®°à®µ": 3011,
      "Ġà®ķà®³à®ŀà®ļà®ķà®ªà®ªà®Ł": 3012,
      "à®ķà®ķà®±à®±": 3013,
      "Ġà®ªà®ķà®¤à®¯": 3014,
      "Ġà®ķà®Łà®ļà®ķà®³": 3015,
      "à®ķà®ķà®ķà®ķà®Łà®¯": 3016,
      "AT": 3017,
      "FS": 3018,
      "ĠQ": 3019,
      "à®¨à®¤à®ķà®³": 3020,
      "à®ķà®®à®®": 3021,
      "à®ªà®Łà®²": 3022,
      "à®²à®²à®°": 3023,
      "Ġà®ļà®®à®¯à®¤à®¤à®²": 3024,
      "Ġà®ļà®®à®ªà®¯à®©": 3025,
      "à®ħà®²à®²à®¤": 3026,
      "Ġà®®à®Łà®µà®Ł": 3027,
      "à®ķà®ķà®ķà®ªà®ªà®Łà®Ł": 3028,
      "Ġà®®à®©à®©à®±à®±": 3029,
      "Ġà®ķà®Ļà®ķ": 3030,
      "Ġà®µà®Łà®¤à®²à®ª": 3031,
      "Ġà®ħà®±à®ķà®±à®ķà®³": 3032,
      "ran": 3033,
      "Ġà®ļà®Ļà®ķà®®": 3034,
      "Ġà®ªà®°à®ļà®²": 3035,
      "à®¤à®°à®Ļà®ķà®³": 3036,
      "Ġà®ķà®³à®³à®®": 3037,
      "Ġà®ħà®Łà®ķà®ķà®Ł": 3038,
      "Ġà®ĩà®µà®°à®©": 3039,
      "2009": 3040,
      "Ġà®Ĩà®¤à®°à®µ": 3041,
      "und": 3042,
      "Ġà®ªà®ķà®´à®ªà®±à®±": 3043,
      "à®µà®ķà®®": 3044,
      "à®ļà®¸": 3045,
      "Ġà®¤à®±à®ķà®Ł": 3046,
      "Ġà®µà®°à®²à®±à®±à®²": 3047,
      ".)": 3048,
      "all": 3049,
      "bearish": 3050,
      "profit": 3051,
      "à®®à®³": 3052,
      "à®¯à®¸": 3053,
      "à®¤à®¤à®³à®®": 3054,
      "à®ķà®ķà®Ļ": 3055,
      "Ġà®¤à®µà®±": 3056,
      "Ġà®ħà®ķà®±à®±": 3057,
      "Ġà®¨à®µà®²": 3058,
      "à®µà®©à®©": 3059,
      "ral": 3060,
      "Ġà®ļà®¯à®¤à®²": 3061,
      "Ġà®¤à®²à®Ļà®ķ": 3062,
      "Ġà®®à®²à®ķ": 3063,
      "Ġà®ħà®³à®µà®Ł": 3064,
      "Ġà®Ĳà®¤à®°": 3065,
      "Ġà®ªà®¯à®©à®ªà®Łà®¤à®¤à®ªà®ªà®Łà®ķà®©à®±à®©": 3066,
      "Ġà®¤à®´à®²à®³à®°à®ķà®³": 3067,
      "2011": 3068,
      "Ġà®µà®³à®¯à®Łà®Łà®°": 3069,
      "Ġà®Ĩà®£à®¯à®®": 3070,
      "Ġà®¤à®Łà®ªà®ªà®Łà®Łà®ķà®ķà®°à®°": 3071,
      "Ġà®µà®¤à®¯à®¯à®²": 3072,
      "Ġà®ķà®£à®ķà®ķà®Łà®ªà®ªà®©à®ªà®Ł": 3073,
      "sh": 3074,
      "à®Łà®ķà®ķ": 3075,
      "Ġà®ĩà®Łà®°": 3076,
      "Ġà®¨à®ķà®ķà®²": 3077,
      "Ġà®ªà®Łà®Ļà®ķà®³": 3078,
      "enter": 3079,
      "revenue": 3080,
      "Ġà®²à®©": 3081,
      "tern": 3082,
      "Ġà®İà®´à®¤à®©à®°": 3083,
      "Ġà®ĩà®Łà®¤à®¤": 3084,
      "Ġà®ªà®ļà®®": 3085,
      "à®ªà®ªà®¯à®²": 3086,
      "à®ĩà®²à®Ļà®ķ": 3087,
      "Ġ1998": 3088,
      "Ġà®ķà®²à®²à®°à®²": 3089,
      "Ġà®µà®Łà®µà®®à®ªà®ª": 3090,
      "op": 3091,
      "st": 3092,
      "à®ªà®·": 3093,
      "Ġà®®à®£à®®": 3094,
      "Ġà®ħà®¨à®¤à®¤": 3095,
      "à®Ļà®ķà®Ļ": 3096,
      "à®ªà®ķà®°": 3097,
      "Ġà®µà®°à®¯à®²": 3098,
      "à®ķà®²à®µ": 3099,
      "Ġà®ħà®Łà®¨à®¤": 3100,
      "à®ķà®ªà®ªà®±": 3101,
      "Ġby": 3102,
      "Ġ189": 3103,
      "Ġà®ķà®Łà®ļà®¯à®©": 3104,
      "Ġà®®à®¨à®²à®¤à®¤à®©": 3105,
      "Ġà®ħà®Łà®Łà®µà®£": 3106,
      "ill": 3107,
      "à®ªà®İ": 3108,
      "à®ªà®ŀà®ļ": 3109,
      "Ġà®īà®¤à®¤": 3110,
      "Ġà®ªà®ķà®ķà®®": 3111,
      "Ġà®ķà®£à®²à®®": 3112,
      "à®ķà®±à®³": 3113,
      "Ġà®µà®´à®Ļà®ķà®¯": 3114,
      "Ġà®ªà®£à®®": 3115,
      "à®ķà®ķà®°à®µ": 3116,
      "à®ķà®ķà®µà®©": 3117,
      "Ġà®ĩà®£à®ªà®ª": 3118,
      "Ġà®ĩà®Łà®µà®³": 3119,
      "Ġà®ķà®£à®Łà®°à®¨à®¤à®¤": 3120,
      "Ġà®ªà®Ļà®ķà®±": 3121,
      "Ġà®®à®°à®¨à®¤à®ķà®³": 3122,
      "Ġà®īà®£à®®à®¯à®²": 3123,
      "Ġà®Ĩà®Łà®ļà®¯": 3124,
      "à®Łà®¯à®®": 3125,
      "à®µà®ķà®ķà®®": 3126,
      "à®ļà®¨à®¤": 3127,
      "Ġà®µà®ļà®°": 3128,
      "Ġà®ļà®ķà®ķà®¯": 3129,
      "à®ķà®°à®·à®£": 3130,
      "Ġà®ķà®£à®ķà®ķà®²": 3131,
      "Ġà®ªà®¤à®®à®©": 3132,
      "Ġà®µà®´à®Ļà®ķà®®": 3133,
      "ĠAn": 3134,
      "Ġà®īà®¯à®°à®´": 3135,
      "Ġà®ķà®µà®©à®®": 3136,
      "Ġà®¨à®ķà®´à®ļà®ļà®ķà®³": 3137,
      "à®ķà®¨à®¤à®°": 3138,
      "Ġà®ħà®³à®µà®²à®©": 3139,
      "24": 3140,
      "à®ļà®²à®®": 3141,
      "Ġà®ļà®ķ": 3142,
      "Ġà®ļà®²à®®": 3143,
      "Ġà®ļà®µà®¤": 3144,
      "Ġà®Ĩà®¯à®°": 3145,
      "à®ªà®ªà®Łà®µà®²à®²": 3146,
      "Ġà®ħà®®à®¨à®¤à®¤": 3147,
      "Ġà®Łà®µ": 3148,
      "à®ªà®ªà®©à®¤": 3149,
      "Ġà®®à®Łà®µà®²": 3150,
      "à®Ĩà®Ļà®ķà®²": 3151,
      "Ġà®²à®ªà®¸": 3152,
      "Ġà®ĩà®¯à®Ļ": 3153,
      "Ġà®ªà®ķà®¤à®¯à®©": 3154,
      "Ġà®ļà®©à®µà®°": 3155,
      "Ġà®İà®Łà®¤à®¤à®ķ": 3156,
      "Ġà®ļà®Ļà®ķà®ªà®ªà®°": 3157,
      "Ġà®ªà®°à®ļà®¤à®©": 3158,
      "Ġà®ªà®°à®Łà®Łà®©": 3159,
      "Ġà®Ĩà®°à®®à®ªà®¤à®¤à®²": 3160,
      "Ġà®ªà®²à®ķà®²à®ķà®ķà®´à®ķà®®": 3161,
      "ame": 3162,
      "ry": 3163,
      "ts": 3164,
      "à®®à®ķà®ķ": 3165,
      "à®ķà®³à®ļ": 3166,
      "Ġà®µà®ķà®¤à®¤": 3167,
      "Ġà®¨à®·": 3168,
      "Ġà®Ĩà®¯à®¤": 3169,
      "Ġà®Ĩà®¤à®¤à®°": 3170,
      "à®ªà®ªà®Łà®²à®®": 3171,
      "Ġà®®à®©à®©à®²": 3172,
      "Ġà®µà®³à®ªà®ªà®Łà®¤à®¤": 3173,
      "Ġà®¤à®©à®¯à®°": 3174,
      "à®µà®®à®ķ": 3175,
      "Ġà®®à®²à®¯": 3176,
      "Ġà®®à®²à®ļà®¯": 3177,
      "à®ķà®ķà®°à®ķà®³": 3178,
      "Ġà®¤à®´à®²à®³à®°": 3179,
      "Ġà®µà®´à®Ļà®ķà®ªà®ªà®Łà®Ł": 3180,
      "Ġà®¨à®Łà®ªà®±à®±à®¤": 3181,
      "86": 3182,
      "à®Łà®¯à®ķ": 3183,
      "à®¤à®¤à®¤à®©": 3184,
      "Ġà®ħà®Ļà®ķà®°": 3185,
      "Ġà®Ĵà®µ": 3186,
      "Ġà®ķà®±à®¯à®Łà®Ł": 3187,
      "Ġà®ªà®Łà®ķà®²": 3188,
      "Ġà®µà®´à®®à®±": 3189,
      "Ġà®ķà®£à®Łà®µà®°": 3190,
      "Ġà®īà®°à®µà®©à®¤": 3191,
      "Ġà®¤à®Łà®ķà®ķ": 3192,
      "à®ŀà®ļà®°": 3193,
      "Ġà®®à®Łà®µà®ķà®³": 3194,
      "Ġà®ħà®°à®ļà®Ļ": 3195,
      "à®īà®²": 3196,
      "Ġà®µà®¯à®ªà®ª": 3197,
      "Ġà®İà®´à®¤à®¤à®ķà®ķà®³": 3198,
      "Ġà®ħà®°à®ļà®¯à®²à®µà®¤à®ķà®³": 3199,
      "ote": 3200,
      "à®¯à®¯": 3201,
      "Ġà®ļà®µà®°": 3202,
      "Ġà®ªà®°à®ķà®ķà®®": 3203,
      "Ġà®ªà®ķà®®": 3204,
      "Ġà®ĩà®°à®ªà®ªà®¤à®²": 3205,
      "à®ªà®ªà®Łà®ķà®±à®°": 3206,
      "Ġà®ķà®°à®³": 3207,
      "Ġà®ķà®Łà®Łà®ķ": 3208,
      "Ġà®ķà®³à®ķà®®": 3209,
      "Ġà®®à®´à®µà®¤": 3210,
      "Ġà®ªà®°à®®à®°": 3211,
      "Ġ35": 3212,
      "à®®à®ªà®¤à®¤à®°": 3213,
      "Ġà®¹à®ªà®ªà®°à®©": 3214,
      "Ġà®ķà®¤à®ªà®¤à®¤à®°": 3215,
      "Ġà®Ĵà®©à®±à®¯à®®": 3216,
      "Ġà®¨à®ķà®°à®Ļà®ķà®³": 3217,
      "Ġà®¨à®¯à®¯à®°à®ķ": 3218,
      "Ġà®ħà®¨à®¤à®ª": 3219,
      "Ġ1994": 3220,
      "Ġà®ļà®©à®±à®°": 3221,
      "Ġà®ªà®©à®©à®£": 3222,
      "Ġà®ħà®ļà®ķà®°à®©": 3223,
      "32": 3224,
      "Ġà®ĩà®¤à®°": 3225,
      "Ġà®ĩà®°à®ļ": 3226,
      "Ġà®ķà®±à®®": 3227,
      "Ġà®ķà®±à®ķà®±à®¤": 3228,
      "à®ļà®ļà®¨à®¤à®°à®©": 3229,
      "Ġà®µà®³à®ªà®ªà®±": 3230,
      "Ġà®µà®´à®ªà®Ł": 3231,
      "Ġà®µà®´à®ªà®Łà®Ł": 3232,
      "à®£à®®à®²": 3233,
      "Ġà®ħà®³à®µà®ķà®³": 3234,
      "Ġà®ħà®´à®ķà®ķà®ªà®ªà®Łà®Ł": 3235,
      "Ġà®īà®²à®ķà®Ļà®ķà®³": 3236,
      "Ġà®®à®ķà®ķà®³à®¤": 3237,
      "Ġà®ªà®°à®Łà®Łà®·": 3238,
      "à®Ļà®ķà®Łà®ļà®¯": 3239,
      "Ġà®ĩà®µà®±à®±à®²": 3240,
      "Ġà®¤à®£à®£à®°": 3241,
      "Ġà®ľà®©à®©à®¯": 3242,
      "Ġà®ĩà®°à®£": 3243,
      "Ġà®µà®°à®µà®¯": 3244,
      "Ġà®µà®´à®¤à®¤": 3245,
      "Ġà®µà®Łà®µà®²": 3246,
      "à®ªà®©à®±": 3247,
      "Ġà®ļà®±à®ªà®ªà®ķ": 3248,
      "Ġà®®à®ķà®ķà®³à®µà®¤": 3249,
      "Ġà®ļà®¯à®²à®ªà®Łà®¤à®¤": 3250,
      "Ġà®ķà®¯à®³": 3251,
      "Ġà®İà®¤à®°à®ªà®ª": 3252,
      "Ġà®ķà®©à®±": 3253,
      "Ġà®ªà®´à®®": 3254,
      "ork": 3255,
      "à®ķà®Ļà®ķà®³à®©": 3256,
      "Ġà®ĩà®¨à®¨à®ķà®°": 3257,
      "Ġà®µà®ķà®¤à®®": 3258,
      "Ġà®ķà®Łà®±à®ķà®°": 3259,
      "Ġà®µà®³à®®à®ªà®°": 3260,
      "qu": 3261,
      "Ġà®ķà®·": 3262,
      "Ġà®ļà®ķà®ļ": 3263,
      "Ġà®ļà®µà®¯": 3264,
      "Ġà®¤à®°à®ķà®±à®¤": 3265,
      "Ġà®¤à®°à®¯à®±": 3266,
      "Ġà®ĩà®²à®Ļà®ķà®¯à®²": 3267,
      "Ġà®İà®©à®ªà®¤à®ķ": 3268,
      "Ġà®ĩà®µà®°à®Łà®¯": 3269,
      "à®µà®Łà®Łà®¤": 3270,
      "Ġà®ļà®¯à®²à®¤à®±à®©": 3271,
      "Ġà®¨à®Łà®¤à®¤à®³à®³à®©à®°": 3272,
      "Ġà®¤à®Ļà®ķà®¯": 3273,
      "Ġà®Ĩà®ķà®©": 3274,
      "Ġà®İà®ªà®ªà®Ł": 3275,
      "Ġà®ķà®Łà®¯à®±à®±": 3276,
      "Ġà®ķà®Łà®Łà®°à®ķà®³": 3277,
      "âĢĮ": 3278,
      "Ġà®¨à®²à®ķà®³à®²": 3279,
      "Ġà®ķà®´à®ķà®®": 3280,
      "à®Ĩà®Ļà®ķà®²à®®": 3281,
      "Ġà®¨à®¯à®ķà®³": 3282,
      "Ġà®ķà®®à®ª": 3283,
      "Ġà®¤à®°à®µà®¤à®¤à®°": 3284,
      "Ġà®®à®ŀà®ļà®³": 3285,
      "ai": 3286,
      "stock": 3287,
      "Ġà®ķà®ŀà®ļ": 3288,
      "Ġà®®à®¨à®²à®®": 3289,
      "Ġà®¨à®Ļà®ķà®³": 3290,
      "à®ªà®ªà®¤à®¤": 3291,
      "à®µà®©à®±": 3292,
      "Ġà®ķà®²à®¤à®¤": 3293,
      "Ġà®ĩà®¨à®¤à®ļ": 3294,
      "Ġà®¨à®²à®µ": 3295,
      "Ġà®ªà®£à®¯à®³à®°à®ķà®³": 3296,
      "à®Ĩà®£à®Ł": 3297,
      "à®µà®³à®°": 3298,
      "à®ķà®ķà®Łà®®": 3299,
      "Ġà®¨à®ķà®°à®Łà®ļ": 3300,
      "Ġà®ħà®¤à®ķà®°à®ªà®ªà®°à®µ": 3301,
      "Ġà®®à®¤à®©à®®à®¯à®©": 3302,
      "vers": 3303,
      "Ġà®ķà®Ļà®ķà®°à®¸": 3304,
      "Ġà®İà®¤à®µà®®": 3305,
      "ction": 3306,
      "ide": 3307,
      "volume": 3308,
      "à®ªà®ªà®Łà®©": 3309,
      "Ġà®ķà®°à®¸": 3310,
      "Ġà®ħà®®à®ªà®ªà®²": 3311,
      "Ġà®ļà®°à®®à®©": 3312,
      "Ġà®µà®´à®Ļà®ķ": 3313,
      "Ġà®ħà®µà®°à®ķà®³à®ķà®ķ": 3314,
      "Ġà®īà®°à®µà®ķà®ķà®©à®°": 3315,
      "Ġà®ĩà®±à®²": 3316,
      "ĠCom": 3317,
      "Ġà®ĩà®°à®ªà®ªà®¤à®ķ": 3318,
      "Ġà®¨à®Łà®ķà®°à®ķà®³": 3319,
      "Ġà®ĩà®ªà®ªà®ķà®¤": 3320,
      "Ġà®¤à®®à®®": 3321,
      "Ġà®ķà®£à®Łà®©": 3322,
      "Ġà®ªà®¯à®©à®±": 3323,
      "Ġà®ķà®³à®¯à®²": 3324,
      "Ġà®¤à®Łà®ªà®ª": 3325,
      "à®ķà®Łà®ļ": 3326,
      "Ġà®²à®²": 3327,
      "Ġà®ħà®´à®¤à®¤à®®": 3328,
      "Ġà®ħà®©à®¤à®¤à®²à®ķ": 3329,
      "Ġà®ĩà®±à®ķà®ķà®®": 3330,
      "à®¨à®Łà®Łà®©": 3331,
      "ational": 3332,
      "Ġà®īà®£à®®à®¯à®©": 3333,
      "Ġà®¨à®°à®Łà®¯à®ķ": 3334,
      "tory": 3335,
      "Ġà®ħà®Ļà®ķà®ķà®°": 3336,
      "ology": 3337,
      "ook": 3338,
      "ĠX": 3339,
      "Ġà®¤à®³à®³": 3340,
      "Ġà®¤à®¯à®µ": 3341,
      "Ġà®ªà®°à®µà®©": 3342,
      "à®ķà®µà®¯à®²": 3343,
      "Ġà®ķà®Łà®Łà®¤à®¤à®²": 3344,
      "Ġà®ļà®¯à®ķà®±à®¤": 3345,
      "Ġà®ªà®°à®®à®£": 3346,
      "Ġà®īà®¯à®°à®¯à®²": 3347,
      "Ġ500": 3348,
      "Ġà®īà®±à®ªà®¤à®¤à®¯": 3349,
      "Ġ639": 3350,
      "Ġ1995": 3351,
      "Ġà®ķà®±à®±à®®": 3352,
      "Ġà®µà®²à®µà®¯à®ªà®ªà®©à®®": 3353,
      "weak": 3354,
      "ber": 3355,
      "à®Łà®¯à®¤": 3356,
      "Ġà®ļà®¯à®®": 3357,
      "à®Łà®Łà®ķà®³": 3358,
      "Ġà®ªà®ķà®ķà®¤à®¤à®©": 3359,
      "à®ªà®°à®Łà®ķà®³": 3360,
      "à®ļà®ļà®´à®²": 3361,
      "à®ªà®ªà®Łà®Łà®³à®³à®©": 3362,
      "Ġà®¨à®Łà®ķà®®": 3363,
      "Ġà®ķà®´à®µà®©": 3364,
      "Ġà®ķà®³à®°à®ļà®ļ": 3365,
      "Ġà®®à®°à®®": 3366,
      "Ġà®µà®²à®¤": 3367,
      "Ġà®¨à®±à®®": 3368,
      "Ġà®ħà®°à®Ļà®ķà®Łà®ļà®¯": 3369,
      "Ġà®ħà®²à®ķ": 3370,
      "Ġà®ļà®Ļà®ķà®°": 3371,
      "Ġà®µà®µà®ļà®¯": 3372,
      "Ġà®ľà®®à®¸": 3373,
      "AN": 3374,
      "II": 3375,
      "ive": 3376,
      "à®±à®¯à®²": 3377,
      "Ġà®µà®ļà®¯": 3378,
      "Ġà®µà®¤à®¤à®¯": 3379,
      "à®¯à®®à®²": 3380,
      "à®ķà®¤à®®": 3381,
      "Ġà®ªà®°à®®à®³": 3382,
      "à®ªà®ªà®µà®°à®ķà®³": 3383,
      "Ġà®¤à®²à®µà®°à®ķ": 3384,
      "Ġà®¤à®´à®²à®¨à®Łà®ª": 3385,
      "Ġà®ķà®±à®ªà®ªà®Łà®¤à®¤à®ķà®ķà®¤": 3386,
      "Ġà®µà®´à®ķà®ķà®®à®ķ": 3387,
      "ĠZ": 3388,
      "à®ªà®ľ": 3389,
      "Ġà®ķà®ľ": 3390,
      "Ġà®µà®¤à®¤à®¤": 3391,
      "à®¤à®°à®¤à®¤": 3392,
      "à®©à®±à®²": 3393,
      "Ġà®ķà®£à®Łà®ªà®Łà®¤à®¤": 3394,
      "Ġà®Łà®¸": 3395,
      "Ġà®ªà®£à®ªà®ķà®³": 3396,
      "Ġà®ľà®°": 3397,
      "Ġà®ľà®ªà®ªà®©": 3398,
      "à®ķà®´à®ķà®ķ": 3399,
      "Ġà®®à®Łà®ļà®ļ": 3400,
      "Ġà®²à®µ": 3401,
      "Ġà®ħà®±à®ŀà®°à®ķà®³": 3402,
      "Ġà®Ĭà®¤": 3403,
      "Ġà®µà®Łà®Łà®°à®¸": 3404,
      "à®ªà®ªà®³à®°à®ķà®³": 3405,
      "Ġà®µà®¤à®ķà®³": 3406,
      "Ġà®ķà®²à®²à®ªà®ªà®Łà®Łà®©à®°": 3407,
      "Ġà®Ĩà®Ļà®ķà®²à®®": 3408,
      "www": 3409,
      "bullish": 3410,
      "Ġà®ļà®¤à®¤à®¯": 3411,
      "Ġà®ķà®²à®Ļà®ķà®³à®²": 3412,
      "à®ķà®²à®ª": 3413,
      "à®Łà®°à®ķ": 3414,
      "Ġà®¤à®©à®¨": 3415,
      "Ġà®°à®ªà®¯": 3416,
      "Ġà®ķà®£à®Łà®³à®³": 3417,
      "à®ľà®®": 3418,
      "Ġà®¤à®²à®µà®°à®ķà®³": 3419,
      "à®ħà®²": 3420,
      "2004": 3421,
      "Ġà®¤à®°à®µà®¤à®¤à®³": 3422,
      "Ġà®ªà®°à®³à®ķà®³": 3423,
      "Ġà®ķà®ªà®ªà®°": 3424,
      "Ġà®¤à®ķà®¤à®ķà®³": 3425,
      "Ġà®ıà®±à®ªà®Łà®ķà®±à®¤": 3426,
      "Ġà®¤à®²à®µà®²à®®": 3427,
      "):": 3428,
      "Ġà®¤à®µà®¯": 3429,
      "Ġà®ļà®¯à®©": 3430,
      "Ġà®¨à®µ": 3431,
      "Ġà®¤à®°à®ļ": 3432,
      "Ġà®¤à®°à®ªà®ª": 3433,
      "Ġà®®à®±à®±à®²à®®": 3434,
      "Ġà®ķà®°à®ªà®©": 3435,
      "Ġà®ıà®¤": 3436,
      "Ġà®ķà®³à®®": 3437,
      "Ġà®¤à®Łà®Ļà®ķà®¯": 3438,
      "Ġà®ĩà®¯à®ķà®ķà®©à®°": 3439,
      "Ġà®ħà®³à®¤à®¤": 3440,
      "Ġà®ĩà®£à®ķà®ķà®®": 3441,
      "Ġà®ķà®¤à®ªà®ªà®¤à®¤à®°": 3442,
      "Ġà®ĩà®©à®©à®°": 3443,
      "à®ķà®©à®±à®°": 3444,
      "Ġà®®à®Ļà®ķà®²à®¯": 3445,
      "Ġà®ªà®£à®¯à®±à®±à®©à®°": 3446,
      "Ġà®Łà®°à®©à®ļà®¸à®Łà®°": 3447,
      "28": 3448,
      "FT": 3449,
      "closed": 3450,
      "à®µà®³à®³": 3451,
      "à®µà®£à®Łà®®": 3452,
      "Ġà®µà®°à®¯": 3453,
      "Ġà®ķà®±à®¤à®¤à®µ": 3454,
      "Ġà®¨à®Łà®ķà®Łà®Ł": 3455,
      "Ġà®ªà®¤à®ķà®ķà®ªà®ªà®Łà®Ł": 3456,
      "Ġà®ıà®±à®±à®®": 3457,
      "Ġà®ªà®£à®ª": 3458,
      "à®°à®¨à®¤à®©": 3459,
      "à®ķà®ļà®¯": 3460,
      "à®ªà®±à®®": 3461,
      "Ġà®ħà®°à®ª": 3462,
      "Ġà®¤à®±à®¯à®²": 3463,
      "à®³à®°à®ķ": 3464,
      "Ġà®®à®ķà®ķà®³à®²": 3465,
      "Ġà®ļà®¯à®¯à®ªà®ªà®Łà®Łà®°": 3466,
      "Ġà®ħà®µà®ļà®¯à®®": 3467,
      "Ġ1991": 3468,
      "Ġà®ªà®Łà®Łà®¯à®²à®²": 3469,
      "Ġà®İà®£à®£à®ķà®ķà®¯": 3470,
      "Ġà®Ĵà®³à®ªà®°": 3471,
      "Ġà®İà®´à®¤à®ªà®ªà®Łà®Ł": 3472,
      "Ġà®µà®®à®°à®ļà®©": 3473,
      "Ġà®ħà®°à®£à®®à®©": 3474,
      "Ġà®²à®Łà®ļà®®": 3475,
      "AR": 3476,
      "à®Łà®¨à®¤": 3477,
      "Ġà®µà®ķà®®": 3478,
      "à®µà®°à®ķà®ķ": 3479,
      "Ġà®Ĵà®Ł": 3480,
      "Ġà®ĩà®¯à®Ļà®ķà®®": 3481,
      "Ġà®ħà®®à®°à®ķà®ķà®ª": 3482,
      "ĠNT": 3483,
      "ĠNew": 3484,
      "Ġà®ĩà®±à®µà®©": 3485,
      "Ġà®¤à®²à®®à®¯à®²": 3486,
      "Ġ1960": 3487,
      "Ġà®ĩà®²à®ķà®ķà®¯à®®": 3488,
      "ĠUni": 3489,
      "Ġà®ªà®°à®ļà®ļà®©à®ķà®³": 3490,
      "ib": 3491,
      "Ġâ": 3492,
      "à®±à®ļà®¯": 3493,
      "Ġà®®à®¨à®ķà®°": 3494,
      "à®ļà®¤à®¤à®²": 3495,
      "Ġà®µà®ķà®ķà®ķà®³": 3496,
      "Ġà®ªà®Łà®ķà®°": 3497,
      "Ġà®ķà®£à®Łà®µ": 3498,
      "à®Ĩà®²": 3499,
      "Ġà®īà®¯à®°à®®": 3500,
      "à®İà®²": 3501,
      "Ġà®ķà®°à®£à®Ļà®ķà®³": 3502,
      "à®ķà®¨à®²": 3503,
      "Ġà®İà®©à®ªà®¤à®©": 3504,
      "Ġà®®à®°à®¤à®¤à®µà®®": 3505,
      "67": 3506,
      "ie": 3507,
      "ire": 3508,
      "Ġà®®à®¸": 3509,
      "à®ļà®©à®±": 3510,
      "à®ªà®ªà®ķà®³à®²": 3511,
      "à®ªà®ªà®Łà®¤à®¤à®®": 3512,
      "Ġà®ķà®°à®¤à®¤à®°": 3513,
      "Ġà®ªà®±à®±à®ķ": 3514,
      "Ġà®ķà®Łà®¤": 3515,
      "ther": 3516,
      "Ġà®µà®³à®¯à®©": 3517,
      "à®ķà®²à®ķ": 3518,
      "Ġà®ħà®®à®ļà®ļ": 3519,
      "à®ªà®¤à®¯": 3520,
      "Ġà®ļà®²à®¤à®©": 3521,
      "Ġà®ľà®°à®ľ": 3522,
      "Ġ31": 3523,
      "Ġà®ħà®°à®³": 3524,
      "2001": 3525,
      "ĠSe": 3526,
      "Ġà®ħà®©à®ªà®ª": 3527,
      "Ġ70": 3528,
      "Ġà®ħà®µà®±à®±à®²": 3529,
      "Ġà®ªà®¯à®©à®ªà®Łà®ķà®±à®¤": 3530,
      "Ġà®ĩà®µà®±à®±à®©": 3531,
      "ubl": 3532,
      "The": 3533,
      "à®µà®©à®°": 3534,
      "Ġà®ªà®°à®ªà®ªà®³": 3535,
      "Ġà®ªà®ķà®ªà®ªà®¯": 3536,
      "à®¤à®²à®ķ": 3537,
      "Ġà®ķà®±à®µà®ķ": 3538,
      "Ġà®¨à®°à®µà®ķ": 3539,
      "à®°à®¨à®¤à®©à®°": 3540,
      "Ġà®¤à®Łà®ķà®ķà®¤à®¤à®²": 3541,
      "2005": 3542,
      "Ġà®¨à®Łà®Łà®ª": 3543,
      "Ġà®Ĩà®²à®¯à®®": 3544,
      "Ġà®¨à®ķà®´à®ļà®ļà®¯à®²": 3545,
      "Ġà®īà®°à®®à®ķà®³": 3546,
      "Ġà®ķà®Łà®Łà®Łà®ķà®ķà®²": 3547,
      "Ġà®¨à®Łà®¤à®¤à®°à®¨à®¤à®©à®°": 3548,
      "64": 3549,
      "Ġà®®à®±à®±à®ķ": 3550,
      "à®¤à®¤à®²à®©": 3551,
      "Ġà®ķà®±à®¨à®¤à®¤": 3552,
      "Ġà®ķà®²à®ªà®ª": 3553,
      "Ġà®ķà®²à®¤à®¤à®©": 3554,
      "Ġà®ķà®³à®©": 3555,
      "à®ķà®ķà®ªà®ªà®Łà®µà®²à®²": 3556,
      "Ġà®¨à®ķà®°à®¤à®¤à®²": 3557,
      "Ġà®ªà®¯à®°à®Ł": 3558,
      "Ġà®ħà®±à®µà®¤à®¤à®¤": 3559,
      "Ġà®ħà®¨à®¤à®ķ": 3560,
      "Ġà®īà®£à®°à®µ": 3561,
      "Ġà®ħà®®à®¨à®¤à®³à®³à®©": 3562,
      "Ġà®µà®±à®±à®ķà®°": 3563,
      "phy": 3564,
      "Ġà®¤à®¤à®°à®ķà®®": 3565,
      "ba": 3566,
      "ru": 3567,
      "Ġt": 3568,
      "Ġà®ķà®Łà®¯à®±": 3569,
      "à®ļà®ļà®¯": 3570,
      "à®ķà®²à®²": 3571,
      "Ġà®ļà®°à®µà®°": 3572,
      "Ġà®ķà®´à®¤à®¤": 3573,
      "Ġà®ªà®£à®ªà®Ł": 3574,
      "à®ªà®²à®²": 3575,
      "Ġà®²à®¸": 3576,
      "Ġà®¨à®±à®¨à®¤": 3577,
      "Ġà®¤à®®à®´à®ķà®ķà®®": 3578,
      "Ġà®®à®´à®®à®¯à®©": 3579,
      "à®µà®Łà®Łà®°": 3580,
      "Ġà®ļà®¯à®²à®®à®±": 3581,
      "Ġà®ķà®®à®ªà®©": 3582,
      "Ġà®ĩà®±à®ªà®ª": 3583,
      "Ġà®ķà®²à®®à®Łà®Łà®°": 3584,
      "Ġà®Ĳà®°à®ªà®ªà®µà®²": 3585,
      "Ġà®¤à®¯à®©": 3586,
      "Ġà®ħà®ªà®ªà®Ł": 3587,
      "Ġà®¨à®¤à®°": 3588,
      "Ġà®Ĩà®ªà®ªà®°à®ķà®ķ": 3589,
      "Ġà®ªà®°à®µà®¤": 3590,
      "à®¯à®²à®³à®³": 3591,
      "Ġà®µà®°à®ķà®³": 3592,
      "à®¤à®°à®µ": 3593,
      "Ġà®ķà®±à®ªà®ªà®ķà®³": 3594,
      "Ġà®ļà®°à®ķà®ķà®®": 3595,
      "à®ĩà®¯": 3596,
      "Ġà®®à®±à®¤à®¤": 3597,
      "Ġà®°à®¯": 3598,
      "Ġà®¨à®°à®±à®±": 3599,
      "Ġà®ķà®³à®ķà®ķà®³": 3600,
      "Ġà®ħà®Łà®Ļà®ķà®¯": 3601,
      "à®µà®³à®°à®ķà®³": 3602,
      "Ġà®®à®ķà®ķà®³à®¤à®ķ": 3603,
      "Ġà®Ĩà®²à®ķà®ķà®²": 3604,
      "Ġà®ªà®°à®°à®ļà®°": 3605,
      "Ġà®ķà®²à®µà®¯à®±à®µ": 3606,
      "45": 3607,
      "ff": 3608,
      "ld": 3609,
      "à®¤à®´à®²": 3610,
      "Ġà®Ĩà®ļà®°": 3611,
      "Ġà®Ĩà®Łà®Łà®®": 3612,
      "Ġà®ªà®°à®ļà®°à®¯à®°": 3613,
      "Ġà®İà®©à®¤": 3614,
      "Ġà®ħà®®à®®": 3615,
      "Ġà®°à®²": 3616,
      "Ġà®ĩà®¤à®µà®°": 3617,
      "ĠAs": 3618,
      "Ġà®¤à®Łà®ķà®ķà®®": 3619,
      "à®ķà®Łà®®": 3620,
      "Ġà®®à®Łà®¯": 3621,
      "Ġà®®à®Łà®¨à®¤": 3622,
      "à®Ĩà®¤à®°à®Ļà®ķà®³": 3623,
      "à®µà®±à®±à®²": 3624,
      "Ġà®īà®¯à®°à®¤à®¤": 3625,
      "à®İà®Łà®¤à®¤": 3626,
      "Ġà®ªà®¯à®©à®ªà®Łà®¤à®¤à®ªà®ªà®Łà®Łà®¤": 3627,
      "Ġà®ĩà®¨à®¤à®¯à®ª": 3628,
      "Ġà®µà®Łà®Łà®²": 3629,
      "Ġà®ħà®µà®µà®±": 3630,
      "à®ĥà®ªà®Ł": 3631,
      "à®ªà®³à®°": 3632,
      "Ġà®İà®¨à®¤à®µà®°": 3633,
      "Ġà®Ĵà®©à®ªà®¤": 3634,
      "Ġà®ªà®°à®Ļà®ķà®Łà®²": 3635,
      "27": 3636,
      "65": 3637,
      "iv": 3638,
      "à®®à®²à®²": 3639,
      "Ġà®µà®Ļà®ķà®³": 3640,
      "à®¨à®¯à®ķ": 3641,
      "Ġà®İà®ªà®ªà®¤à®®": 3642,
      "Ġà®İà®©à®ªà®°": 3643,
      "à®ªà®°à®°à®Łà®ļ": 3644,
      "à®µà®¤à®±": 3645,
      "à®µà®¤à®ķà®³": 3646,
      "Ġà®ķà®²à®ķ": 3647,
      "Ġà®®à®±à®¨à®¤": 3648,
      "Ġà®ķà®£à®Łà®©à®°": 3649,
      "Ġà®ļà®®à®®": 3650,
      "Ġà®īà®°à®¯": 3651,
      "à®ķà®ķà®±à®©": 3652,
      "Ġà®¯à®µà®©": 3653,
      "Ġà®ķà®µà®¤": 3654,
      "Ġà®®à®©à®©à®Łà®Ł": 3655,
      "Ġà®®à®£à®µà®°à®ķà®³": 3656,
      "Ġà®ķà®Łà®¯à®°à®ļà®¤": 3657,
      "Ġà®ķà®´à®¯à®ķà®³": 3658,
      "Ġà®ĩà®ªà®ªà®°à®°à®Łà®ļ": 3659,
      "Ġà®ĥà®ªà®¸à®¤à®²": 3660,
      "FR": 3661,
      "oh": 3662,
      "Ġá": 3663,
      "Ġà®®à®³à®®": 3664,
      "à®¤à®¤à®Łà®°": 3665,
      "Ġà®µà®ķà®ķà®®": 3666,
      "à®£à®ķà®³": 3667,
      "Ġà®ªà®¤à®¤à®ķ": 3668,
      "à®¤à®¤à®²à®µà®°": 3669,
      "Ġà®ªà®©à®µà®°à®®": 3670,
      "Ġà®ħà®µà®°à®©": 3671,
      "Ġà®²à®£à®Ł": 3672,
      "ĠPro": 3673,
      "Ġà®®à®µà®Łà®Łà®¤à®¤à®²à®³à®³": 3674,
      "85": 3675,
      "rin": 3676,
      "Ġk": 3677,
      "Ġà®ĩà®¯à®²à®®": 3678,
      "à®Ļà®ķà®µ": 3679,
      "à®Łà®Łà®Ł": 3680,
      "Ġà®ļà®°à®¨à®¤à®°": 3681,
      "Ġà®µà®´à®ķà®Łà®Ł": 3682,
      "Ġà®®à®±à®¯à®©": 3683,
      "Ġà®°à®¸": 3684,
      "Ġà®ķà®³à®ķà®¯": 3685,
      "Ġà®ķà®®à®²": 3686,
      "à®ķà®¤à®¤à®±à®ķ": 3687,
      "Ġà®¨à®©à®ķà®µà®¤": 3688,
      "Ġà®µà®Łà®Łà®¤": 3689,
      "Ġà®ħà®µà®µ": 3690,
      "Ġà®ļà®¨à®¤à®©": 3691,
      "Ġ1000": 3692,
      "Ġà®ķà®ķà®³": 3693,
      "à®ĩà®°à®£à®Łà®®": 3694,
      "Ġà®°à®¤à®¯à®ķ": 3695,
      "Ġà®®à®¯à®©": 3696,
      "Ġà®ĩà®µà®©": 3697,
      "Ġà®ļà®Łà®©": 3698,
      "à®Ļà®ķà®ķ": 3699,
      "à®Ļà®ķà®±": 3700,
      "Ġà®µà®°à®µà®©": 3701,
      "à®ªà®°à®¤": 3702,
      "à®ķà®©à®µ": 3703,
      "à®ļà®ļà®°à®®": 3704,
      "Ġà®®à®©à®ļ": 3705,
      "Ġà®Łà®µà®Ł": 3706,
      "Ġà®Łà®ķà®Łà®°": 3707,
      "ence": 3708,
      "Ġà®®à®°à®ķà®©": 3709,
      "Ġà®İà®©à®ªà®¤à®ķà®®": 3710,
      "ĠPress": 3711,
      "Ġà®ĩà®©à®Ļà®ķà®³": 3712,
      "à®©à®¤à®ķ": 3713,
      "à®ªà®ªà®¯à®®": 3714,
      "Ġ1997": 3715,
      "Ġà®®à®¨à®²à®Ļà®ķà®³": 3716,
      "ĠDe": 3717,
      "Ġà®ļà®¤à®©à®Ļà®ķà®³": 3718,
      "Ġà®īà®¤à®µà®®": 3719,
      "à®ķà®ķà®ķà®µà®®": 3720,
      "à®İà®Łà®¤à®¤à®ķà®ķà®Łà®Ł": 3721,
      "\")": 3722,
      "33": 3723,
      "IN": 3724,
      "ud": 3725,
      "Ġà®®à®¤à®¤à®¤": 3726,
      "Ġà®¤à®ŀà®ļ": 3727,
      "Ġà®ļà®Łà®°": 3728,
      "Ġà®ļà®Ļà®ķ": 3729,
      "Ġà®ļà®Ļà®ķà®²": 3730,
      "Ġà®Ĩà®ķà®¤à®¤": 3731,
      "Ġà®İà®³à®®": 3732,
      "are": 3733,
      "Ġà®¤à®°à®µà®Ł": 3734,
      "Ġà®¨à®Łà®©": 3735,
      "à®ķà®ķà®³à®ķà®ķ": 3736,
      "Ġà®ªà®¤à®µà®ķà®³": 3737,
      "Ġà®ħà®®à®®à®©": 3738,
      "Ġà®ķà®Łà®Łà®³": 3739,
      "Ġà®ķà®£à®Łà®¤à®ķ": 3740,
      "à®ķà®ķà®ķà®Ł": 3741,
      "Ġà®ļà®±à®ķà®¤": 3742,
      "Ġà®®à®´à®¯à®©": 3743,
      "Ġà®īà®¯à®°à®¤à®¤à®²": 3744,
      "Ġà®ħà®°à®ķ": 3745,
      "Ġà®ħà®Łà®ªà®ªà®Łà®¯à®²à®©": 3746,
      "Ġà®İà®£à®£à®¯": 3747,
      "à®¤à®®à®´à®¨à®Ł": 3748,
      "à®ķà®ªà®°à®°": 3749,
      "Ġà®ĩà®¯à®¨à®¤à®°à®®": 3750,
      "Ġà®īà®¯à®°à®´à®¨à®¤à®©à®°": 3751,
      "29": 3752,
      "74": 3753,
      "83": 3754,
      "high": 3755,
      "à°": 3756,
      "à®Łà®Ļà®ķà®³": 3757,
      "Ġà®ªà®¨": 3758,
      "à®ķà®³à®ķà®®": 3759,
      "Ġà®µà®ľ": 3760,
      "Ġà®ħà®¤à®¤à®¯": 3761,
      "Ġà®ªà®¤à®¤à®¤": 3762,
      "à®ķà®°à®Ł": 3763,
      "Ġà®µà®°à®¯à®²à®©": 3764,
      "Ġà®ķà®²à®ķà®³": 3765,
      "ĠĊĠ": 3766,
      "à®ªà®ªà®©à®°": 3767,
      "Ġà®ªà®±à®±à®µà®°à®ķà®³": 3768,
      "Ġà®¤à®Łà®°à®©": 3769,
      "align": 3770,
      "2000": 3771,
      "Ġà®ħà®©à®µà®°à®®": 3772,
      "Ġà®Ĵà®©à®±à®²": 3773,
      "Ġà®¨à®ķà®°à®©": 3774,
      "Ġà®ªà®¯à®©à®ªà®Łà®¤à®¤à®ªà®ªà®Łà®Ł": 3775,
      "à®ĥà®ªà®²": 3776,
      "Ġà®İà®©à®ªà®µà®°à®²": 3777,
      "à®ªà®´à®¤": 3778,
      "Ġà®Ĩà®°à®®à®ªà®®": 3779,
      "Ġà®ªà®ķà®¸à®¤à®©": 3780,
      "Ġà®µà®³à®Ļà®ķà®ķà®±à®¤": 3781,
      "ong": 3782,
      "à®¤à®±à®ķ": 3783,
      "à®¤à®¤à®µà®°": 3784,
      "à®Łà®Łà®ķ": 3785,
      "à®ªà®ªà®Łà®ķà®³": 3786,
      "Ġà®®à®±à®±à®¯à®®": 3787,
      "Ġà®ķà®±à®ķà®ķ": 3788,
      "Ġà®ķà®Łà®ķà®ķ": 3789,
      "à®ķà®ķà®³à®³à®®": 3790,
      "Ġà®ªà®©à®µ": 3791,
      "ism": 3792,
      "Ġà®ķà®´à®®à®ª": 3793,
      "Ġà®ļà®®à®¨à®²": 3794,
      "à®ªà®ªà®°à®¤": 3795,
      "Ġà®ªà®°à®®à®±à®±": 3796,
      "à®µà®Łà®µ": 3797,
      "Ġà®ħà®±à®ķà®ķ": 3798,
      "à®¤à®¤à®±à®ķà®ª": 3799,
      "Ġà®¨à®±à®µà®©à®°": 3800,
      "Ġà®īà®Łà®©à®ªà®Ł": 3801,
      "...": 3802,
      "26": 3803,
      "Ġà®µà®ļà®²": 3804,
      "Ġà®ļà®©à®®": 3805,
      "à®Ļà®Łà®©": 3806,
      "Ġà®Ĩà®ªà®ªà®°": 3807,
      "Ġà®ĩà®°à®®à®ª": 3808,
      "à®¸à®¤": 3809,
      "Ġà®ķà®£à®ķà®£": 3810,
      "Ġà®ªà®±à®ªà®ªà®Łà®®": 3811,
      "à®ļà®ļà®®": 3812,
      "Ġà®ªà®²à®¯": 3813,
      "Ġà®ªà®²à®µà®©": 3814,
      "Ġà®ªà®©à®ķà®ķà®Łà®Ł": 3815,
      "Ġà®ħà®®à®ķà®ķà®ªà®ªà®Łà®Ł": 3816,
      "Ġà®ļà®°à®¨à®¤à®¤": 3817,
      "Ġà®®à®²à®©": 3818,
      "Ġà®®à®°à®ªà®£": 3819,
      "Ġà®®à®¤à®²à®¤à®°": 3820,
      "Ġà®²à®®à®©": 3821,
      "Ġà®¨à®±à®®à®±": 3822,
      "Ġà®®à®¤à®Ļà®ķà®³": 3823,
      "Ġà®¸à®Łà®©": 3824,
      "à®¹à®®": 3825,
      "Ġ185": 3826,
      "Ġà®¨à®¤à®ªà®¤": 3827,
      "à®µà®ļà®¯à®®": 3828,
      "Ġà®ķà®°à®®à®Ļà®ķà®³": 3829,
      "Ġà®ħà®±à®¯à®ªà®ªà®Łà®Ł": 3830,
      "Ġà®ĩà®©à®±à®®": 3831,
      "à®ķà®ķà®ķà®©à®±à®©": 3832,
      "Ġà®īà®²à®ķà®³à®µà®¯": 3833,
      "à®ķà®ŀ": 3834,
      "à®ļà®®à®©": 3835,
      "Ġà®µà®ķà®ªà®ª": 3836,
      "Ġà®¤à®Łà®®": 3837,
      "Ġà®Ĩà®ļ": 3838,
      "Ġà®Ĩà®¯à®©à®®": 3839,
      "à®ªà®ªà®¤à®©": 3840,
      "Ġà®¤à®°à®ķà®ķà®¤": 3841,
      "Ġà®µà®°à®¤à®¤à®ķ": 3842,
      "Ġà®ªà®©à®©à®²": 3843,
      "Ġà®İà®©à®±à®°": 3844,
      "Ġà®ĩà®¤à®¯à®®": 3845,
      "à®ķà®ķà®±à®¯": 3846,
      "à®ªà®ªà®¤à®±à®ķà®©": 3847,
      "Ġà®®à®´à®®à®¯à®ķ": 3848,
      "Ġà®ĩà®£à®¯à®¤": 3849,
      "Ġà®¹à®®": 3850,
      "Ġà®ħà®£à®¯à®²": 3851,
      "Ġà®®à®ķà®ķà®³à®µ": 3852,
      "Ġà®īà®±à®ªà®ª": 3853,
      "Ġà®¤à®µà®ªà®ªà®Łà®®": 3854,
      "ĠRo": 3855,
      "à®¹à®°": 3856,
      "Ġà®µà®¨à®¤à®©": 3857,
      "Ġ1971": 3858,
      "Ġà®İà®²à®ķà®Ł": 3859,
      "Ġà®¨à®Łà®ªà®±à®®": 3860,
      "Ġà®İà®©à®±à®´à®ķà®ķà®ªà®ªà®Łà®®": 3861,
      "con": 3862,
      "nd": 3863,
      "à®µà®ķà®ķà®³": 3864,
      "Ġà®µà®ļà®ļ": 3865,
      "Ġà®İà®©à®ªà®ªà®Łà®ķà®±à®¤": 3866,
      "à®ªà®°à®ļ": 3867,
      "à®µà®¤à®±à®ķà®®": 3868,
      "Ġà®ļà®°à®µ": 3869,
      "Ġà®ªà®Łà®ļà®²": 3870,
      "Ġà®µà®´à®¯à®²": 3871,
      "Ġà®µà®´à®ļà®ļ": 3872,
      "Ġà®¨à®°à®¨à®¤à®°": 3873,
      "à®ħà®±à®µ": 3874,
      "Ġà®®à®¤à®²à®¯": 3875,
      "ight": 3876,
      "à®¯à®Łà®²": 3877,
      "à®ķà®ªà®²": 3878,
      "Ġà®İà®¤à®°à®ķà®²": 3879,
      "Ġà®Ĭà®Łà®Ł": 3880,
      "Ġà®¤à®£à®Łà®©": 3881,
      "Ġà®¨à®®à®ªà®ªà®ªà®Ł": 3882,
      "Ġà®ķà®ķà®®": 3883,
      "Ġà®¨à®®à®ªà®ķà®ķ": 3884,
      "Ġà®ļà®¯à®²à®ªà®Łà®ķà®³": 3885,
      "res": 3886,
      "à®Łà®¯à®©": 3887,
      "Ġà®ĩà®ķà®ķà®²": 3888,
      "Ġà®µà®ķà®ªà®ªà®Łà®¤à®¤": 3889,
      "Ġà®¨à®Łà®ķà®ķà®®": 3890,
      "Ġà®ķà®²à®Ļà®ķà®³": 3891,
      "à®°à®ķà®³à®ķà®ķ": 3892,
      "à®ĩà®ļ": 3893,
      "Ġà®ħà®¤à®ķà®ªà®Ł": 3894,
      "Ġà®°à®®à®©": 3895,
      "Ġà®ħà®µà®°à®ķà®³à®²": 3896,
      "Ġà®ªà®£à®¯à®³à®°": 3897,
      "Ġà®ªà®°à®®à®®": 3898,
      "à®ķà®ķà®Łà®ªà®Łà®Ł": 3899,
      "à®İà®¤à®°": 3900,
      "à®¤à®®à®ķ": 3901,
      "Ġà®ĵà®¯à®µ": 3902,
      "Ġà®īà®°à®µà®ķà®®": 3903,
      "Ġà®µà®Łà®µà®Ļà®ķà®³": 3904,
      "Ġà®ķà®²à®²à®°à®¯à®²": 3905,
      "à®¤à®£à®¤": 3906,
      "88": 3907,
      "Ġà®®à®£à®£": 3908,
      "à®Ļà®ķà®ª": 3909,
      "Ġà®Ĵà®ªà®ªà®Łà®Ł": 3910,
      "ind": 3911,
      "Ġà®ķà®£à®ļà®©": 3912,
      "Ġà®ķà®±à®ªà®©": 3913,
      "Ġà®¨à®Łà®ķà®³à®ķà®ķ": 3914,
      "Ġà®µà®³à®ķà®ķ": 3915,
      "Ġà®°à®Łà®Ł": 3916,
      "tem": 3917,
      "Ġà®ķà®´à®µà®²": 3918,
      "Ġà®ķà®³à®²": 3919,
      "Ġà®ªà®Łà®Łà®¤": 3920,
      "à®ªà®ªà®°à®ķà®³": 3921,
      "Ġà®¤à®Łà®°à®ªà®Ł": 3922,
      "Ġà®ıà®±à®ķà®©à®µ": 3923,
      "Ġà®ħà®´à®ķà®ķà®ªà®ªà®Łà®Łà®¤": 3924,
      "à®¤à®¤à®¤à®ķ": 3925,
      "Ġà®ªà®³à®³à®¯à®²": 3926,
      "Ġà®®à®¤à®¤à®¯à®²": 3927,
      "Ġà®ıà®±à®±à®ķ": 3928,
      "Ġà®ĩà®¯à®²à®¤": 3929,
      "Ġà®®à®°à®¤à®¤à®µà®°": 3930,
      "Ġà®ħà®Łà®°à®¤à®¤": 3931,
      "center": 3932,
      "Ġis": 3933,
      "à®ļà®µà®®": 3934,
      "Ġà®µà®ķà®ķ": 3935,
      "Ġà®µà®ªà®°": 3936,
      "Ġà®Ĩà®©à®°": 3937,
      "à®£à®Łà®¸": 3938,
      "ron": 3939,
      "à®¯à®©à®©": 3940,
      "à®ªà®°à®³à®°": 3941,
      "Ġà®ķà®±à®ķà®¯": 3942,
      "Ġà®ķà®²à®Ł": 3943,
      "Ġà®¤à®©à®®à®¯": 3944,
      "Ġà®µà®Łà®¯": 3945,
      "Ġà®¨à®²à®ªà®ªà®°": 3946,
      "à®ķà®ļà®°": 3947,
      "Ġà®µà®²à®¯": 3948,
      "Ġà®µà®²à®ļ": 3949,
      "Ġà®µà®²à®¯à®±": 3950,
      "Ġfrom": 3951,
      "2002": 3952,
      "Ġà®µà®Łà®Łà®¤à®¤à®²": 3953,
      "ort": 3954,
      "Ġà®ķà®°à®¤à®¤à®ķà®ķà®³": 3955,
      "Ġà®®à®³à®ķ": 3956,
      "Ġà®ĩà®¯à®²à®ª": 3957,
      "Ġà®µà®¤à®®à®ķ": 3958,
      "Ġà®®à®©à®¤à®°à®ķà®³": 3959,
      "hite": 3960,
      "Ġà®ªà®°à®µà®¯à®³à®°à®ķà®³": 3961,
      "versity": 3962,
      "\".": 3963,
      "ho": 3964,
      "ke": 3965,
      "Ġà®¤à®ļà®®": 3966,
      "Ġà®¨à®ªà®³": 3967,
      "Ġà®ªà®°à®ķà®ļà®©": 3968,
      "ton": 3969,
      "Ġà®ķà®£à®¤à®µ": 3970,
      "Ġà®¤à®©à®±à®¯": 3971,
      "Ġà®µà®´à®ķà®ķà®¯": 3972,
      "Ġà®µà®´à®Ļà®ķà®¯à®¤": 3973,
      "Ġà®®à®±à®ķà®¤à®¤à®¯": 3974,
      "Ġà®īà®°à®®à®¯": 3975,
      "Ġà®¤à®²à®ªà®ļ": 3976,
      "à®ªà®©à®©à®°": 3977,
      "à®³à®°à®©": 3978,
      "Ġà®¨à®ķà®´à®¤à®¤": 3979,
      "Ġà®ļà®¯à®¯à®ªà®ªà®Łà®ķà®±à®¤": 3980,
      "à®ķà®ķà®£à®ķà®ķà®©": 3981,
      "Ġà®¤à®³à®µ": 3982,
      "Ġà®īà®±à®ªà®ªà®©à®°à®ķ": 3983,
      "Ġà®µà®¤à®¤à®¤à®²": 3984,
      "à®¨à®±à®µà®©": 3985,
      "Ġà®ļà®ķà®ķà®²à®©": 3986,
      "à®¤à®µà®°": 3987,
      "à®©à®ļà®¯": 3988,
      "à®³à®®à®©": 3989,
      "Ġà®µà®·à®£": 3990,
      "Ġà®ħà®ªà®ªà®²": 3991,
      "Ġà®ªà®°à®¤à®°": 3992,
      "à®ķà®ķà®®à®²": 3993,
      "Ġà®ªà®©à®©à®®": 3994,
      "à®ķà®ķà®ªà®ªà®±": 3995,
      "Ġà®¤à®©à®¤à®¤": 3996,
      "Ġà®ªà®Łà®¤à®¤à®°": 3997,
      "Ġà®µà®´à®µà®²": 3998,
      "Ġà®¨à®°à®¤à®¤": 3999,
      "Ġà®¤à®²à®µà®©": 4000,
      "Ġà®ĩà®Łà®¯à®²à®©": 4001,
      "Ġà®Ĩà®°à®µà®®": 4002,
      "Ġà®İà®¤à®°à®¤à®¤": 4003,
      "Ġà®¨à®ķà®´à®¨à®¤": 4004,
      "Ġà®µà®±à®®": 4005,
      "ogra": 4006,
      "Ġà®ĥà®ªà®©": 4007,
      "Ġà®¨à®Łà®¤à®¤à®©à®°": 4008,
      "Ġ1993": 4009,
      "Ġà®Ĩà®Ļà®ķà®²à®¯": 4010,
      "Ġà®ĩà®³à®µà®°": 4011,
      "ĠInd": 4012,
      "89": 4013,
      "à®Łà®¤": 4014,
      "à®µà®²à®®": 4015,
      "Ġà®ĩà®ķ": 4016,
      "Ġà®ĩà®°à®ľ": 4017,
      "à®Ļà®ķà®³à®Łà®©": 4018,
      "Ġà®µà®°à®¯à®©": 4019,
      "Ġà®µà®³à®¯à®©à®¤": 4020,
      "Ġà®ªà®¤à®¯à®²": 4021,
      "Ġà®ļà®°à®¤": 4022,
      "Ġà®®à®±à®ķà®²": 4023,
      "Ġà®®à®±à®¯à®¤": 4024,
      "Ġà®°à®©à®²": 4025,
      "Ġà®ķà®£à®Łà®®": 4026,
      "Ġà®Łà®ļà®ļ": 4027,
      "Ġà®¨à®°à®ª": 4028,
      "à®®à®´à®ªà®ªà®©": 4029,
      "Ġà®¨à®²à®©": 4030,
      "Ġà®ķà®³à®ķà®ķà®ļ": 4031,
      "Ġà®®à®²à®¯à®³": 4032,
      "à®ħà®£": 4033,
      "Ġà®ĩà®°à®¨à®¤à®®": 4034,
      "Ġà®ĩà®£à®¯à®¤à®¤": 4035,
      "Ġà®ķà®®à®¯à®©": 4036,
      "Ġà®µà®£à®ķà®®": 4037,
      "à®ķà®Łà®Łà®®": 4038,
      "Ġà®µà®¯à®±à®±": 4039,
      "orld": 4040,
      "Ġà®ħà®µà®°à®ķà®³à®Łà®¯": 4041,
      "Ġà®İà®©à®ªà®µà®±à®±": 4042,
      "Ġà®µà®®à®ļ": 4043,
      "Ġà®ķà®Łà®®à®ªà®¤à®¤à®²": 4044,
      "Ġà®ķà®Łà®Łà®Łà®Ļà®ķà®³": 4045,
      "Ġà®¤à®´à®²à®¨à®Łà®ªà®®": 4046,
      "IT": 4047,
      "ome": 4048,
      "à®®à®ķà®³": 4049,
      "Ġà®®à®ķà®ķà®£": 4050,
      "à®ªà®ªà®ªà®ªà®Ł": 4051,
      "Ġà®ķà®£à®ªà®¤": 4052,
      "à®¤à®°à®£": 4053,
      "Ġà®ķà®±à®ªà®ªà®Łà®®": 4054,
      "Ġà®ķà®Łà®ķà®ķà®±à®¤": 4055,
      "Ġà®ªà®Łà®ªà®ª": 4056,
      "Ġà®ıà®µ": 4057,
      "Ġà®ħà®¤à®±": 4058,
      "Ġà®Łà®²à®²": 4059,
      "à®ķà®Łà®©": 4060,
      "Ġà®®à®Łà®µà®ķà®ķ": 4061,
      "à®µà®Łà®Łà®²": 4062,
      "Ġà®ĩà®µà®µà®²": 4063,
      "Ġà®ĩà®©à®ªà®ªà®°": 4064,
      "Ġà®ķà®£à®Łà®°à®ķà®ķà®±à®¤": 4065,
      "Ġà®®à®¯à®±à®ļà®ķà®³": 4066,
      "Ġà®İà®³à®¤à®²": 4067,
      "ĠNTFS": 4068,
      "av": 4069,
      "sp": 4070,
      "à®Łà®ª": 4071,
      "Ġà®ªà®ªà®ªà®": 4072,
      "Ġà®®à®ķà®µ": 4073,
      "à®¯à®®à®®": 4074,
      "Ġà®ķà®£à®ª": 4075,
      "à®¤à®©à®¤": 4076,
      "à®ªà®°à®£": 4077,
      "à®¯à®°à®¨à®¤": 4078,
      "à®¤à®°à®ķà®³": 4079,
      "Ġà®ķà®±à®ªà®ªà®Łà®ķà®©à®±à®©": 4080,
      "Ġà®ªà®¤à®µà®¯à®²": 4081,
      "Ġ1950": 4082,
      "Ġà®ķà®³à®µ": 4083,
      "Ġà®ļà®®à®¤à®¯": 4084,
      "Ġà®ªà®Łà®Łà®°": 4085,
      "Ġà®īà®°à®µà®ķà®ķà®µà®¤": 4086,
      "Ġà®īà®Łà®ªà®Łà®Ł": 4087,
      "Ġà®Ĭà®´": 4088,
      "Ġà®Ĭà®°à®Łà®ļ": 4089,
      "Ġà®¨à®±à®µà®©à®¤à®¤à®²": 4090,
      "Ġà®ªà®´à®®à®¯à®©": 4091,
      "Ġà®Ĩà®©à®²à®®": 4092,
      "Ġà®°à®¤à®¯à®©": 4093,
      "Ġà®ķà®Łà®µà®³à®©": 4094,
      "Ġà®µà®´à®ķà®ķà®®à®©": 4095,
      "Ġà®İà®³à®¯": 4096,
      "angu": 4097,
      ");": 4098,
      "gained": 4099,
      "ial": 4100,
      "Ġà®ªà®ŀà®ļà®®": 4101,
      "Ġà®¤à®°à®ķà®ķ": 4102,
      "Ġà®µà®°à®¯à®®": 4103,
      "Ġà®ķà®°à®ķà®°": 4104,
      "Ġà®ķà®°à®·": 4105,
      "à®©à®°à®®": 4106,
      "Ġà®ªà®¤à®µà®¯": 4107,
      "Ġà®¤à®©à®¯": 4108,
      "Ġà®ķà®Łà®Łà®Łà®®": 4109,
      "Ġà®°à®®à®®": 4110,
      "Ġà®¨à®°à®ķà®ķà®Ł": 4111,
      "Ġà®¨à®°à®®à®ª": 4112,
      "ics": 4113,
      "Ġà®¤à®Łà®¤à®¤": 4114,
      "à®ļà®°à®²": 4115,
      "Ġà®ªà®°à®®à®ªà®°à®¯": 4116,
      "ĠTh": 4117,
      "Ġà®ķà®¤à®®": 4118,
      "Ġà®ªà®¯à®©à®ªà®Łà®¤à®¤à®©à®°": 4119,
      "Ġà®īà®Łà®²à®²": 4120,
      "Ġà®ļà®©à®©à®®": 4121,
      "à®®à®°à®¤à®¤": 4122,
      "Ġà®ļà®±à®±à®ļà®ļà®´à®²": 4123,
      "Ġà®Ĩà®²à®ļà®©": 4124,
      "Ġà®¤à®©à®©à®¨à®¤à®¯": 4125,
      "1980": 4126,
      "Ġà®ªà®¯à®£à®ķà®³": 4127,
      "Ġà®ªà®¤à®ªà®ªà®ķà®®": 4128,
      "ore": 4129,
      "ĊĠĊ": 4130,
      "à®¤à®³": 4131,
      "Ġà®µà®ŀ": 4132,
      "Ġà®¤à®ķà®ķà®¤à®¤": 4133,
      "Ġà®ļà®µà®Ł": 4134,
      "à®ªà®ªà®Ļ": 4135,
      "Ġà®ĩà®°à®ªà®¤": 4136,
      "Ġà®¤à®°à®¤à®¤à®²": 4137,
      "Ġà®µà®°à®ķà®±à®°": 4138,
      "Ġà®µà®³à®¨à®Łà®Ł": 4139,
      "Ġà®ªà®¤à®ķà®ªà®ªà®": 4140,
      "Ġà®ļà®°à®ª": 4141,
      "Ġà®¤à®©à®¤à®¤à®©": 4142,
      "Ġà®ªà®Łà®ķ": 4143,
      "Ġà®ªà®Łà®ªà®ªà®ķà®³": 4144,
      "à®°à®ķà®³à®ķ": 4145,
      "Ġà®°à®ªà®°à®Ł": 4146,
      "Ġà®ĩà®¤à®¯": 4147,
      "Ġà®¨à®²à®¨à®Ł": 4148,
      "Ġà®ªà®ķà®¤à®¤": 4149,
      "Ġà®ĩà®£à®¯": 4150,
      "2003": 4151,
      "ass": 4152,
      "Ġà®ĩà®±à®¨à®¤à®°": 4153,
      "Ġà®ªà®Ļà®ķà®±à®±": 4154,
      "à®Ĳà®°": 4155,
      "Ġà®īà®Łà®©à®Łà®¯à®ķ": 4156,
      "Ġà®ļà®¯à®²à®ªà®Łà®ķà®±à®¤": 4157,
      "Ġà®ķà®ªà®ªà®±à®±à®©à®°": 4158,
      "à®¯à®²à®²à®¤": 4159,
      "AC": 4160,
      "ca": 4161,
      "Ġ#": 4162,
      "Ġà®µà®µà®¤": 4163,
      "Ġà®Ĩà®ķà®ķà®°à®®": 4164,
      "Ġà®ªà®ķà®Ļà®ķà®³": 4165,
      "Ġà®¤à®°à®¯à®®": 4166,
      "Ġà®µà®°à®ªà®ªà®®": 4167,
      "Ġà®ķà®±à®ªà®ªà®¤": 4168,
      "à®ķà®¯à®°": 4169,
      "à®Łà®°à®¸": 4170,
      "Ġà®ħà®®à®ķà®ķà®ªà®ªà®Łà®Łà®¤": 4171,
      "Ġà®ļà®°à®ļà®ļ": 4172,
      "Ġà®ªà®Łà®Ļà®ķà®³à®²": 4173,
      "à®ĩà®Ļà®ķ": 4174,
      "Ġà®ķà®Łà®Łà®ªà®ªà®Łà®Łà®¤": 4175,
      "Ġà®µà®Łà®®à®±": 4176,
      "Ġà®¨à®²à®¯à®Ļà®ķà®³": 4177,
      "Ġà®īà®°à®µà®©": 4178,
      "Ġà®®à®°à®ķ": 4179,
      "à®ļà®°à®¤": 4180,
      "Ġà®ªà®Łà®Łà®¯à®²à®®": 4181,
      "Ġà®ªà®±à®±à®¯à®®": 4182,
      "Ġà®®à®¤à®µ": 4183,
      "Ġà®ħà®°à®ļà®Ļà®ķà®®": 4184,
      "à®ķà®£à®®": 4185,
      "Ġà®¨à®ķà®´à®®": 4186,
      "à®¯à®Łà®Łà®°": 4187,
      "ĊĊĠ": 4188,
      "Ġà®µà®´à®Ļà®ķà®ķà®±à®¤": 4189,
      "à®¤à®®à®´à®ķ": 4190,
      "Ġ1984": 4191,
      "Ġà®ļà®¯à®±à®ªà®Ł": 4192,
      "Ġà®¤à®²à®²à®¯à®²": 4193,
      "ĠĠĠĠĠĠĠĠĠĠĠĠĠĠĠĠĠĠĠĠĠĠĠĠĠĠĠĠĠĠĠĠ": 4194,
      "Ġà®ħà®®à®ļà®Ļà®ķà®³": 4195,
      "61": 4196,
      "77": 4197,
      "bo": 4198,
      "son": 4199,
      "à®ķà®ľ": 4200,
      "Ġà®ĩà®Łà®Ł": 4201,
      "Ġà®¤à®ªà®ª": 4202,
      "Ġà®ĩà®°à®ķà®¤à®¤à®²": 4203,
      "Ġà®ķà®°à®Łà®Ł": 4204,
      "Ġà®ķà®±à®±à®µ": 4205,
      "à®©à®°à®²": 4206,
      "Ġà®ħà®Łà®ķà®³": 4207,
      "Ġà®ħà®Łà®µà®¯": 4208,
      "Ġà®®à®°à®¤à®¤à®¯": 4209,
      "Ġà®®à®´à®ªà®¯à®°": 4210,
      "Ġà®ħà®³à®ķà®ķà®®": 4211,
      "Ġà®ķà®µà®ŀà®°": 4212,
      "Ġ51": 4213,
      "Ġà®µà®Łà®Łà®©": 4214,
      "Ġà®İà®Łà®ķà®ķà®ªà®ªà®Łà®Ł": 4215,
      "Ġà®µà®¨à®¤à®©à®°": 4216,
      "Ġà®ħà®³à®µà®±à®ķ": 4217,
      "Ġà®¤à®²à®®à®¯à®²à®©": 4218,
      "Ġà®¨à®±à®µà®ªà®ªà®Łà®Łà®¤": 4219,
      "Ġà®ķà®ļà®ļ": 4220,
      "ations": 4221,
      "Ġà®µà®©à®±à®°": 4222,
      "Ġà®®à®ķà®°à®ļ": 4223,
      "à®ªà®ªà®´à®¤": 4224,
      "Ġà®ķà®±à®¸à®¤": 4225,
      "aj": 4226,
      "à®µà®¨à®¤à®©": 4227,
      "Ġà®®à®ªà®²": 4228,
      "Ġà®¤à®ª": 4229,
      "Ġà®ħà®¯à®©": 4230,
      "Ġà®¨à®ķà®²": 4231,
      "Ġà®ªà®ķà®ķà®Ļà®ķà®³": 4232,
      "à®¸à®µà®°": 4233,
      "Ġà®µà®°à®µà®±": 4234,
      "Ġà®ªà®±à®ªà®ªà®Łà®Ł": 4235,
      "Ġà®¨à®Łà®ķà®ķ": 4236,
      "Ġà®¨à®Łà®©à®®": 4237,
      "Ġà®ķà®²à®®à®°": 4238,
      "à®ķà®¯à®¤": 4239,
      "den": 4240,
      "Ġà®Łà®®à®©": 4241,
      "Ġ1975": 4242,
      "Ġà®¨à®²à®ķ": 4243,
      "Ġà®¨à®²à®ķà®ķ": 4244,
      "Ġà®ķà®³à®ķà®³": 4245,
      "à®ķà®ķà®ķà®ªà®ªà®Ł": 4246,
      "Ġà®ªà®±à®±à®µà®°": 4247,
      "Ġà®ĩà®µà®°à®ķà®³à®²": 4248,
      "Ġà®ħà®£à®ķà®ķà®ķ": 4249,
      "à®µà®°à®ķà®³à®ķ": 4250,
      "Ġà®µà®±à®ªà®Łà®ķà®³": 4251,
      "Ġà®İà®Łà®¤à®¤à®°": 4252,
      "à®ĩà®²à®Ļà®ķà®¯à®©": 4253,
      "Ġà®Ĳà®°à®ªà®ª": 4254,
      "Ġà®ªà®®à®¯à®©": 4255,
      "Ġà®ªà®²à®ķà®²à®ķà®ķà®´à®ķà®¤à®¤à®²": 4256,
      "Ġà®ıà®°à®³à®®à®©": 4257,
      "à®Ĩà®°à®®à®ª": 4258,
      "Ġà®İà®²à®ķà®Łà®°à®©": 4259,
      "à®ļà®´": 4260,
      "Ġà®µà®Ļà®ķà®ķà®³": 4261,
      "Ġà®¤à®¨à®¤à®°": 4262,
      "Ġà®Ĩà®µ": 4263,
      "Ġà®Ĩà®¨à®¤à®°": 4264,
      "Ġà®Ĩà®¯à®°à®®": 4265,
      "à®´à®µ": 4266,
      "à®±à®±à®¤": 4267,
      "Ġà®µà®°à®ķ": 4268,
      "Ġà®µà®°à®®à®©": 4269,
      "Ġà®µà®°à®µà®ķ": 4270,
      "Ġà®¨à®Łà®¨à®¤à®¤": 4271,
      "Ġà®ªà®²à®ļ": 4272,
      "Ġà®ļà®°à®©": 4273,
      "Ġà®ĩà®¨à®¤à®¯à®©": 4274,
      "Ġà®¨à®²à®ķà®®": 4275,
      "Ġà®ĩà®²à®²à®®": 4276,
      "Ġà®ĩà®²à®¤à®¤à®©": 4277,
      "ree": 4278,
      "Ġà®¤à®Łà®°à®ªà®ķà®³": 4279,
      "Ġà®ıà®±à®ª": 4280,
      "Ġà®¸à®ª": 4281,
      "Ġà®ļà®¯à®²à®³à®°": 4282,
      "Ġà®ĩà®ļà®ķ": 4283,
      "Ġcon": 4284,
      "Ġà®ļà®¨à®¤à®¯à®²": 4285,
      "Ġà®µà®³à®¯à®Łà®Łà®¤": 4286,
      "Ġ1992": 4287,
      "Ġà®·à®©à®¯": 4288,
      "1991": 4289,
      "amil": 4290,
      "''": 4291,
      "73": 4292,
      "95": 4293,
      "ble": 4294,
      "à®®à®¤à®°": 4295,
      "à®ļà®²à®²": 4296,
      "Ġà®¤à®µà®©": 4297,
      "Ġà®ļà®ļ": 4298,
      "Ġà®ļà®ªà®ªà®©": 4299,
      "Ġà®µà®°à®ªà®Ł": 4300,
      "ank": 4301,
      "Ġà®ķà®²à®©": 4302,
      "à®Łà®°à®²": 4303,
      "Ġà®¨à®°à®¯à®£": 4304,
      "tex": 4305,
      "à®ľà®¤": 4306,
      "à®ħà®µà®°": 4307,
      "Ġà®µà®²à®ķà®ķ": 4308,
      "à®ķà®ķà®ķà®£": 4309,
      "à®ķà®ķà®Łà®²": 4310,
      "Ġà®¤à®´à®µ": 4311,
      "à®³à®®à®ķ": 4312,
      "Ġà®ķà®¯à®´à®¤à®¤": 4313,
      "Ġà®ĩà®ļà®¯à®²": 4314,
      "Ġà®µà®£à®£à®®": 4315,
      "Ġ64": 4316,
      "Ġà®¤à®²à®®à®±": 4317,
      "Ġà®Łà®°à®¸": 4318,
      "Ġà®Ĩà®¤à®°à®Ļà®ķà®³": 4319,
      "Ġ1978": 4320,
      "Ġà®ķà®°à®£à®ķà®³": 4321,
      "Ġà®İà®£à®ķà®³": 4322,
      "Ġà®İà®°à®ªà®°à®³": 4323,
      "Ġà®ªà®Ļà®ķà®³à®ªà®ª": 4324,
      "Ġà®ķà®²à®ķà®Łà®Łà®¤à®¤à®²": 4325,
      "ON": 4326,
      "ae": 4327,
      "au": 4328,
      "à®¤à®ķà®¤": 4329,
      "à®ķà®¹": 4330,
      "Ġà®ļà®Ļà®ķà®³": 4331,
      "à®Ļà®ķà®ļ": 4332,
      "Ġà®Ĩà®ķà®µà®®": 4333,
      "à®µà®°à®µ": 4334,
      "à®Łà®Łà®¯": 4335,
      "à®ķà®°à®ķ": 4336,
      "Ġà®ķà®°à®®à®®": 4337,
      "Ġà®®à®©à®Ł": 4338,
      "Ġà®¤à®©à®®à®®": 4339,
      "à®ªà®¤à®µà®ķ": 4340,
      "Ġà®ķà®Łà®Łà®²": 4341,
      "Ġà®Łà®µà®©": 4342,
      "Ġà®ķà®´à®ķ": 4343,
      "Ġà®ħà®Łà®²": 4344,
      "Ġà®ªà®Łà®Łà®©": 4345,
      "Ġà®¤à®Łà®°à®²": 4346,
      "Ġà®ĩà®Łà®ªà®ªà®Łà®Ł": 4347,
      "à®µà®Łà®Łà®©": 4348,
      "Ġà®ħà®£à®£": 4349,
      "Ġà®ķà®¯à®®à®ªà®¤à®¤à®°": 4350,
      "Ġà®µà®³à®¯à®Łà®Łà®ķ": 4351,
      "Ġà®µà®³à®¯à®Łà®ªà®ªà®Łà®Ł": 4352,
      "Ġ2016": 4353,
      "Ġà®ĩà®³à®¯à®°à®ľ": 4354,
      "Ġà®¨à®£à®ªà®°": 4355,
      "Ġà®ļà®¯à®±à®ªà®Łà®Ł": 4356,
      "Ġà®ķà®°à®·à®£à®©": 4357,
      "Ġà®¨à®Łà®ŀà®ļà®²à®ķà®³": 4358,
      "Ġà®īà®¯à®°à®©à®Ļà®ķà®³": 4359,
      "à®¤à®Łà®°à®ª": 4360,
      "FRS": 4361,
      "Ġà®¨à®®à®ªà®ªà®ªà®Łà®ķà®±à®¤": 4362,
      "78": 4363,
      "ain": 4364,
      "bs": 4365,
      "à®°à®ľà®©": 4366,
      "à®Łà®ļà®®": 4367,
      "à®³à®²": 4368,
      "Ġà®µà®µà®ļà®¯à®®": 4369,
      "à®¨à®²à®²": 4370,
      "Ġà®ħà®ķà®°": 4371,
      "Ġà®Ĩà®µà®°à®ķà®³": 4372,
      "Ġà®ªà®°à®ª": 4373,
      "Ġà®ĩà®°à®ķà®Ļà®ķà®³": 4374,
      "Ġ(\"": 4375,
      "à®ªà®°à®Łà®Ł": 4376,
      "Ġà®¨à®Łà®ķà®ķà®³": 4377,
      "Ġà®ªà®¯à®²": 4378,
      "Ġà®ķà®Łà®Łà®ķà®±à®¤": 4379,
      "à®¨à®¤à®°à®ķà®ķà®®": 4380,
      "Ġà®ľà®µ": 4381,
      "Ġà®®à®²à®°": 4382,
      "à®ħà®±": 4383,
      "Ġà®®à®Łà®²": 4384,
      "à®ªà®ªà®¤à®µ": 4385,
      "Ġà®ªà®°à®®à®³à®µ": 4386,
      "Ġ33": 4387,
      "à®·à®Ł": 4388,
      "Ġ45": 4389,
      "Ġà®Ĵà®©à®±à®£": 4390,
      "Ġà®ħà®£à®¯": 4391,
      "Ġà®ļà®©à®µà®²": 4392,
      "Ġà®ķà®£à®Łà®°à®¨à®¤à®°": 4393,
      "Ġà®®à®ķà®ķà®¯à®®à®ķ": 4394,
      "ord": 4395,
      "à®ķà®ķà®¤à®¤à®±à®ķ": 4396,
      "Ġà®®à®ķà®ªà®¤": 4397,
      "Ġà®®à®ķà®®à®®à®¤": 4398,
      "Ġà®Ĩà®³à®¨": 4399,
      "Ġà®ķà®Łà®¤à®²à®ķ": 4400,
      "Ġà®ĩà®¤à®¤à®²à®¯": 4401,
      "à®¨à®ķà®´à®µà®ķà®³": 4402,
      "tyle": 4403,
      "ĠUniversity": 4404,
      "%,": 4405,
      "à®°à®ª": 4406,
      "à®®à®¤à®¤": 4407,
      "Ġà®µà®Ļà®ķà®Ł": 4408,
      "Ġà®¨à®¤à®¯": 4409,
      "Ġà®ªà®°à®ªà®ª": 4410,
      "Ġà®ªà®°à®µà®®": 4411,
      "à®£à®Łà®ķà®³": 4412,
      "Ġà®ĩà®°à®µà®°": 4413,
      "Ġà®¤à®°à®¯à®²": 4414,
      "à®ªà®°à®¤à®¤": 4415,
      "à®¯à®°à®ķà®ķ": 4416,
      "à®ķà®±à®ķà®³": 4417,
      "istory": 4418,
      "Ġà®µà®´à®®à®±à®ķà®³": 4419,
      "ene": 4420,
      "Ġà®µà®Łà®ķà®ķà®¯": 4421,
      "Ġà®ľà®®à®®": 4422,
      "à®ķà®ļà®²": 4423,
      "Ġà®®à®²à®Ł": 4424,
      "Ġà®®à®¤à®²à®Łà®Ł": 4425,
      "Ġà®ĩà®°à®¨à®¤à®ªà®¤": 4426,
      "Ġà®¤à®®à®´à®¨à®Łà®Łà®²": 4427,
      "Ġà®¯à®ķ": 4428,
      "à®¯à®Łà®¤à®¤": 4429,
      "à®ªà®µà®©": 4430,
      "Ġà®¤à®µà®±à®©": 4431,
      "ĠCon": 4432,
      "Ġà®ªà®°à®¤à®ļà®®": 4433,
      "Ġ1977": 4434,
      "Ġà®ķà®³à®³à®²à®®": 4435,
      "Ġà®¨à®°à®µà®ķà®®": 4436,
      "Ġà®µà®°à®Łà®Ļà®ķà®³": 4437,
      "Ġà®µà®´à®Ļà®ķà®ªà®ªà®Łà®®": 4438,
      "Ġà®¨à®ķà®ļà®ļà®µ": 4439,
      "NA": 4440,
      "mon": 4441,
      "Ġà®ĩà®Ļà®ķà®³à®³": 4442,
      "Ġà®µà®ķà®®à®ķ": 4443,
      "Ġà®ħà®Ļà®ķà®®": 4444,
      "Ġà®ªà®ķà®Łà®°à®¯": 4445,
      "à®ķà®¤à®²": 4446,
      "à®ªà®°à®¨à®¤": 4447,
      "à®ªà®°à®©à®¯": 4448,
      "Ġà®ķà®°à®ª": 4449,
      "Ġà®ķà®°à®Łà®©": 4450,
      "Ġà®ªà®±à®ķà®ķà®®": 4451,
      "Ġà®ķà®Łà®¤à®¤à®°": 4452,
      "Ġà®®à®©à®®à®´": 4453,
      "Ġà®ħà®®à®ķà®©à®±à®©": 4454,
      "Ġà®ļà®°à®ķà®ķ": 4455,
      "Ġà®ªà®Łà®©à®°": 4456,
      "declined": 4457,
      "Ġà®°à®©": 4458,
      "âĢĶ": 4459,
      "Ġà®®à®Łà®¨à®¤à®¤": 4460,
      "Ġà®ªà®±à®±à®©à®°": 4461,
      "Ġà®ĩà®¯à®Ļà®ķà®¤": 4462,
      "à®ªà®±à®ªà®ª": 4463,
      "Ġà®¹à®Łà®°": 4464,
      "à®ķà®£à®©": 4465,
      "Ġà®ļà®¯à®²à®ªà®Łà®®": 4466,
      "Ġà®Ĭà®ķà®ķà®µ": 4467,
      "Ġà®ķà®ªà®ªà®¯": 4468,
      "Ġà®ªà®°à®¤à®¨à®¤à®¤": 4469,
      "Ġ1989": 4470,
      "Ġà®ķà®ķà®ķ": 4471,
      "Ġà®ĩà®±à®¤à®¯à®ķ": 4472,
      "Ġà®īà®³à®µà®¯à®²": 4473,
      "à®ķà®ķà®ªà®ªà®Łà®Łà®°à®ķà®ķà®®": 4474,
      "à®ļà®±à®ªà®ª": 4475,
      "Ġà®Ĩà®±à®±à®©": 4476,
      "Ġà®ĩà®¯à®¨à®¤à®°à®Ļà®ķà®³": 4477,
      "Ġà®ĩà®°à®ļà®ļà®¯à®®": 4478,
      "\"|": 4479,
      "01": 4480,
      "71": 4481,
      "ah": 4482,
      "aw": 4483,
      "à®¤à®ķà®ķ": 4484,
      "à®¤à®²à®®": 4485,
      "à®ļà®ķà®ķ": 4486,
      "Ġà®ĩà®£à®Ł": 4487,
      "Ġà®ĩà®¸": 4488,
      "Ġà®¤à®ķà®ķà®²": 4489,
      "Ġà®ħà®ķà®¤à®¤": 4490,
      "Ġà®¨à®ķà®ķà®¯": 4491,
      "Ġà®¤à®°à®¯": 4492,
      "Ġà®µà®°à®ķà®©à®±à®©à®°": 4493,
      "Ġà®ªà®±à®µ": 4494,
      "à®ķà®©à®²": 4495,
      "Ġà®¨à®Łà®¨à®²": 4496,
      "Ġà®ªà®Łà®¤à®¤à®©": 4497,
      "Ġà®ĩà®¤à®±à®ķà®©": 4498,
      "Ġà®¨à®²à®¯à®¤à®¤à®²": 4499,
      "ĠAl": 4500,
      "Ġà®ħà®Łà®ķà®ķà®®": 4501,
      "Ġà®ħà®Łà®¨à®¤à®¤": 4502,
      "1990": 4503,
      "à®ªà®ªà®°à®Łà®ķà®³": 4504,
      "Ġà®ĩà®¯à®ķà®ķà®¯": 4505,
      "Ġà®İà®©à®ªà®¤à®Ł": 4506,
      "Ġà®ħà®°à®ļà®°": 4507,
      "Ġà®ªà®³à®ķà®ªà®°à®°": 4508,
      "Ġas": 4509,
      "Ġà®Ĭà®°à®²": 4510,
      "Ġà®ħà®²à®ķà®ķà®³": 4511,
      "à®ªà®ªà®Łà®¤à®¤à®ªà®ªà®Łà®Ł": 4512,
      "Ġà®ķà®±à®ªà®ªà®Łà®ķà®±à®°": 4513,
      "Ġà®ħà®±à®¯à®ªà®ªà®Łà®ķà®±à®¤": 4514,
      "Ġà®Łà®²à®°à®ķà®³": 4515,
      "à®ļà®±à®¨à®¤": 4516,
      "Ġà®īà®¤à®°à®£à®®à®ķ": 4517,
      "Ġà®¨à®¨à®¤": 4518,
      "Ġà®¨à®¯à®©": 4519,
      "Ġà®İà®£à®Ł": 4520,
      "Ġà®īà®®": 4521,
      "Ġà®ªà®°à®Łà®Łà®®": 4522,
      "à®¤à®¤à®²à®¯": 4523,
      "Ġà®ªà®±à®±à®©": 4524,
      "Ġà®®à®©à®ķà®³": 4525,
      "Ġà®µà®´à®ķà®ķà®±": 4526,
      "Ġà®ķà®´à®ķà®ķà®²": 4527,
      "Ġà®ĩà®²à®°à®¨à®¤": 4528,
      "Ġà®ĩà®²à®ķà®ķà®£": 4529,
      "à®ķà®³à®©à®²": 4530,
      "à®ķà®ķà®±à®³": 4531,
      "Ġà®µà®²à®ķ": 4532,
      "Ġà®ªà®°à®®à®¯à®°": 4533,
      "Ġà®ĩà®¯à®Ļà®ķ": 4534,
      "Ġà®ĩà®£à®ķà®ķà®ªà®ªà®Łà®Ł": 4535,
      "à®µà®°à®ķà®³à®®": 4536,
      "Ġà®īà®Łà®ķà®³": 4537,
      "ĠGre": 4538,
      "Ġà®ªà®ļà®ªà®ķ": 4539,
      "Ġà®¨à®±à®µà®©à®¤à®¤": 4540,
      "Ġà®®à®©à®©à®Ł": 4541,
      "Ġà®ħà®¤à®ķà®°à®ķà®³": 4542,
      "Ġà®ķà®°à®¤à®ķà®©à®±à®©à®°": 4543,
      "Ġà®¤à®®à®°à®©": 4544,
      "185": 4545,
      "Ġà®®à®µà®Łà®Łà®¤à®¤à®©": 4546,
      "à®ķà®ķà®¤à®¤à®ķà®ķ": 4547,
      "Ġ1986": 4548,
      "Ġà®ĩà®¯à®²à®ªà®©": 4549,
      "Ġà®ıà®±à®ªà®Łà®¤à®¤à®®": 4550,
      "Ġà®µà®°à®ļà®¯à®²": 4551,
      "Ġà®ĩà®ļà®¤à®¤à®ķà®ªà®ª": 4552,
      "68": 4553,
      "Ġ90": 4554,
      "Ġà®±": 4555,
      "Ġà®ĩà®ªà®©": 4556,
      "Ġà®¤à®ķà®ķà®¯": 4557,
      "à®Ļà®ķà®Łà®Ł": 4558,
      "Ġà®Ĩà®Łà®ķà®³": 4559,
      "Ġà®īà®£à®£": 4560,
      "à®ªà®ªà®ķà®ķà®®": 4561,
      "Ġà®ªà®ķà®µ": 4562,
      "Ġà®Ĵà®Łà®Łà®®": 4563,
      "Ġà®µà®³à®°à®®": 4564,
      "Ġà®ªà®¯à®©à®®": 4565,
      "Ġà®ĩà®¨à®¤à®¯à®ķ": 4566,
      "Ġà®ªà®Łà®¤à®¤à®¤": 4567,
      "âĢ¦": 4568,
      "Ġà®ļà®®à®¤": 4569,
      "Ġà®¤à®®à®´à®°à®ķà®³": 4570,
      "Ġà®®à®´à®ķà®³à®²": 4571,
      "Ġà®Ĩà®ķà®¯à®°à®©": 4572,
      "Ġà®¤à®Łà®°à®µà®£à®Ł": 4573,
      "Ġ400": 4574,
      "Ġà®¤à®°à®µà®¤à®¤": 4575,
      "Ġà®ħà®±à®µà®¤à®¤à®°": 4576,
      "à®®à®©à®±à®®": 4577,
      "Ġ1981": 4578,
      "Ġ1969": 4579,
      "à®¤à®±à®®": 4580,
      "Ġ1947": 4581,
      "Ġà®īà®¤à®µà®ķà®±à®¤": 4582,
      "Ġà®ķà®Łà®Łà®ªà®ªà®Łà®Łà®²": 4583,
      "à®īà®¯à®°à®ªà®°à®³à®°": 4584,
      "Ġà®ļà®°à®ļà®°à®¯à®ķ": 4585,
      "05": 4586,
      "63": 4587,
      "98": 4588,
      "à®®à®±à®±à®®": 4589,
      "Ġà®ħà®µà®ķà®³": 4590,
      "Ġà®ļà®¸": 4591,
      "Ġà®İà®±": 4592,
      "Ġà®İà®°à®®": 4593,
      "à®Łà®Łà®°à®ķà®³": 4594,
      "Ġà®µà®°à®ªà®ª": 4595,
      "à®ªà®°à®®à®©": 4596,
      "Ġà®ķà®°à®¯à®²": 4597,
      "Ġà®ħà®®à®¤à®¤": 4598,
      "Ġà®ħà®®à®ķà®±à®¤": 4599,
      "à®µà®²à®¯": 4600,
      "Ġà®ªà®£à®¯à®²": 4601,
      "Ġà®ĩà®²à®ķà®ķà®ķà®³": 4602,
      "Ġà®¤à®²à®ªà®ªà®°à®¤": 4603,
      "Ġà®µà®²à®²à®®": 4604,
      "à®ķà®ķà®µà®£à®Łà®®": 4605,
      "à®ķà®ķà®Łà®©": 4606,
      "à®İà®©à®±": 4607,
      "à®ķà®ķà®ªà®ªà®Łà®¤": 4608,
      "Ġà®ĩà®Łà®¤": 4609,
      "Ġà®ªà®¯à®©à®ªà®Łà®¤à®¤à®¯": 4610,
      "Ġà®®à®ķà®ķà®³à®ķà®ķ": 4611,
      "Ġà®ķà®®à®ªà®¯": 4612,
      "ast": 4613,
      "Ġà®ķà®°à®¤à®ªà®ªà®Łà®®": 4614,
      "Ġà®ķà®ªà®³": 4615,
      "Ġà®µà®³à®¯à®Łà®Łà®ķà®³": 4616,
      "Ġ1979": 4617,
      "Ġà®Ĩà®Łà®ļà®¯à®©": 4618,
      "Ġà®®à®³à®ķà®°à®¤à®¤": 4619,
      "Ġ1967": 4620,
      "ĠUS": 4621,
      "Ġà®¤à®±à®±à®µ": 4622,
      "Ġà®ļà®ķà®ķà®²à®ķà®³": 4623,
      "ĠĊĠĊĠĊĠĊ": 4624,
      "Ġà®®à®²à®ķà®ķà®±à®ķà®³": 4625,
      "Ġà®ħà®±à®®à®ķà®ªà®ªà®Ł": 4626,
      "Ġà®®à®ķà®³à®°": 4627,
      "à®īà®ļà®¤à®¤à®£à®ķà®³": 4628,
      "Ġà®µà®ļà®°à®£": 4629,
      "42": 4630,
      "cy": 4631,
      "ik": 4632,
      "à®µà®¯à®°": 4633,
      "Ġà®®à®¨à®Ł": 4634,
      "à®¤à®¤à®ªà®ªà®Łà®Ł": 4635,
      "Ġà®ĩà®±à®µ": 4636,
      "Ġà®µà®¯à®Ł": 4637,
      "Ġà®ļà®³": 4638,
      "Ġà®ļà®ŀà®ļ": 4639,
      "Ġà®ĩà®°à®ķà®ķà®©à®±à®¤": 4640,
      "à®¯à®°à®ķà®ķà®®": 4641,
      "Ġà®¨à®Łà®ªà®ª": 4642,
      "Ġà®¤à®©à®ķà®ķ": 4643,
      "à®¤à®¤à®°à®®": 4644,
      "à®ľà®²": 4645,
      "Ġà®ħà®Łà®ķà®ķ": 4646,
      "à®ļà®°à®©": 4647,
      "Ġà®¨à®±à®ļà®¯à®¤": 4648,
      "à®ªà®¯à®®": 4649,
      "Ġà®®à®´à®ķ": 4650,
      "à®¨à®²à®¯à®²": 4651,
      "Ġà®¨à®ķà®°à®Ļà®ķà®³à®®": 4652,
      "Ġà®īà®±à®Ļ": 4653,
      "Ġà®¨à®©à®µà®ķ": 4654,
      "Ġà®ļà®¯à®¯à®ªà®ªà®Łà®ķà®©à®±à®©": 4655,
      "Ġà®µà®©à®¯à®²": 4656,
      "Ġà®®à®¯à®ļ": 4657,
      "Ġà®Ĩà®¤à®°à®µà®³": 4658,
      "Ġà®®à®®à®ªà®Ł": 4659,
      "Ġà®ħà®²à®µà®²à®°": 4660,
      "Ġà®īà®¤à®°à®£": 4661,
      "100": 4662,
      "43": 4663,
      "Ġan": 4664,
      "ĪĴ": 4665,
      "Ġà®©": 4666,
      "à®³à®¤à®¤": 4667,
      "Ġà®¤à®ķà®ķà®µ": 4668,
      "à®¨à®°à®®": 4669,
      "Ġà®ħà®¯à®°": 4670,
      "Ġà®īà®Łà®®": 4671,
      "Ġà®ªà®°à®ķà®ķà®²": 4672,
      "à®¤à®²à®©": 4673,
      "Ġà®ķà®²à®ķà®¤à®¤": 4674,
      "Ġà®µà®³à®Ļà®ķà®¯à®¤": 4675,
      "Ġà®ªà®©à®®": 4676,
      "Ġà®ªà®¤à®ªà®ªà®ķà®³": 4677,
      "Ġà®ļà®°à®£à®Ł": 4678,
      "Ġà®µà®´à®ķà®ķà®²": 4679,
      "Ġà®ķà®Łà®Łà®±à®µ": 4680,
      "Ġà®°à®ļà®°": 4681,
      "Ġà®¨à®°à®Ļà®ķà®¯": 4682,
      "Ġà®®à®²à®ķà®³": 4683,
      "Ġà®ªà®°à®®à®³à®µà®²": 4684,
      "Ġà®ªà®ķà®¤à®¯à®ķà®®": 4685,
      "Ġpro": 4686,
      "Ġà®ħà®©à®ªà®ªà®ªà®ªà®Łà®Ł": 4687,
      "Ġà®Ĭà®Łà®ķ": 4688,
      "à®īà®Ł": 4689,
      "à®ķà®¸à®¤à®©": 4690,
      "Ġà®ªà®°à®³à®¤à®°à®®": 4691,
      "Ġà®¤à®³à®¤à®¤à®²": 4692,
      "Ġà®ªà®°à®©à®¸": 4693,
      "à¤°": 4694,
      "à®ĩà®¨à®¤à®¯à®µà®²": 4695,
      "Ġà®İà®²à®²à®®": 4696,
      "Ġà®ªà®¤à®®à®ķà®ķà®³": 4697,
      "à®ķà®ķà®ªà®ª": 4698,
      "Ġà®ķà®´à®µà®©à®°": 4699,
      "EE": 4700,
      "Ġà®ħà®¨à®¤à®°": 4701,
      "Ġà®īà®©": 4702,
      "Ġà®¤à®°à®¯à®®à®ķ": 4703,
      "Ġà®µà®°à®£": 4704,
      "Ġà®µà®°à®Ļà®ķà®³": 4705,
      "Ġà®ķà®°à®µà®±": 4706,
      "à®µà®©à®¯": 4707,
      "ram": 4708,
      "iss": 4709,
      "Ġà®¤à®©à®±à®©à®°": 4710,
      "à®ĩà®¨": 4711,
      "Ġà®µà®´à®ķà®ķà®Ł": 4712,
      "meric": 4713,
      "Ġà®ķà®Łà®Łà®©": 4714,
      "Ġà®ļà®²à®¯à®²": 4715,
      "à®ķà®Łà®ķà®³": 4716,
      "Ġà®®à®¤à®²à®Ł": 4717,
      "Ġà®¨à®±à®®à®±à®ķà®³": 4718,
      "à®ªà®¯à®±à®ļ": 4719,
      "ĠTer": 4720,
      "Ġà®ħà®°à®ļà®¤à®¤à®²à®µà®°": 4721,
      "à®ªà®±à®ķ": 4722,
      "Ġà®¹à®¸à®Ł": 4723,
      "Ġà®ķà®µà®Ł": 4724,
      "Ġà®ħà®£à®ķà®ķà®³": 4725,
      "Ġà®ļà®¯à®²à®ķà®³": 4726,
      "ĠPubl": 4727,
      "Ġà®ħà®²à®Ļà®ķà®°": 4728,
      "Ġà®ļà®Łà®Łà®ķ": 4729,
      "à®¹à®²": 4730,
      "Ġà®ļà®´à®²à®²": 4731,
      "Ġà®¤à®µà®°à®¤à®¤": 4732,
      "Ġ1974": 4733,
      "Ġà®¤à®©à®±à®®": 4734,
      "Ġà®¸à®Łà®°à®®": 4735,
      "à®µà®³à®¯à®£à®ªà®ªà®ķà®ķà®³": 4736,
      "Ġà®®à®ķà®´à®ļà®ļ": 4737,
      "Ġà®İà®²à®®à®ª": 4738,
      "du": 4739,
      "à®²à®²à®®à®²": 4740,
      "Ġà®µà®ļà®®": 4741,
      "Ġà®ħà®ķà®®": 4742,
      "Ġà®ļà®¨": 4743,
      "à®ªà®ķà®®": 4744,
      "Ġà®µà®°à®µà®Ł": 4745,
      "Ġà®ķà®Łà®²à®²": 4746,
      "Ġà®ªà®¯à®°à®©": 4747,
      "Ġà®ªà®Łà®ķà®ķ": 4748,
      "à®ĩà®£": 4749,
      "à®¯à®¤à®®": 4750,
      "Ġà®ķà®Łà®Łà®®à®©": 4751,
      "Ġà®¤à®Łà®Ļà®ķà®©": 4752,
      "Ġà®µà®²à®¤à®¤à®³à®®": 4753,
      "Ġà®ªà®Łà®Łà®¯à®³à®°à®ķà®³": 4754,
      "à®µà®ķà®³à®ķ": 4755,
      "Ġà®¨à®±à®¯": 4756,
      "à®ķà®ķà®Łà®¯à®²": 4757,
      "Ġà®ħà®°à®ļà®²": 4758,
      "Ġà®ħà®°à®ªà®¯": 4759,
      "à®¤à®®à®¸": 4760,
      "à®³à®³à®¤à®ķ": 4761,
      "Ġà®Ĩà®°à®ķà®ķà®¯": 4762,
      "Ġà®ħà®£à®ķà®ķà®°": 4763,
      "à®īà®³à®³": 4764,
      "Ġà®ļà®¯à®¯à®ªà®ªà®Ł": 4765,
      "Ġ65": 4766,
      "Ġà®·à®Ł": 4767,
      "Ġà®¨à®±à®µà®ªà®ªà®Łà®Ł": 4768,
      "Ġ1972": 4769,
      "Ġà®Ĵà®°à®µà®°à®©": 4770,
      "à®ĩà®°à®£à®Ł": 4771,
      "Ġà®¤à®°à®¨à®¤à®Łà®ķà®ķà®ªà®ªà®Łà®Łà®°": 4772,
      "à®ªà®¨à®¤à®°": 4773,
      "Ġà®ļà®®à®ªà®¯à®©à®·": 4774,
      "Ġà®¤à®©à®¨à®ªà®°": 4775,
      "Ġà®ªà®ķà®ªà®ªà®¯à®µ": 4776,
      "--": 4777,
      "OH": 4778,
      "ces": 4779,
      "fell": 4780,
      "à®¤à®£à®Ł": 4781,
      "à®®à®ķà®µà®®": 4782,
      "Ġà®ħà®ªà®ª": 4783,
      "Ġà®ļà®ļà®©": 4784,
      "à®Łà®Łà®¸": 4785,
      "Ġà®ķà®£à®ªà®ªà®Łà®Ł": 4786,
      "Ġà®ķà®£à®ªà®ªà®Łà®Łà®¤": 4787,
      "ant": 4788,
      "Ġà®ķà®±à®µà®¤": 4789,
      "Ġà®¨à®Łà®ķà®Ļà®ķà®³": 4790,
      "à®ĩà®Łà®®": 4791,
      "à®µà®²à®Ł": 4792,
      "Ġà®ıà®¤à®®": 4793,
      "Ġà®ķà®Łà®Łà®©à®°": 4794,
      "Ġà®Łà®°à®®": 4795,
      "Ġà®µà®Łà®ķà®ķà®²": 4796,
      "Ġà®ļà®®à®ªà®¨à®¤": 4797,
      "à®¨à®¤à®¤à®ķ": 4798,
      "ĠâĢĿ": 4799,
      "Ġà®®à®Łà®Ļà®ķ": 4800,
      "à®ķà®ķà®ªà®ªà®Łà®µà®¤": 4801,
      "Ġà®¹à®Ł": 4802,
      "Ġà®¹à®Ļà®ķà®Ļ": 4803,
      "Ġà®ķà®µà®¤à®ķà®³": 4804,
      "Ġà®¸à®ªà®©": 4805,
      "Ġà®īà®°à®µà®ķà®ķà®¯à®¤": 4806,
      "à®ķà®ªà®±": 4807,
      "Ġà®Ĭà®°à®ķà®³à®®": 4808,
      "à®īà®²à®ķ": 4809,
      "ĠBe": 4810,
      "Ġà®ļà®µà®ªà®ª": 4811,
      "à®ķà®ķà®ķà®³à®©": 4812,
      "à®ļà®ļà®°à®Ł": 4813,
      "Ġà®®à®¤à®¤à®®à®®": 4814,
      "Ġà®ļà®©à®±à®¤": 4815,
      "Ġà®ªà®°à®¨à®¤à®¯": 4816,
      "Ġà®ķà®±à®±à®²": 4817,
      "à®¤à®®à®´à®¨à®Łà®Ł": 4818,
      "Ġ1985": 4819,
      "à®ķà®Ļà®ķ": 4820,
      "Ġà®ķà®±à®ªà®ªà®Łà®Łà®°": 4821,
      "Ġà®ķà®³à®³à®µà®²à®²": 4822,
      "Ġ1966": 4823,
      "Ġà®ĩà®´à®ªà®ª": 4824,
      "Ġà®¤à®©à®±à®¯à®¤": 4825,
      "Ġà®¤à®Łà®Łà®®à®Łà®Ł": 4826,
      "Ġ1930": 4827,
      "à®ħà®¤à®µà®¤": 4828,
      "à®ħà®®à®µà®Łà®®": 4829,
      "à®ļà®©à®±à®ķà®³": 4830,
      "Ġà®¤à®ŀà®ļà®µà®°": 4831,
      "62": 4832,
      "92": 4833,
      "ace": 4834,
      "surged": 4835,
      "Ġi": 4836,
      "à®²à®µ": 4837,
      "à®ļà®ķà®¤": 4838,
      "Ġà®µà®ķà®¤à®¤à®²": 4839,
      "Ġà®¤à®ļà®®à®ªà®°": 4840,
      "Ġà®ļà®£": 4841,
      "Ġà®¨à®ŀà®ļ": 4842,
      "à®ªà®¤à®²": 4843,
      "à®µà®°à®®à®©": 4844,
      "Ġstyle": 4845,
      "Ġà®ķà®°à®¨à®¤": 4846,
      "à®ļà®ļà®²à®²": 4847,
      "Ġà®ªà®¯à®®": 4848,
      "Ġà®ļà®°à®ªà®ª": 4849,
      "Ġà®°à®£": 4850,
      "Ġà®ļà®²à®µà®¤": 4851,
      "Ġà®ļà®²à®ķà®±à®¤": 4852,
      "Ġà®ķà®´à®¨à®¤à®¤": 4853,
      "Ġà®ĩà®£à®ªà®ªà®ķà®ķà®³": 4854,
      "à®ķà®ķà®ªà®ªà®Łà®ķà®©à®±à®¤": 4855,
      "Ġà®ħà®±à®ŀà®°": 4856,
      "Ġà®ħà®´à®ķ": 4857,
      "à®ªà®µà®¯à®¯à®²": 4858,
      "Ġà®ħà®£à®ķà®®": 4859,
      "à®ķà®ķà®ķà®³à®²": 4860,
      "orm": 4861,
      "Ġà®¤à®¯à®°à®¤à®¤": 4862,
      "Ġà®ªà®°à®¤à®ªà®²": 4863,
      "Ġà®®à®¯à®¯": 4864,
      "Ġà®ļà®²à®²à®©": 4865,
      "Ġà®ĵà®°à®³à®µ": 4866,
      "Ġ1983": 4867,
      "Ġ1968": 4868,
      "Ġà®ªà®¯à®©à®ªà®Łà®ķà®©à®±à®©": 4869,
      "Ġà®ķà®£à®Łà®ªà®Łà®ķà®ķà®ªà®ªà®Łà®Łà®¤": 4870,
      "Ġà®ªà®±à®¨à®¤à®µà®°": 4871,
      "Ġà®ķà®¨à®¤à®°à®®": 4872,
      "Ġà®ļà®ķà®ļà®ļà®¯": 4873,
      "44": 4874,
      "96": 4875,
      "à´": 4876,
      "Ġà®ĩà®ļà®¯": 4877,
      "Ġà®µà®Ļà®ķà®³à®¤": 4878,
      "Ġà®¤à®ķà®¯": 4879,
      "Ġà®ªà®¤à®¤à®®": 4880,
      "Ġà®ªà®ķà®ªà®ªà®Ł": 4881,
      "Ġ()": 4882,
      "à®ªà®Łà®²à®ķà®³": 4883,
      "Ġà®®à®±à®ķà®ķ": 4884,
      "à®®à®´à®ķà®ķ": 4885,
      "Ġà®ļà®¯à®¯à®²à®®": 4886,
      "Ġà®ľà®ķ": 4887,
      "Ġà®ļà®®à®ªà®²": 4888,
      "ĠMar": 4889,
      "Ġà®ħà®Łà®¯à®®": 4890,
      "Ġà®®à®²à®³à®°": 4891,
      "Ġà®®à®¤à®²à®©": 4892,
      "à®Ĩà®µà®¤": 4893,
      "Ġà®ļà®±à®ªà®ªà®©": 4894,
      "à®ªà®ªà®°à®®": 4895,
      "à®¨à®²à®ªà®ªà®³à®³": 4896,
      "à®ķà®ķà®Łà®¯à®¤": 4897,
      "Ġà®¯à®²": 4898,
      "Ġà®¤à®°à®ªà®ªà®Łà®¤à®¤à®©": 4899,
      "Ġà®¤à®°à®ªà®ªà®Łà®Ļà®ķà®³à®²": 4900,
      "à®¯à®Łà®ķà®³": 4901,
      "ĠSp": 4902,
      "Ġà®ĩà®ļà®¤": 4903,
      "à®ķà®¤à®¤à®ķ": 4904,
      "Ġà®ħà®²à®µà®°à®ļ": 4905,
      "Ġà®ħà®±à®µà®ķà®ķà®ªà®ªà®Łà®Łà®¤": 4906,
      "Ġà®īà®£à®°à®¨à®¤": 4907,
      "Ġà®ļà®Ļà®ķà®¤": 4908,
      "Ġà®ªà®°à®µà®¤à®¤à®²": 4909,
      "Ġ1982": 4910,
      "Ġà®ļà®ķà®¤à®¯": 4911,
      "Ġ2014": 4912,
      "à®¤à®±à®ªà®¤": 4913,
      "Ġà®Ĩà®¯à®³": 4914,
      "Ġà®ħà®±à®¯à®ªà®ªà®Łà®®": 4915,
      "Ġà®ªà®²à®ķà®²à®ķà®ķà®´à®ķ": 4916,
      "Ġà®Łà®²à®°": 4917,
      "Ġà®¤à®°à®¨à®²à®µà®²": 4918,
      "Ġà®īà®¯à®°à®£à®ķà®ķà®³": 4919,
      "ography": 4920,
      "72": 4921,
      "SS": 4922,
      "li": 4923,
      "à®Łà®ļà®¯": 4924,
      "Ġà®¤à®µà®¤": 4925,
      "Ġà®ħà®ļà®°": 4926,
      "à®¨à®¤à®ķ": 4927,
      "Ġà®ªà®°à®°": 4928,
      "Ġà®ķà®°à®¤à®¤à®²": 4929,
      "Ġà®ķà®±à®ªà®Ł": 4930,
      "Ġà®ķà®±à®¯à®¤": 4931,
      "Ġà®¨à®Łà®®": 4932,
      "Ġà®¨à®Łà®ª": 4933,
      "Ġà®ķà®²à®ļ": 4934,
      "Ġor": 4935,
      "Ġà®ªà®²à®µà®°à®ķà®³": 4936,
      "Ġà®ªà®¤à®²à®®": 4937,
      "Ġà®¤à®©à®¨à®¤": 4938,
      "ater": 4939,
      "Ġà®ªà®Łà®¯à®©": 4940,
      "à®ĩà®©à®±": 4941,
      "Ġà®ķà®Łà®Łà®ª": 4942,
      "ice": 4943,
      "Ġà®¨à®²à®¤à®¤": 4944,
      "Ġà®ķà®³à®µà®¤": 4945,
      "Ġà®ħà®Łà®Ļ": 4946,
      "à®ªà®Łà®Łà®©": 4947,
      "à®ªà®Łà®¤à®¤à®ªà®ªà®Łà®Ł": 4948,
      "à®µà®³à®¯à®Łà®Ł": 4949,
      "à®ªà®ªà®°à®®à®£": 4950,
      "Ġà®ħà®°à®µ": 4951,
      "Ġà®ıà®±à®ķà®ķà®±à®¯": 4952,
      "Ġà®¤à®±à®ķà®³à®²": 4953,
      "à®Ļà®ķà®³à®²à®°à®¨à®¤": 4954,
      "Ġà®ªà®¯à®©à®ªà®Łà®¤à®¤à®²à®®": 4955,
      "à®īà®°": 4956,
      "à®ĥà®ªà®©": 4957,
      "Ġà®ħà®±à®µà®¤à®¤": 4958,
      "Ġà®ķà®£à®Łà®°à®ķà®ķà®©à®±à®©": 4959,
      "à®¤à®¤à®±à®¯à®²": 4960,
      "à®µà®´à®ķà®ķ": 4961,
      "Ġà®īà®£à®°à®ļà®ļ": 4962,
      "Ġà®¤à®µà®°à®Ļà®ķà®³": 4963,
      "Ġà®ļà®¤à®µà®¤à®®": 4964,
      "Ġà®®à®£à®²": 4965,
      "Ġà®Ĵà®²à®ªà®°": 4966,
      "Ġ1973": 4967,
      "Ġ1962": 4968,
      "Ġà®®à®£à®Łà®²à®®": 4969,
      "1998": 4970,
      "Ġà®®à®¯à®±à®ļà®¯à®²": 4971,
      "Ġà®ķà®Łà®®à®ªà®¤à®¤à®©": 4972,
      "Ġà®ľà®°à®®à®©à®¯": 4973,
      "Ġà®¤à®°à®¨à®¤à®Łà®ķà®ķà®ªà®ªà®Łà®Ł": 4974,
      "Ġà®ķà®±à®¸à®¤à®µ": 4975,
      "48": 4976,
      "82": 4977,
      "LE": 4978,
      "ov": 4979,
      "à®³à®©": 4980,
      "Ġà®ĩà®£à®Łà®°": 4981,
      "Ġà®¤à®ķà®¯à®²": 4982,
      "Ġà®ħà®µà®©à®¤": 4983,
      "Ġà®ļà®¤à®©à®®": 4984,
      "Ġà®ªà®°à®µà®°": 4985,
      "Ġà®ĩà®°à®ķà®ķà®±à®°": 4986,
      "Ġà®ķà®²à®ªà®°à®©à®¯": 4987,
      "Ġà®ħà®¤à®ķà®ªà®ªà®Ł": 4988,
      "Ġà®ļà®¯à®¤à®©": 4989,
      "Ġà®ħà®³à®¤à®¤à®°": 4990,
      "Ġà®īà®°à®µà®ķà®ķà®µ": 4991,
      "Ġà®ªà®³à®¸": 4992,
      "à®ķà®¸à®©": 4993,
      "ĠBook": 4994,
      "Ġà®µà®¯à®´": 4995,
      "Ġà®ªà®Ļà®ķà®ªà®±": 4996,
      "Ġà®¤à®¯à®°à®ªà®ªà®³à®°": 4997,
      "Ġà®¤à®®à®¸": 4998,
      "Ġà®¤à®³à®µà®©": 4999,
      "à®ªà®ļà®ļ": 5000,
      "Ġà®ªà®°à®ļà®ķ": 5001,
      "Ġà®ĩà®´à®¨à®¤": 5002,
      "1984": 5003,
      "Ġà®ªà®°à®Łà®ķà®³à®©": 5004,
      "à®¸à®¤à®°à®²à®¯": 5005,
      "Ġà®¯à®´à®ªà®ªà®£à®®": 5006,
      "Ġà®ªà®ķà®°à®¨à®¤": 5007,
      "Ġà®ķà®¤à®¤à®²à®ķà®ķ": 5008,
      "Ġà®ĩà®¸à®²à®®à®¯": 5009,
      "Ġà®ıà®±à®±à®®à®¤": 5010,
      "Ġà®ħà®¤à®ķà®ªà®Łà®ļ": 5011,
      "Ġà®ªà®°à®¤à®¨à®¤à®¤à®¤à®µ": 5012,
      "35": 5013,
      "36": 5014,
      "az": 5015,
      "ies": 5016,
      "ure": 5017,
      "Ġà¤": 5018,
      "à®ļà®±à®±": 5019,
      "Ġà®µà®©à®©": 5020,
      "à®¨à®¤à®ªà®°à®®": 5021,
      "Ġà®īà®Ļà®ķà®³": 5022,
      "Ġà®ªà®°à®ķà®³": 5023,
      "Ġà®Ĵà®ªà®ª": 5024,
      "Ġà®¤à®°à®¤": 5025,
      "Ġà®¤à®°à®µà®®": 5026,
      "Ġà®ķà®Łà®ķà®ķà®©à®±à®©": 5027,
      "à®µà®¤à®¯à®¯à®²": 5028,
      "Ġà®ķà®²à®¤à®¤à®±à®ķ": 5029,
      "ration": 5030,
      "Ġà®ħà®®à®²à®®": 5031,
      "Ġà®ļà®°à®Ļà®ķà®³": 5032,
      "Ġà®ļà®°à®¸": 5033,
      "Ġà®®à®±à®ķà®ª": 5034,
      "à®ķà®ķà®¯à®³à®³à®¤": 5035,
      "Ġà®ļà®®à®ķà®ŀ": 5036,
      "à®ķà®ļà®®": 5037,
      "à®ŀà®ļà®©": 5038,
      "Ġà®®à®°à®¯": 5039,
      "Ġà®²à®£à®Łà®©": 5040,
      "Ġà®ªà®±à®±à®³à®³à®¤": 5041,
      "Ġà®¤à®®à®´à®ª": 5042,
      "Ġ300": 5043,
      "Ġà®Ĳà®¯": 5044,
      "Ġà®Ĳà®¯à®°": 5045,
      "Ġà®ķà®µà®£à®Łà®®": 5046,
      "Ġà®ħà®°à®Ļ": 5047,
      "Ġà®Ĵà®©à®±à®¯": 5048,
      "Ġà®īà®°à®µà®ķà®±à®¤": 5049,
      "Ġà®īà®Łà®¯à®°": 5050,
      "Ġà®īà®Łà®¯à®¤": 5051,
      "ĠCo": 5052,
      "Ġà®ļà®°à®¨à®¤à®µà®°à®ķà®³": 5053,
      "Ġà®¨à®Łà®Łà®ªà®ªà®±": 5054,
      "Ġà®µà®©à®¯à®²à®³à®°": 5055,
      "Ġà®µà®°à®²à®Ł": 5056,
      "Ġà®¤à®µà®°à®®": 5057,
      "Ġà®İà®´à®¤à®¤à®ķà®³": 5058,
      "Ġà®®à®¤à®¤à®¤à®©": 5059,
      "Ġà®µà®³à®µà®¨à®¤à®¤": 5060,
      "à®ªà®ªà®µà®°": 5061,
      "ĠFFT": 5062,
      "Ġà®Ĩà®Ļà®ķà®²à®¤à®¤à®²": 5063,
      "1971": 5064,
      "Ġà®®à®ļà®®à®©": 5065,
      "Ġà®µà®¸à®ķ": 5066,
      "Ġà®ªà®£à®¯à®±à®±à®¯": 5067,
      "Ġà®ĩà®®à®®à®´": 5068,
      "Ġà®ļà®¨à®¤à®¤à®¤": 5069,
      "47": 5070,
      "CO": 5071,
      "dropped": 5072,
      "per": 5073,
      "tle": 5074,
      "Ġx": 5075,
      "à®³à®¤à®¤à®²": 5076,
      "Ġà®ĩà®ª": 5077,
      "Ġà®µà®Ļà®ķà®¯": 5078,
      "Ġà®µà®ŀà®ļ": 5079,
      "à®¨à®ķà®ķ": 5080,
      "Ġà®ļà®ķà®®": 5081,
      "à®ķà®°à®µ": 5082,
      "Ġà®¤à®°à®Łà®Ł": 5083,
      "Ġà®¤à®°à®µà®©": 5084,
      "Ġà®ķà®£à®£à®Ł": 5085,
      "Ġà®ªà®±à®ķà®ķà®£": 5086,
      "Ġà®ķà®±à®²à®®": 5087,
      "à®ªà®ªà®Łà®Łà®³à®³": 5088,
      "Ġà®¨à®Łà®µà®°": 5089,
      "Ġà®¨à®Łà®¤à®¤à®¤": 5090,
      "Ġà®ķà®²à®²à®®": 5091,
      "à®ĩà®³": 5092,
      "à®ĩà®Ļà®ķà®²": 5093,
      "Ġà®ľà®Ł": 5094,
      "à®ķà®ķà®²à®ª": 5095,
      "Ġà®ļà®®à®®à®©": 5096,
      "Ġà®®à®Łà®¯à®µà®²à®²": 5097,
      "Ġà®ªà®Łà®Łà®¯à®Łà®Ł": 5098,
      "Ġà®ļà®±à®¨à®°": 5099,
      "à®®à®±à®¯à®©": 5100,
      "Ġà®ĩà®£à®¤à®¤": 5101,
      "Ġà®¹à®©": 5102,
      "Ġ2019": 5103,
      "Ġà®Ĭà®°à®¤": 5104,
      "Ġà®Īà®´à®¤à®¤": 5105,
      "Ġà®µà®ļà®¤à®¤": 5106,
      "Ġà®µà®ļà®¤à®ķà®³": 5107,
      "ĠWorld": 5108,
      "Ġà®ķà®Łà®ļà®¯à®²": 5109,
      "Ġà®µà®´à®Ļà®ķà®©à®°": 5110,
      "à®¸à®Łà®²": 5111,
      "Ġà®ªà®¤à®¤à®°à®©": 5112,
      "Ġ1976": 5113,
      "head": 5114,
      "à®µà®°à®²à®±à®±": 5115,
      "Ġà®ķà®ªà®ªà®ķà®³": 5116,
      "Ġà®ĩà®Ļà®ķà®²à®¨à®¤à®²": 5117,
      "Ġà®Ĵà®´à®Ļ": 5118,
      "Ġà®İà®ķà®ªà®¤": 5119,
      "US": 5120,
      "les": 5121,
      "Ġy": 5122,
      "Ġed": 5123,
      "Ġma": 5124,
      "à®¤à®ķà®®": 5125,
      "à®µà®ªà®ª": 5126,
      "Ġà®®à®ķà®ªà®°": 5127,
      "à®ķà®ķà®¨à®¤": 5128,
      "Ġà®ªà®°à®¤à®¤à®®": 5129,
      "Ġà®ªà®°à®ªà®ªà®®": 5130,
      "à®¸à®ķà®°": 5131,
      "Ġà®¤à®°à®¯à®°": 5132,
      "Ġà®®à®±à®±à®µà®°à®ķà®³": 5133,
      "à®¤à®°à®ªà®ª": 5134,
      "Ġà®ªà®±à®µà®ķà®³": 5135,
      "Ġà®ķà®±à®ķà®±à®°": 5136,
      "à®ļà®ļà®Łà®Ł": 5137,
      "Ġà®ªà®¤à®¨à®²": 5138,
      "Ġà®ªà®¯à®±à®ļà®¯": 5139,
      "Ġà®ļà®°à®ķ": 5140,
      "Ġà®ļà®°à®¤à®°": 5141,
      "à®µà®²à®°à®¨à®¤": 5142,
      "Ġà®µà®´à®¨à®³": 5143,
      "Ġà®®à®±à®ķà®£à®Łà®°": 5144,
      "Ġà®ķà®Łà®Łà®¯à®®": 5145,
      "Ġà®Łà®°à®ķ": 5146,
      "Ġà®Ĩà®£à®Łà®ķà®³à®ķ": 5147,
      "Ġà®ļà®²à®µà®ķà®ķ": 5148,
      "Ġà®µà®Łà®ķ": 5149,
      "Ġà®ķà®´à®®à®®": 5150,
      "Ġà®ªà®£à®¯": 5151,
      "à®ªà®ªà®©à®²": 5152,
      "Ġà®®à®°à®£à®®": 5153,
      "Ġà®®à®Łà®¤à®¤": 5154,
      "à®ªà®©à®®": 5155,
      "Ġà®µà®²à®ķà®³": 5156,
      "Ġà®ªà®Łà®Łà®¯à®³à®°": 5157,
      "à®ķà®ķà®ķà®ª": 5158,
      "à®ªà®ªà®°à®Ł": 5159,
      "Ġà®ĩà®Łà®¤à®¤à®ª": 5160,
      "Ġà®Ĵà®©à®±à®®": 5161,
      "Ġà®¨à®ķà®°à®¤à®¤à®©": 5162,
      "Ġà®¨à®¯à®ļà®²": 5163,
      "ĠPar": 5164,
      "à®īà®±": 5165,
      "Ġà®ĥà®ªà®³": 5166,
      "Ġà®¤à®¯à®°à®ªà®ªà®ķà®³": 5167,
      "Ġà®ļà®©à®±à®ķà®³": 5168,
      "Ġà®µà®°à®®à®ªà®©à®°": 5169,
      "à®©à®¯à®ķà®®à®°": 5170,
      "Ġ1987": 5171,
      "Ġà®ıà®±à®ªà®Łà®²à®®": 5172,
      "Ġà®ĩà®³à®µà®°à®ļ": 5173,
      "Ġà®ķà®Łà®¯à®°à®ļà®©": 5174,
      "1970": 5175,
      "1977": 5176,
      "Ġà®®à®°à®ļà®©": 5177,
      "Ġà®¨à®¯à®®à®ķà®ķà®ªà®ªà®Łà®Łà®°": 5178,
      "Ġà®µà®³à®¯à®Łà®¯": 5179,
      "Ġà®¨à®©à®±à®ķ": 5180,
      "Ġà®ĩà®°à®¯à®²à®µ": 5181,
      "Ġà®¤à®Łà®°à®ļà®ļà®¯à®ķ": 5182,
      "41": 5183,
      "FA": 5184,
      "LL": 5185,
      "ile": 5186,
      "je": 5187,
      "ug": 5188,
      "à¯": 5189,
      "à®®à®ķà®°": 5190,
      "à®®à®ķà®ķà®¯": 5191,
      "Ġà®ħà®²à®®": 5192,
      "Ġà®İà®°à®ļ": 5193,
      "à®¯à®²à®¯": 5194,
      "à®¯à®®à®®à®©": 5195,
      "à®¸à®¸": 5196,
      "Ġà®¤à®°à®Łà®ļ": 5197,
      "Ġà®ķà®£à®ªà®ªà®Łà®ķà®©à®±à®¤": 5198,
      "Ġà®ªà®²à®Ł": 5199,
      "Ġà®¤à®©à®¤à®¤à®µ": 5200,
      "Ġà®ĩà®¤à®±à®ķà®ķ": 5201,
      "Ġà®®à®°à®Łà®Ł": 5202,
      "Ġà®®à®°à®ªà®©": 5203,
      "Ġà®®à®Łà®ķà®±à®¤": 5204,
      "Ġà®ªà®Łà®Łà®²": 5205,
      "Ġà®¤à®®à®´à®ķà®¤à®¤à®²": 5206,
      "ĠSh": 5207,
      "Ġà®ħà®£à®ķà®³": 5208,
      "Ġà®īà®Łà®ķà®³à®³": 5209,
      "Ġà®īà®Łà®ªà®Łà®Łà®¤": 5210,
      "Ġ55": 5211,
      "ĠIFRS": 5212,
      "Ġà®ļà®µà®ľ": 5213,
      "à®ªà®ªà®²à®®": 5214,
      "Ġà®¤à®°à®®à®ªà®©à®°": 5215,
      "2010": 5216,
      "à®Ĵà®µà®µà®°": 5217,
      "Ġà®ļà®©à®©à®¯à®²": 5218,
      "Ġà®ķà®ķà®©": 5219,
      "Ġ1965": 5220,
      "Ġà®µà®Łà®µà®¤à®¤à®²": 5221,
      "Ġà®ªà®¯à®©à®ªà®Łà®ķà®³": 5222,
      "1996": 5223,
      "Ġà®ķà®¨à®¤à®¯à®©": 5224,
      "Ġà®ªà®¤à®²à®³": 5225,
      "Ġà®ĩà®Ļà®ķà®²à®¨à®¤à®©": 5226,
      "Ġà®İà®³à®¤à®ķ": 5227,
      "Ġà®ļà®ķà®¤à®°à®°": 5228,
      "Ġà®ļà®ķà®¤à®°à®°à®ķà®³": 5229,
      "Ġà®ļà®®à®¯à®Ļà®ķà®³à®²": 5230,
      "Ġà®ªà®¯à®©à®ªà®Łà®Łà®²": 5231,
      "Ġà®ķà®Ļà®ķà®°à®ļ": 5232,
      "Ġà®ľà®©à®¤à®ªà®¤": 5233,
      "à®ħà®°à®ļà®¯à®²": 5234,
      "Ġà®ķà®±à®¯à®Łà®Łà®²": 5235,
      "Ġà®µà®±à®±à®ķà®°à®®à®ķ": 5236,
      "Ġà®ªà®°à®¤à®°à®¸": 5237,
      "ffic": 5238,
      "ht": 5239,
      "rit": 5240,
      "à®°à®Łà®Ł": 5241,
      "à®°à®¨à®¤à®°": 5242,
      "à®¯à®´à®ªà®ªà®£": 5243,
      "Ġà®®à®ķà®ļà®ļ": 5244,
      "Ġà®µà®ķà®ªà®ªà®Łà®Ł": 5245,
      "Ġà®ħà®ķà®©": 5246,
      "Ġà®¨à®µà®°": 5247,
      "Ġà®īà®ªà®ķà®°": 5248,
      "Ġà®ªà®°à®µà®³": 5249,
      "à®¤à®²à®ķà®³": 5250,
      "à®ķà®¤à®¤à®¤": 5251,
      "Ġà®¤à®°à®®à®²": 5252,
      "à®¤à®°à®©": 5253,
      "Ġà®ªà®±à®ķà®³": 5254,
      "à®ķà®¯à®¯à®²": 5255,
      "ras": 5256,
      "Ġà®ªà®¤à®ķà®ªà®ªà®©": 5257,
      "ated": 5258,
      "à®µà®²à®©": 5259,
      "Ġà®°à®ª": 5260,
      "Ġà®Łà®ķ": 5261,
      "à®ķà®ķà®©à®²": 5262,
      "ĠMan": 5263,
      "Ġà®ĩà®²à®Ļà®ķà®¤": 5264,
      "à®ķà®Łà®¯": 5265,
      "Ġà®¤à®®à®´à®ļ": 5266,
      "Ġà®İà®©à®ªà®¤à®¯à®®": 5267,
      "Ġà®ªà®ķà®¤à®ķà®³à®²à®®": 5268,
      "Ġà®¹à®ª": 5269,
      "à®ķà®£à®®à®²": 5270,
      "Ġ48": 5271,
      "Ġà®ħà®´à®ķà®ķ": 5272,
      "à®ªà®µà®´": 5273,
      "Ġà®Īà®Łà®Ł": 5274,
      "Ġà®ªà®´à®Ļà®ķà®²": 5275,
      "Ġà®®à®£à®ķà®ķ": 5276,
      "Ġà®İà®£à®£à®ķà®ķà®¯à®²": 5277,
      "Ġà®ķà®Łà®®à®ªà®Ļà®ķà®³": 5278,
      "Ġ2012": 5279,
      "Ġ2015": 5280,
      "Ġà®¤à®Ļà®ķà®³à®Łà®¯": 5281,
      "1988": 5282,
      "Ġà®¤à®¨à®¤à®¯à®°": 5283,
      "Ġà®ļà®ķà®°à®ªà®ªà®©": 5284,
      "à®ļà®¯à®¤à®¯à®¯à®²": 5285,
      "Ġà®®à®ķà®´à®¨à®¤": 5286,
      "Ġà®¤à®Łà®Ļà®ķà®ªà®ªà®Łà®Łà®¤": 5287,
      "Ġà®ªà®°à®®à®ªà®©à®®à®¯à®©": 5288,
      "ĠArch": 5289,
      "rans": 5290,
      "à®ķà®°à®·à®£à®©": 5291,
      "03": 5292,
      "06": 5293,
      "46": 5294,
      "OR": 5295,
      "à®®à®¤à®¤à®¯": 5296,
      "Ġà®µà®ķà®ķà®ªà®ªà®Ł": 5297,
      "Ġà®¤à®ķà®³": 5298,
      "Ġà®¤à®µà®¤à®®": 5299,
      "à®£à®°": 5300,
      "à®£à®¯à®®": 5301,
      "Ġà®Ĵà®ªà®ªà®¤à®²": 5302,
      "Ġà®®à®±à®±à®ªà®ªà®Łà®Łà®¤": 5303,
      "à®µà®¤à®®à®©": 5304,
      "Ġà®ªà®²à®¯à®²": 5305,
      "Ġà®°à®ļà®ļà®°à®Ł": 5306,
      "Ġà®ļà®®à®ª": 5307,
      "à®ŀà®ļà®®": 5308,
      "Ġà®¤à®°à®ªà®ªà®Łà®¤à®¤": 5309,
      "Ġà®ħà®©à®¤à®¤à®¯à®®": 5310,
      "Ġà®ªà®¯à®©à®ªà®Łà®¤à®¤à®ķà®©à®±à®©": 5311,
      "Ġà®¤à®´à®²à®®": 5312,
      "Ġà®ªà®Ļà®ķà®ķà®³": 5313,
      "Ġà®¤à®°à®®à®ªà®¯": 5314,
      "Ġà®ķà®°à®¤à®ªà®ªà®Ł": 5315,
      "Ġà®ªà®°à®¤à®¨à®¤": 5316,
      "Ġà®ļà®Ļà®ķà®Łà®Ł": 5317,
      "à®ĩà®²à®Ļà®ķà®¤": 5318,
      "à®ªà®ļà®®": 5319,
      "Ġà®Ĩà®ķà®¯à®µà®±à®±à®ķ": 5320,
      "à®ªà®£à®Łà®¯": 5321,
      "à®¤à®®à®´à®¤": 5322,
      "Ġà®ķà®°à®®à®¤à®¤à®²": 5323,
      "Ġ2013": 5324,
      "Ġà®ªà®®à®¯à®²": 5325,
      "à¤¤": 5326,
      "Ġ1944": 5327,
      "Ġà®®à®¤à®®à®³à®³": 5328,
      "Ġà®ªà®ļà®ļà®µà®°à®¤à®¤": 5329,
      "Ġà®Ĩà®³à®¨à®°": 5330,
      "Ġà®ķà®Łà®¤à®²à®©": 5331,
      "Ġà®ķà®ªà®ªà®²à®ķà®³": 5332,
      "à®ĩà®µà®°à®¤": 5333,
      "Ġà®īà®°à®ļà®¯": 5334,
      "ach": 5335,
      "ood": 5336,
      "ua": 5337,
      "Ġ!": 5338,
      "Ġ75": 5339,
      "à®¤à®¯à®©": 5340,
      "à®µà®ļà®²": 5341,
      "Ġà®®à®ļà®°": 5342,
      "à®¤à®¤à®ķà®³": 5343,
      "Ġà®¤à®£à®Łà®®": 5344,
      "Ġà®¨à®®à®®": 5345,
      "Ġà®Ĩà®³à®®": 5346,
      "à®¯à®²à®°": 5347,
      "Ġà®İà®©à®²à®®": 5348,
      "à®ķà®¤à®¯": 5349,
      "Ġà®µà®°à®¯à®²à®®": 5350,
      "à®¯à®°à®¨à®¤à®¤": 5351,
      "à®¯à®°à®ķà®³à®ķà®ķ": 5352,
      "Ġà®ķà®²à®¯": 5353,
      "Ġà®ªà®©à®¯": 5354,
      "Ġà®ªà®¤à®ķà®ķà®®": 5355,
      "log": 5356,
      "Ġà®®à®±à®¯à®®": 5357,
      "Ġà®°à®£à®µ": 5358,
      "Ġà®ķà®£à®Łà®²": 5359,
      "Ġà®¨à®°à®ķ": 5360,
      "Ġà®¨à®°à®ªà®ª": 5361,
      "Ġà®¨à®°à®ķà®°": 5362,
      "Ġà®¨à®²à®¯à®ķ": 5363,
      "Ġà®ªà®£à®ķà®³à®©": 5364,
      "Ġà®ļà®®à®ķà®®": 5365,
      "Ġà®ĩà®²à®ķà®ķ": 5366,
      "à®ªà®Łà®Łà®¯à®²": 5367,
      "Ġà®¤à®²à®Ļà®ķà®³": 5368,
      "Ġà®¤à®±à®ķà®³": 5369,
      "Ġà®¸à®ķà®Ł": 5370,
      "Ġ85": 5371,
      "Ġà®ĩà®ļà®ķà®ķà®²": 5372,
      "Ġà®ļà®©à®µ": 5373,
      "à®³à®°à®ķà®³à®©": 5374,
      "Ġà®µà®¤à®Ł": 5375,
      "Ġà®®à®Łà®Łà®®à®©à®±": 5376,
      "Ġà®ħà®Łà®ªà®ªà®Łà®¯à®ķ": 5377,
      "Ġà®ªà®°à®¨à®¤à®ķà®³": 5378,
      "Ġà®µà®³à®¯à®Łà®©à®°": 5379,
      "Ġà®¨à®Łà®ķà®³à®²à®®": 5380,
      "Ġà®Ĩà®Łà®ļà®¯à®²": 5381,
      "1997": 5382,
      "Ġ1948": 5383,
      "à®ļà®Łà®Łà®®à®©à®±à®¤": 5384,
      "Ġà®ªà®ŀà®ļà®ª": 5385,
      "à®ķà®ķà®ķà®ķà®Łà®®": 5386,
      "Ġà®¸à®Łà®Łà®¯": 5387,
      "Ġà®īà®¤à®µà®¯à®Łà®©": 5388,
      "anguage": 5389,
      "91": 5390,
      "Ch": 5391,
      "if": 5392,
      "right": 5393,
      "à®ļà®µà®°": 5394,
      "Ġà®¤à®ķà®ªà®ªà®²": 5395,
      "Ġà®ħà®®à®©": 5396,
      "Ġà®ļà®ªà®¯à®©": 5397,
      "Ġà®İà®ļà®ļà®°": 5398,
      "Ġà®ªà®ķà®ķà®°": 5399,
      "Ġà®ĩà®°à®®à®©": 5400,
      "à®¸à®µà®°à®°": 5401,
      "à®ªà®Łà®¯à®©": 5402,
      "à®ªà®Łà®¯à®ķ": 5403,
      "Ġà®ķà®°à®¯à®°": 5404,
      "Ġà®ķà®°à®¤à®¤à®ķ": 5405,
      "Ġà®ķà®±à®±à®©": 5406,
      "Ġà®ķà®Łà®¤à®¤à®²": 5407,
      "Ġà®¨à®Łà®µà®£": 5408,
      "Ġà®¨à®Łà®µà®°à®ķ": 5409,
      "Ġà®®à®©à®¯à®²": 5410,
      "Ġà®ħà®¤à®±à®ķà®ª": 5411,
      "Ġà®Łà®¯": 5412,
      "ens": 5413,
      "Ġà®ªà®£à®Łà®°": 5414,
      "Ġà®¤à®Łà®ļ": 5415,
      "Ġà®®à®²à®¤à®©": 5416,
      "Ġà®®à®°à®ļà®ļ": 5417,
      "à®ļà®°à®¸": 5418,
      "Ġà®²à®Ļà®ķà®©": 5419,
      "Ġà®ªà®±à®±à®ķà®ķà®±": 5420,
      "Ġà®®à®´à®ķà®ķà®©": 5421,
      "Ġà®®à®´à®ķà®³à®ķà®ķà®©": 5422,
      "Ġà®¯à®ļ": 5423,
      "à®İà®´": 5424,
      "Ġà®ħà®°à®ļà®°à®ķà®³": 5425,
      "Ġà®ħà®°à®ļà®Ļà®ķ": 5426,
      "à®ļà®®à®¯à®®": 5427,
      "Ġà®ħà®°à®¤à®¤": 5428,
      "à®ªà®µà®®": 5429,
      "Ġà®¸à®Łà®²": 5430,
      "Ġà®ħà®®à®°à®ķà®ķà®°à®ķà®³": 5431,
      "Ġà®¤à®´à®±à®ļ": 5432,
      "à®®à®°à®¤à®¤à®µ": 5433,
      "à®ķà®Ļà®ķà®³à®®": 5434,
      "Ġà®®à®Łà®Łà®¤à®¤à®²": 5435,
      "Ġà®ªà®µà®²": 5436,
      "à®¨à®¯à®ķà®ķ": 5437,
      "Ġà®ĩà®©à®±à®¯à®®": 5438,
      "à®ıà®ªà®°à®²": 5439,
      "1999": 5440,
      "Ġà®ªà®¯à®£à®¤à®¤": 5441,
      "ĠUn": 5442,
      "Ġà®Ĩà®ķà®¯à®°à®Łà®©": 5443,
      "Ġà®¤à®ķà®ķà®¤à®²à®ķà®³": 5444,
      "Ġà®µà®³à®®à®£à®Łà®²": 5445,
      "Ġà®İà®´à®¤à®¯à®³à®³à®°": 5446,
      "à®ªà®¨à®¤à®©": 5447,
      "Ġà®ªà®°à®®à®ªà®©à®®": 5448,
      "Ġà®ªà®°à®ªà®ªà®³à®µ": 5449,
      "Ġà®°à®©à®²à®Łà®©": 5450,
      "Ġà®ªà®ŀà®ļà®®à®®": 5451,
      "Ġà®®à®°à®¤à®¤à®¯à®ª": 5452,
      "text": 5453,
      ")(": 5454,
      "RE": 5455,
      "oc": 5456,
      "à®®à®ªà®¤": 5457,
      "Ġà®®à®®à®®": 5458,
      "à®ļà®©à®®": 5459,
      "à®³à®ķ": 5460,
      "Ġà®¤à®®à®ª": 5461,
      "Ġà®ħà®ķà®ķà®²à®¤à®¤à®²": 5462,
      "Ġà®¨à®ªà®£": 5463,
      "Ġà®Ĩà®ªà®°": 5464,
      "Ġà®Ĩà®Łà®®": 5465,
      "à®ªà®ªà®¤à®²à®²": 5466,
      "Ġà®ªà®ķà®²": 5467,
      "Ġà®ªà®ķà®ķà®¤à®¤à®²": 5468,
      "Ġà®¤à®°à®¯à®¤": 5469,
      "Ġà®¤à®°à®¯à®µà®²à®²": 5470,
      "Ġà®ķà®£à®¤": 5471,
      "à®ªà®Łà®ļ": 5472,
      "à®ªà®°à®¤à®¤à®©": 5473,
      "à®ķà®ķà®®à®ªà®¤": 5474,
      "Ġà®ķà®Łà®ªà®ªà®¤": 5475,
      "à®ªà®ªà®Łà®Łà®²": 5476,
      "Ġà®Ĵà®°à®®à®±": 5477,
      "Ġà®®à®©à®¨à®²": 5478,
      "Ġà®®à®©à®ªà®ķ": 5479,
      "Ġà®ªà®¤à®ķ": 5480,
      "Ġà®ªà®¯à®©à®°à®ķà®³": 5481,
      "Ġà®ĩà®¤à®µà®®": 5482,
      "Ġà®ĩà®¤à®ªà®©à®±": 5483,
      "Ġà®µà®Łà®®à®´": 5484,
      "à®ķà®ķà®©à®©": 5485,
      "à®£à®®à®°à®¤à®¤": 5486,
      "Ġà®®à®²à®¯à®²": 5487,
      "Ġà®®à®¤à®²à®ķ": 5488,
      "à®ªà®©à®²": 5489,
      "Ġà®¨à®±à®®à®²": 5490,
      "à®ķà®ķà®°à®°à®ķà®³": 5491,
      "Ġà®®à®¤à®Ļà®ķà®³à®²": 5492,
      "Ġ38": 5493,
      "Ġà®ĩà®µà®°à®ķà®³à®©": 5494,
      "Ġà®ħà®³à®¤à®¤à®¤": 5495,
      "Ġà®ķà®¤à®°à®ķà®³": 5496,
      "Ġà®ªà®¯à®©à®ªà®Łà®¤à®¤à®µà®¤": 5497,
      "Ġà®Ĭà®±à®±": 5498,
      "Ġà®ĩà®©à®¤à®¤": 5499,
      "à®īà®Łà®²": 5500,
      "à®ķà®¤à®¤à®²à®®": 5501,
      "Ġà®İà®Łà®¤à®¤à®ļ": 5502,
      "lack": 5503,
      "Ġà®®à®©à®©à®Łà®Łà®®": 5504,
      "Ġà®®à®©à®©à®±à®±à®®": 5505,
      "Ġà®®à®Łà®Łà®°à®ķà®³": 5506,
      "Ġà®¤à®ķà®¤à®ķà®ķà®®": 5507,
      "Ġà®¤à®Łà®Łà®¤à®¤": 5508,
      "Ġà®µà®£à®Łà®®à®©": 5509,
      "Ġà®¨à®®à®¤": 5510,
      "ĠEx": 5511,
      "à®ķà®¨à®¤à®©": 5512,
      "1987": 5513,
      "Ġà®ħà®ļà®ļà®±": 5514,
      "Ġà®Ĳà®¨à®¤à®µà®¤": 5515,
      "Ġà®īà®±à®¤à®ªà®ªà®Łà®¤à®¤": 5516,
      "Ġà®µà®´à®Ļà®ķà®ªà®ªà®Łà®µà®²à®²": 5517,
      "à®ķà®ķà®ªà®Łà®Ł": 5518,
      "Ġà®ħà®¤à®¤à®ķà®¯": 5519,
      "Ġà®¤à®Łà®°à®ļà®ļà®¯à®©": 5520,
      "Ġà®ŀà®©": 5521,
      "ĠYork": 5522,
      "Ġà®ļà®ªà®ªà®°à®®à®£": 5523,
      "Ġà®¤à®²à®µà®¯à®Ł": 5524,
      "37": 5525,
      "CC": 5526,
      "http": 5527,
      "iz": 5528,
      "rid": 5529,
      "à®¤à®ªà®¤": 5530,
      "Ġà®®à®ķà®¨à®¤à®°": 5531,
      "Ġà®¤à®µà®®": 5532,
      "à®¨à®µ": 5533,
      "Ġà®Ĩà®ªà®¤à®¤": 5534,
      "à®´à®¤à®¤à®®": 5535,
      "à®±à®±à®°": 5536,
      "Ġà®ªà®°à®¯à®¤": 5537,
      "à®ķà®°à®²": 5538,
      "Ġà®µà®°à®¤à®©": 5539,
      "Ġà®ªà®±à®°": 5540,
      "Ġà®ķà®±à®ªà®ªà®Łà®Łà®¤": 5541,
      "Ġà®ķà®Łà®©à®®": 5542,
      "Ġà®µà®³à®¯à®®": 5543,
      "Ġà®µà®³à®°à®ļ": 5544,
      "Ġà®ªà®²à®¸": 5545,
      "Ġà®ļà®°à®ľ": 5546,
      "Ġà®ªà®Łà®²à®©": 5547,
      "à®ĩà®¤à®²": 5548,
      "Ġà®Łà®ķà®°": 5549,
      "à®ļà®¯à®ļ": 5550,
      "Ġà®®à®°à®¯à®¤": 5551,
      "à®µà®ķà®³à®®": 5552,
      "ond": 5553,
      "à®ķà®ķà®µà®¯à®²": 5554,
      "à®¨à®²à®ķà®³": 5555,
      "Ġà®İà®©à®ªà®¤à®±à®ķ": 5556,
      "Ġà®īà®¯à®°à®ķà®³": 5557,
      "Ġà®¹à®¸": 5558,
      "Ġà®Ĩà®°à®µà®²": 5559,
      "Ġà®ħà®´à®¨à®¤": 5560,
      "Ġà®ħà®©à®®à®©": 5561,
      "Ġà®Ĵà®©à®±à®ķà®ķ": 5562,
      "Ġà®¨à®ķà®°à®Ļà®ķà®³à®²": 5563,
      "Ġà®īà®Łà®²à®©": 5564,
      "ĠII": 5565,
      "Ġà®ªà®°à®³à®ªà®Łà®®": 5566,
      "ĠWhite": 5567,
      "Ġà®µà®©à®¯": 5568,
      "Ġà®ħà®¤à®ķà®°à®®": 5569,
      "2016": 5570,
      "Ġà®ļà®Ļà®ķà®¸": 5571,
      "Ġ1988": 5572,
      "Ġà®ķà®ķà®²": 5573,
      "Ġà®ķà®±à®ªà®ªà®Łà®Łà®³à®³à®°": 5574,
      "ĠLe": 5575,
      "Ġà®Ĩà®±à®ķà®³": 5576,
      "Ġà®¨à®£à®ļà®¯à®²": 5577,
      "ĠOn": 5578,
      "1974": 5579,
      "Ġà®ĩà®µà®±à®±à®³": 5580,
      "Ġà®īà®Łà®²à®¨à®²": 5581,
      "Ġà®īà®±à®ªà®¤à®¤à®¯à®²": 5582,
      "1967": 5583,
      "Ġà®®à®ķà®®à®¤": 5584,
      "Ġà®¤à®ķà®µà®²à®¤à®Łà®°à®ª": 5585,
      "Ġà®Ĵà®´à®Ļà®ķà®®": 5586,
      "Ġà®ķà®±à®¸à®¤à®®à®¸": 5587,
      "Ġà®ļà®±à®¤à®³à®µ": 5588,
      "Ġà®ĵà®µà®¯à®Ļà®ķà®³": 5589,
      "Ġà®ħà®±à®®à®ķà®ªà®ªà®Łà®¤à®¤à®ªà®ªà®Łà®Łà®¤": 5590,
      "Ġà®īà®±à®Ļà®ķà®¨à®²": 5591,
      "02": 5592,
      "31": 5593,
      "ĉĉ": 5594,
      "Ġ;": 5595,
      "à®¯à®Łà®¯": 5596,
      "à®µà®£à®£": 5597,
      "Ġà®®à®¸à®Łà®°": 5598,
      "Ġà®ĩà®ķà®ķà®°": 5599,
      "Ġà®ĩà®©à®©": 5600,
      "Ġà®¤à®®à®ķ": 5601,
      "à®¨à®¤à®¤à®©": 5602,
      "à®¨à®°à®²": 5603,
      "Ġà®ħà®ŀà®ļ": 5604,
      "Ġà®īà®¨à®¤": 5605,
      "Ġà®ªà®°à®ķà®ķà®²à®®": 5606,
      "Ġà®µà®°à®¸": 5607,
      "Ġà®ķà®°à®¤à®©à®°": 5608,
      "à®¯à®°à®¸": 5609,
      "Ġà®ªà®±à®ªà®ķà®¤à®¯à®²": 5610,
      "à®ªà®ªà®Łà®Łà®¯à®²": 5611,
      "Ġà®ķà®²à®ªà®¨à®¤": 5612,
      "Ġà®ªà®²à®¨à®¤": 5613,
      "Ġà®ħà®¤à®±à®ķà®©": 5614,
      "Ġà®Łà®©à®©": 5615,
      "Ġà®ĩà®¤à®ª": 5616,
      "à®ķà®ķà®¯à®ķ": 5617,
      "Ġà®ļà®¯à®ķà®©à®±à®©": 5618,
      "Ġà®ļà®®à®ķà®¤à®¤à®©": 5619,
      "à®°à®¨à®¤à®®": 5620,
      "Ġà®¤à®²à®ªà®ªà®²": 5621,
      "à®ķà®ķà®ķà®²": 5622,
      "Ġà®ļà®±à®¯à®²": 5623,
      "à®ķà®ķà®°à®°": 5624,
      "Ġà®¤à®®à®´à®±": 5625,
      "Ġà®®à®´à®¯": 5626,
      "Ġà®İà®©à®ªà®¤à®®": 5627,
      "Ġà®ħà®°à®ļà®¯à®²à®®": 5628,
      "Ġà®ħà®°à®ķà®®": 5629,
      "Ġà®ħà®°à®¯à®£": 5630,
      "Ġ41": 5631,
      "Ġà®īà®°à®µà®ķà®ķà®ķà®±à®¤": 5632,
      "idth": 5633,
      "Ġà®¨à®Łà®¤à®¤à®³à®³": 5634,
      "Ġà®ķà®£à®Łà®°à®¨à®¤à®©": 5635,
      "ĠHistory": 5636,
      "à®¹à®©": 5637,
      "à®ªà®ªà®±à®®": 5638,
      "Ġà®®à®©à®©à®ŀà®ļà®²": 5639,
      "Ġà®µà®¤à®®à®©": 5640,
      "Ġà®¤à®³à®Ļà®ķà®³": 5641,
      "Ġà®ĩà®¨à®¨à®ķà®´": 5642,
      "à®ķà®ķà®ªà®ªà®Łà®Łà®°à®¨à®¤à®¤": 5643,
      "Ġà®ħà®£à®Łà®µà®¯à®²": 5644,
      "1992": 5645,
      "Ġà®ªà®©à®±à®µà®±à®±à®²": 5646,
      "Ġ1940": 5647,
      "à®ķà®ķà®£à®Łà®¤": 5648,
      "Ġà®®à®¤à®²à®®à®ļà®ļà®°": 5649,
      "Ġà®ĩà®°à®ļà®ļà®¯à®¤à®¤à®©": 5650,
      "à®ķà®·à®©": 5651,
      "à®ªà®Ļà®ķ": 5652,
      "Ġà®ħà®ªà®¤à®²": 5653,
      "Ġà®ĩà®µà®µà®±à®©": 5654,
      "Ġà®¨à®Łà®®à®±à®¯à®²": 5655,
      "ĠMong": 5656,
      "Ġà®ħà®Ļà®ķà®°à®¨à®¤": 5657,
      "Ġà®ħà®¯à®°à®²à®¨à®¤": 5658,
      ")-": 5659,
      "CH": 5660,
      "ST": 5661,
      "Th": 5662,
      "col": 5663,
      "lan": 5664,
      "sti": 5665,
      "à®Łà®ķà®ķà®®": 5666,
      "à®®à®Ļà®ķà®²": 5667,
      "à®±à®ķà®¤": 5668,
      "à®µà®¯à®¤": 5669,
      "Ġà®®à®ķà®Ł": 5670,
      "Ġà®®à®®à®ª": 5671,
      "Ġà®®à®ļà®©": 5672,
      "à®³à®ķà®ķ": 5673,
      "Ġà®µà®ķà®ķà®²": 5674,
      "Ġà®ħà®Ļà®ķà®²": 5675,
      "Ġà®ļà®ŀà®ļà®¯": 5676,
      "Ġà®ªà®°à®¯à®°": 5677,
      "Ġà®Ĵà®²à®¯": 5678,
      "Ġà®ĩà®°à®ªà®ªà®°": 5679,
      "Ġà®ķà®°à®¤à®¤à®©": 5680,
      "à®¯à®°à®¨à®¤à®°": 5681,
      "Ġà®ªà®±à®ķà®²à®¤à®¤à®²": 5682,
      "Ġà®ªà®¤à®µà®ķà®ķ": 5683,
      "Ġà®ļà®°à®ªà®ķ": 5684,
      "à®ĩà®¯à®±": 5685,
      "Ġà®®à®±à®¯à®Ł": 5686,
      "Ġà®¨à®°à®Łà®¯": 5687,
      "Ġà®Ĩà®£à®Łà®ķà®ķ": 5688,
      "ten": 5689,
      "Ġà®µà®Łà®ķà®³": 5690,
      "Ġà®ļà®¯à®¯à®¤": 5691,
      "Ġà®ļà®¯à®±à®ķ": 5692,
      "à®ķà®ķà®ªà®ªà®Łà®Łà®©à®°": 5693,
      "Ġà®ķà®³à®ª": 5694,
      "à®µà®³à®¯à®²": 5695,
      "à®ķà®ķà®°à®©": 5696,
      "Ġà®®à®¤à®±": 5697,
      "Ġà®®à®¤à®®à®©": 5698,
      "Ġà®®à®´à®¯à®ķ": 5699,
      "tive": 5700,
      "Ġà®¤à®Łà®°à®ªà®²": 5701,
      "Ġà®ªà®ķà®¤à®°": 5702,
      "Ġà®ĩà®Łà®¤à®¤à®¯à®®": 5703,
      "Ġà®Ĩà®°à®µ": 5704,
      "à®µà®±à®ķà®©": 5705,
      "Ġà®ħà®®à®°à®ķà®ķà®ķ": 5706,
      "Ġà®ļà®¯à®²à®´": 5707,
      "Ġà®ķà®¯à®©": 5708,
      "Ġà®ļà®©à®µà®©": 5709,
      "ĠIAS": 5710,
      "Ġà®µà®±à®ªà®Łà®¤à®¤": 5711,
      "Ġà®ªà®°à®³à®¯à®²": 5712,
      "à®ĥà®ªà®¯": 5713,
      "ĠRes": 5714,
      "à®ªà®³à®¯": 5715,
      "2012": 5716,
      "Ġà®ļà®¤à®±": 5717,
      "Ġà®ļà®²à®²à®²": 5718,
      "Ġà®ļà®¤à®©à®ķà®³": 5719,
      "Ġà®ķà®²à®®à®©à®°": 5720,
      "Ġà®·à®ķà®ķà®°": 5721,
      "Ġà®īà®³à®µ": 5722,
      "Ġà®Ĩà®°à®®à®ªà®¤à®¤": 5723,
      "Ġà®ªà®¯à®©à®ªà®Łà®ķà®©à®±à®¤": 5724,
      "ust": 5725,
      "1989": 5726,
      "1995": 5727,
      "1960": 5728,
      "Ġà®µà®®à®©à®®": 5729,
      "Ġà®ķà®£à®Łà®ªà®Łà®¤à®¤à®°": 5730,
      "Ġà®ķà®£à®Łà®ªà®Łà®ªà®ªà®ķà®³": 5731,
      "à®ĵà®°": 5732,
      "Ġà®µà®µà®°à®Ļà®ķà®³": 5733,
      "Ġà®¤à®ķà®ªà®ªà®ķà®³": 5734,
      "Ġà®ħà®°à®ķà®²à®³à®³": 5735,
      "à®Īà®´à®¤à®¤": 5736,
      "Ġà®ħà®±à®®à®ķà®®à®©à®°": 5737,
      "Ġà®ĩà®ļà®²à®®à®¯": 5738,
      "Ġà®ħà®£à®®à®¯à®²": 5739,
      "Ġà®Ĩà®¤à®¤à®°à®²à®¯": 5740,
      "Ġà®ªà®¯à®©à®±à®°": 5741,
      "Ġà®ķà®ªà®ªà®°à®®": 5742,
      "ohn": 5743,
      "ĠMongol": 5744,
      "min": 5745,
      "uk": 5746,
      "ãĢ": 5747,
      "à®Łà®¯à®²": 5748,
      "à®³à®ķà®ķà®®": 5749,
      "Ġà®µà®µà®²": 5750,
      "Ġà®¤à®ķà®°": 5751,
      "Ġà®ļà®ªà®°": 5752,
      "Ġà®ļà®¤à®¤à®®": 5753,
      "Ġà®¨à®ªà®¨à®¤à®©": 5754,
      "Ġà®İà®¤à®¤à®©": 5755,
      "Ġà®īà®ªà®ª": 5756,
      "Ġà®ªà®ķà®ªà®Ł": 5757,
      "Ġà®Ĵà®²à®®": 5758,
      "Ġà®ĩà®°à®¤à®¤à®²": 5759,
      "Ġà®ĩà®°à®¨à®¤à®¤à®²": 5760,
      "Ġà®ķà®°à®ķ": 5761,
      "Ġà®ķà®Łà®ªà®Łà®ķà®³": 5762,
      "à®ķà®±à®®": 5763,
      "Ġà®µà®³à®ķà®ķà®Ļà®ķà®³": 5764,
      "Ġà®ªà®¤à®ª": 5765,
      "Ġà®ļà®°à®³": 5766,
      "Ġà®ĩà®¨à®¤à®©à®ļà®¯": 5767,
      "Ġà®®à®±à®®à®²": 5768,
      "Ġà®ħà®¤à®ķà®³": 5769,
      "Ġà®¨à®²à®ķà®°": 5770,
      "Ġà®ļà®¯à®µà®¤à®²": 5771,
      "Ġà®ĩà®²à®µà®ļ": 5772,
      "Ġà®īà®°à®®à®©à®¯": 5773,
      "à®ķà®Łà®ķ": 5774,
      "Ġà®¤à®²à®ķà®ªà®ªà®¯": 5775,
      "à®ħà®µ": 5776,
      "à®ħà®¨à®¤": 5777,
      "Ġà®®à®°à®Ļà®ķà®³": 5778,
      "ser": 5779,
      "Ġà®µà®²à®¯à®²": 5780,
      "Ġà®µà®²à®¤à®¤à®³": 5781,
      "à®Ĩà®©à®²": 5782,
      "Ġà®ĩà®¯à®ķà®ķà®¤à®¤": 5783,
      "Ġ34": 5784,
      "à®µà®Łà®¤à®²": 5785,
      "Ġà®īà®Łà®ªà®±": 5786,
      "Ġ59": 5787,
      "Ġà®ªà®¯à®°à®®": 5788,
      "Ġà®¤à®°à®µà®ª": 5789,
      "Ġco": 5790,
      "Ġà®ªà®´à®©": 5791,
      "à®ĩà®¨à®¤à®ķ": 5792,
      "Ġà®ļà®Łà®Łà®Ļà®ķà®³": 5793,
      "Ġà®¤à®µà®°à®®à®©": 5794,
      "Ġà®ªà®µà®©": 5795,
      "1981": 5796,
      "1993": 5797,
      "Ġà®ıà®±à®ªà®Łà®¤à®¤à®¯à®¤": 5798,
      "1972": 5799,
      "1976": 5800,
      "1978": 5801,
      "1979": 5802,
      "Ġà®ķà®Łà®®à®ªà®¤à®¤à®©à®°": 5803,
      "Ġà®ªà®ķà®ķà®µà®°": 5804,
      "Ġà®¨à®ķà®´à®µà®ķà®³à®²": 5805,
      "Ġà®Ĵà®¤à®ķà®ķà®¯à®³à®³à®¤": 5806,
      "Ġà®¨à®¤à®®à®©à®±à®®": 5807,
      "ternational": 5808,
      "ãĢĢ": 5809,
      "RI": 5810,
      "rip": 5811,
      "ung": 5812,
      "Î±": 5813,
      "à®¤à®Łà®Ł": 5814,
      "Ġà®ĩà®ķà®ķà®´": 5815,
      "à®¨à®£": 5816,
      "à®¨à®²à®²à®°": 5817,
      "Ġà®¨à®¯à®¤": 5818,
      "Ġà®İà®Łà®¯": 5819,
      "à®±à®±à®ķ": 5820,
      "à®µà®°à®¤à®ķà®³": 5821,
      "Ġà®ªà®ķà®ķà®³": 5822,
      "Ġà®ªà®¤à®¤à®©": 5823,
      "à®ļà®ļà®¯à®²": 5824,
      "à®ļà®ļà®¨à®¤à®°": 5825,
      "à®ķà®ķà®³à®ªà®ª": 5826,
      "Ġà®ªà®²à®¤à®¤": 5827,
      "Ġà®ªà®²à®ķ": 5828,
      "Ġà®ªà®²à®ľ": 5829,
      "Ġà®ħà®®à®µà®Łà®®": 5830,
      "Ġà®ªà®Łà®¯à®©à®°": 5831,
      "Ġà®µà®´à®ķà®©à®±à®©à®°": 5832,
      "Ġà®ıà®¤à®©à®®": 5833,
      "à®¨à®¤à®°à®¨à®¤": 5834,
      "Ġà®µà®Łà®ªà®³": 5835,
      "Ġà®ļà®¯à®¤à®¤à®¤": 5836,
      "à®ķà®ķà®ªà®ªà®Łà®Łà®³à®³": 5837,
      "Ġà®ķà®´à®ªà®ª": 5838,
      "Ġà®ķà®³à®±": 5839,
      "Ġà®ªà®£à®ªà®ª": 5840,
      "ĠAmeric": 5841,
      "Ġà®®à®¤à®²à®¯à®°": 5842,
      "à®µà®³à®®": 5843,
      "Ġà®ªà®Łà®Łà®¤à®¤": 5844,
      "Ġà®²à®®": 5845,
      "Ġà®®à®´à®ķà®ķà®±": 5846,
      "Ġà®īà®¯à®°à®µ": 5847,
      "à®©à®©à®©": 5848,
      "Ġà®ħà®³à®µà®ķ": 5849,
      "Ġà®¤à®°à®ªà®ªà®Łà®¤": 5850,
      "à®·à®®": 5851,
      "à®ªà®±à®ªà®ªà®ķà®³": 5852,
      "Ġà®¹à®Ļ": 5853,
      "Ġ42": 5854,
      "à®ªà®ªà®Łà®®à®ªà®¤": 5855,
      "Ġà®ħà®®à®°à®ķà®ķà®©": 5856,
      "Ġà®®à®ķà®ķà®³à®Łà®¯": 5857,
      "à®ķà®¤à®¤à®Łà®©": 5858,
      "Ġà®ħà®¤à®©à®Łà®¯": 5859,
      "Ġà®µà®£à®ķà®²": 5860,
      "Ġà®ĥà®ª": 5861,
      "à®ĩà®¨à®¤à®¯à®ª": 5862,
      "Ġà®ļà®°à®¨à®¤à®µà®°": 5863,
      "Ġà®µà®©à®ªà®°à®³": 5864,
      "Ġ600": 5865,
      "à®ļà®ļà®°à®µ": 5866,
      "Ġà®µà®³à®¯à®Łà®Łà®©": 5867,
      "Ġà®µà®´à®Ļà®ķà®µà®¤": 5868,
      "Ġà®ķà®°à®¤à®¤à®ķà®³": 5869,
      "Ġà®Ĩà®°à®®à®ªà®¤à®¤à®°": 5870,
      "Ġà®ħà®£à®Łà®¤à®¤à®©": 5871,
      "Ġà®µà®©à®±à®¤": 5872,
      "Ġà®Īà®°à®ªà®ª": 5873,
      "apote": 5874,
      "Ġà®¨à®¯à®³à®ķà®³": 5875,
      "Ġà®ķà®Łà®Łà®ªà®ªà®Łà®ķà®³": 5876,
      "ĠZapote": 5877,
      "Ġà®Ĵà®Łà®Łà®®à®¤à®¤": 5878,
      "ĠZapotec": 5879,
      "ey": 5880,
      "land": 5881,
      "line": 5882,
      "po": 5883,
      "ple": 5884,
      "à®®à®±à®ķ": 5885,
      "à®ļà®ķà®ķà®°": 5886,
      "à®ļà®ªà®Łà®®à®ªà®°": 5887,
      "à®ļà®µà®°à®°": 5888,
      "Ġà®ħà®¯": 5889,
      "Ġà®ħà®¯à®²": 5890,
      "Ġà®ħà®ªà®°": 5891,
      "Ġà®ħà®ķà®´": 5892,
      "Ġà®ħà®£à®Łà®®": 5893,
      "Ġà®ļà®ķà®ķ": 5894,
      "Ġà®¨à®ľ": 5895,
      "Ġà®ĩà®°à®µà®²": 5896,
      "à®ķà®®à®²": 5897,
      "Ġà®¤à®°à®©": 5898,
      "à®ªà®Łà®©à®©": 5899,
      "à®¯à®°à®ķà®³à®²": 5900,
      "à®¤à®°à®ªà®ªà®Ł": 5901,
      "à®µà®¤à®ķà®®": 5902,
      "Ġà®ķà®²à®ļà®¯à®®": 5903,
      "Ġà®®à®©à®ļà®¸à®Łà®°": 5904,
      "Ġà®µà®³à®Ļà®ķà®³": 5905,
      "Ġà®ĩà®¨à®¤à®ķà®ķà®³": 5906,
      "Ġà®µà®´à®ķà®ķà®¯à®²": 5907,
      "Ġà®ķà®Łà®Łà®ķà®³": 5908,
      "Ġ1920": 5909,
      "Ġà®¨à®°à®ķà®£": 5910,
      "Ġà®ļà®²à®ķà®³": 5911,
      "à®Łà®®à®ķ": 5912,
      "à®ªà®Łà®Łà®²": 5913,
      "Ġà®µà®²à®Ļà®ķ": 5914,
      "à®Ĩà®©": 5915,
      "à®µà®³à®°à®ļà®ļ": 5916,
      "Ġà®ªà®°à®®à®ªà®ķà®¤": 5917,
      "Ġ36": 5918,
      "ĠTe": 5919,
      "Ġà®īà®¯à®°à®¨à®²à®ª": 5920,
      "à®¯à®Łà®¨à®¤": 5921,
      "à®ļà®®à®®": 5922,
      "Ġà®İà®´à®¨à®¤": 5923,
      "Ġà®ħà®©à®ª": 5924,
      "Ġà®ªà®¯à®©à®ªà®Łà®¤à®¤à®ķà®±à®¤": 5925,
      "ĠPe": 5926,
      "Ġà®¨à®©à®ķà®®": 5927,
      "Ġcom": 5928,
      "Ġà®ªà®°à®³à®ķ": 5929,
      "Ġà®¨à®Łà®Łà®ķ": 5930,
      "Ġà®¤à®´à®²à®¤": 5931,
      "Ġà®ķà®°à®¤à®ªà®ªà®Łà®Łà®¤": 5932,
      "Ġà®ļà®¤à®µà®¤": 5933,
      "Ġà®¤à®³à®µà®ķ": 5934,
      "Ġà®¤à®ķà®¤à®¯à®²": 5935,
      "che": 5936,
      "Ġà®®à®¤à®°à®ķà®³": 5937,
      "Ġà®ķà®±à®ªà®ªà®Łà®ªà®ªà®Łà®ķà®±à®¤": 5938,
      "Ġà®Ĩà®°à®®à®ªà®ķà®²": 5939,
      "Ġà®¤à®¯à®µà®®": 5940,
      "1994": 5941,
      "Ġà®®à®¤à®©à®®à®¤à®²à®²": 5942,
      "Ġà®®à®Łà®¯à®®à®²": 5943,
      "Ġà®¤à®¨à®¤à®¯à®©": 5944,
      "Ġà®ĩà®¯à®±à®ķà®¯à®©": 5945,
      "Ġà®µà®ķà®ķà®³à®²": 5946,
      "Ġ1951": 5947,
      "1947": 5948,
      "Ġà®ªà®°à®µà®²à®©": 5949,
      "Ġà®®à®Ļà®ķà®²à®¯à®°à®ķà®³": 5950,
      "Ġà®¤à®²à®¨à®ķà®°à®®": 5951,
      "Ġà®Ĵà®²à®µà®Ļà®ķ": 5952,
      "à®ķà®ķà®ķà®©à®±à®¤": 5953,
      "Ġà®ªà®Łà®¯à®Łà®ªà®ª": 5954,
      "Ġà®ļà®¨à®¤à®¤à®¤à®°": 5955,
      "Ġà®ļà®ķà®ķà®°à®¤à®¤à®©": 5956,
      "à®ĩà®±à®ªà®ªà®ķà®³": 5957,
      "500": 5958,
      "]]": 5959,
      "io": 5960,
      "uth": 5961,
      "Ġ<": 5962,
      "à®¤à®ķà®µà®®": 5963,
      "à®Łà®¤à®¤à®©": 5964,
      "à®®à®¤à®©": 5965,
      "à®®à®°à®ļ": 5966,
      "à®µà®Łà®Łà®®": 5967,
      "Ġà®®à®¯à®©à®±": 5968,
      "Ġà®ĩà®ªà®ªà®¯à®°": 5969,
      "Ġà®¤à®ķà®¤à®¤": 5970,
      "Ġà®ħà®ķ": 5971,
      "Ġà®ħà®µà®¤": 5972,
      "Ġà®ħà®ķà®µ": 5973,
      "Ġà®ħà®±à®¤": 5974,
      "Ġà®ļà®¤à®¤à®¤": 5975,
      "à®ªà®¤à®©": 5976,
      "Ġà®īà®ļà®ļà®°": 5977,
      "Ġà®īà®®à®´à®ªà®ªà®©": 5978,
      "Ġà®Ĵà®¤à®¤à®ļ": 5979,
      "Ġà®ķà®±à®ķà®©à®±à®©": 5980,
      "Ġà®ķà®Łà®ķà®³à®²": 5981,
      "à®ķà®©à®ķ": 5982,
      "Ġà®ķà®²à®ªà®ªà®ķà®¤à®¯à®²": 5983,
      "à®ķà®±à®¯": 5984,
      "Ġà®®à®©à®©à®®": 5985,
      "Ġà®ªà®Łà®¤à®¤à®¯": 5986,
      "Ġà®ħà®¤à®µ": 5987,
      "Ġà®Ĩà®£à®Łà®¤à®±à®®": 5988,
      "Ġà®ļà®²à®µà®°": 5989,
      "Ġà®µà®Łà®¤à®¤": 5990,
      "à®ķà®ķà®¤à®¤à®ķ": 5991,
      "à®ķà®ķà®±à®ķà®³": 5992,
      "à®ķà®ķà®±à®ªà®ª": 5993,
      "Ġà®®à®²à®Łà®Ł": 5994,
      "à®ªà®ªà®¤à®µà®ķà®³": 5995,
      "à®®à®±à®¯à®ķ": 5996,
      "Ġà®īà®¯à®°à®®à®©": 5997,
      "à®İà®´à®¤à®¤": 5998,
      "Ġà®ħà®°à®¯": 5999,
      "Ġà®¨à®ķà®°à®¤à®¤": 6000,
      "Ġà®ĩà®µà®µà®´": 6001,
      "à®¨à®Łà®ķà®°à®ķà®³": 6002,
      "Ġà®¨à®ķà®´à®¨à®¤à®¤": 6003,
      "à®ķà®¸à®²": 6004,
      "ash": 6005,
      "à®ĥà®ªà®°à®Ł": 6006,
      "Ġà®ĥà®ªà®Ł": 6007,
      "Ġà®¨à®Łà®¤à®¤à®ªà®ªà®Łà®Ł": 6008,
      "Ġà®ļà®±à®±à®¯à®³à®³": 6009,
      "Ġà®µà®ļà®ķà®ķà®®": 6010,
      "Ġà®µà®ļà®ªà®ªà®²": 6011,
      "ĠWar": 6012,
      "à®¤à®¤à®±à®ķà®³": 6013,
      "Ġà®¤à®°à®®à®ªà®°": 6014,
      "Ġà®µà®¨à®¤à®µà®ļ": 6015,
      "Ġà®ļà®Ļà®ķà®¤à®¤à®©": 6016,
      "Ġà®¤à®£à®ķ": 6017,
      "Ġà®ķà®²à®®à®ªà®¯": 6018,
      "à®ķà®ķà®¤à®¤à®Łà®©": 6019,
      "Ġà®®à®©à®©à®°à®ķà®³": 6020,
      "Ġà®ķà®ķà®¤": 6021,
      "Ġà®ªà®Łà®²à®ķà®³à®²": 6022,
      "Ġà®ªà®°à®©à®ļà®©": 6023,
      "à®ªà®ªà®Łà®Łà®°à®ķà®ķà®®": 6024,
      "à®ªà®ªà®Łà®Łà®°à®ķà®ķà®±à®¤": 6025,
      "Ġà®Ĩà®¯à®µà®³à®°à®ķà®³": 6026,
      "Ġà®¨à®£à®ªà®°à®ķà®³": 6027,
      "Ġà®µà®°à®ļà®ķà®³": 6028,
      "Ġ1955": 6029,
      "Ġ1936": 6030,
      "Ġà®īà®±à®¤à®¯à®©": 6031,
      "Ġà®ªà®Łà®ªà®ªà®Łà®¯à®ķ": 6032,
      "Ġà®ķà®±à®¯à®³à®³à®°": 6033,
      "back": 6034,
      "Ġà®ħà®µà®µà®ªà®ªà®¤": 6035,
      "à®Ĳà®°à®ªà®ªà®¯": 6036,
      "79": 6037,
      "84": 6038,
      "red": 6039,
      "ĠÂ": 6040,
      "à®¤à®¯à®²": 6041,
      "à®¤à®¯à®°": 6042,
      "à®¤à®ķà®µ": 6043,
      "à®Łà®µ": 6044,
      "à®¤à®¤à®ķà®ķà®®": 6045,
      "à®¨à®©à®±": 6046,
      "Ġà®ļà®ķà®ķà®°à®®": 6047,
      "à®£à®ª": 6048,
      "à®£à®¯à®²": 6049,
      "à®Ļà®ķà®¤à®¤": 6050,
      "à®ªà®¤à®°": 6051,
      "ins": 6052,
      "Ġà®ķà®£à®ķà®ķ": 6053,
      "Ġà®®à®±à®±à®©à®±": 6054,
      "ance": 6055,
      "Ġà®ªà®±à®¨à®ķà®°": 6056,
      "à®©à®°à®©": 6057,
      "à®®à®©à®ķ": 6058,
      "à®µà®©à®ķ": 6059,
      "Ġà®ļà®°à®¤à®¤à®°": 6060,
      "Ġà®®à®±à®ļà®¯à®¤à®¯à®¯à®²": 6061,
      "Ġà®ħà®¤à®ªà®°": 6062,
      "Ġà®ķà®³à®ªà®ªà®¤": 6063,
      "à®Łà®®à®®": 6064,
      "Ġà®¤à®²à®¤": 6065,
      "Ġà®µà®²à®¸": 6066,
      "à®ªà®ªà®ķà®³à®ķ": 6067,
      "Ġà®İà®´à®ļà®ļ": 6068,
      "Ġà®¤à®±à®¯à®©": 6069,
      "Ġà®ħà®±à®µà®°": 6070,
      "Ġà®ħà®±à®¯à®®": 6071,
      "Ġà®ħà®´à®ķà®¯": 6072,
      "Ġà®īà®²à®ķà®ķ": 6073,
      "Ġà®īà®²à®ķà®¤à®¤": 6074,
      "Ġà®ªà®¯à®©à®ªà®Łà®¤à®¤à®ªà®ªà®Ł": 6075,
      "ited": 6076,
      "Ġà®ĩà®¤à®©à®Łà®¯": 6077,
      "Ġà®ķà®¯à®®": 6078,
      "Ġà®Ĭà®´à®²": 6079,
      "à®¨à®Łà®ķà®³": 6080,
      "ĠNor": 6081,
      "Ġà®¨à®±à®µà®©à®Ļà®ķà®³à®©": 6082,
      "Ġà®ļà®µà®µà®¯": 6083,
      "à®ªà®ªà®³à®°à®ķ": 6084,
      "Ġà®ķà®Łà®ļà®¯à®ķ": 6085,
      "Ġà®®à®£à®µà®°": 6086,
      "Ġà®ªà®µà®¯à®©": 6087,
      "à®ªà®ļà®²": 6088,
      "Ġà®ªà®°à®ļà®¤": 6089,
      "Ġà®ªà®¤à®¤à®°à®®": 6090,
      "Ġà®Ĩà®±à®®": 6091,
      "à®ªà®ªà®Łà®Łà®°à®¨à®¤à®¤": 6092,
      "1982": 6093,
      "1986": 6094,
      "Ġ1941": 6095,
      "Ġ1946": 6096,
      "Ġà®īà®³à®³à®Łà®ķà®ķà®¯à®¤": 6097,
      "Ġà®®à®Ļà®ķà®²à®¯à®ª": 6098,
      "Ġà®ıà®©à®©à®±à®²": 6099,
      "Ġà®Łà®®à®¸": 6100,
      "Ġà®ĩà®®à®®à®±": 6101,
      "Ġà®ķà®²à®µà®Łà®Łà®ķà®³": 6102,
      "Ġà®ĩà®©à®©à®®à®®": 6103,
      "Ġà®¤à®°à®ļà®ļà®ª": 6104,
      "Ġà®ķà®Łà®©à®®à®©": 6105,
      "Ġex": 6106,
      "Ġà®īà®³à®¨à®Łà®Łà®ª": 6107,
      "Ġà®ıà®¤à®µà®¤": 6108,
      "Ġà®īà®Łà®¯à®°à®ªà®³à®¯à®®": 6109,
      "Ġ!!": 6110,
      "66": 6111,
      "81": 6112,
      "94": 6113,
      "ep": 6114,
      "na": 6115,
      "val": 6116,
      "à®®à®¯à®®": 6117,
      "à®µà®ľà®¯": 6118,
      "Ġà®®à®Łà®°": 6119,
      "Ġà®®à®ļà®®": 6120,
      "Ġà®®à®¯à®®à®ķ": 6121,
      "Ġà®µà®£à®®": 6122,
      "Ġà®¤à®Ļà®ķà®ķà®³": 6123,
      "à®¨à®µà®®à®ªà®°": 6124,
      "à®£à®°à®µ": 6125,
      "Ġà®¨à®¯à®ķ": 6126,
      "Ġà®¨à®¸à®²": 6127,
      "à®ªà®ķà®ķà®¤à®¤à®©": 6128,
      "Ġà®İà®®à®©à®®": 6129,
      "Ġà®ªà®°à®ļà®²à®©": 6130,
      "Ġà®¤à®°à®µà®°": 6131,
      "Ġà®¤à®°à®ķà®ķà®¯": 6132,
      "Ġà®µà®°à®®à®©à®®": 6133,
      "Ġà®ªà®±à®±à®µ": 6134,
      "à®ķà®©à®®": 6135,
      "Ġwidth": 6136,
      "à®µà®¤à®Łà®©": 6137,
      "à®ļà®ļà®±": 6138,
      "Ġà®Ĵà®°à®µà®©": 6139,
      "Ġà®ªà®¤à®ªà®ªà®²": 6140,
      "Ġà®ªà®Łà®©": 6141,
      "Ġà®ªà®Łà®²à®²": 6142,
      "Ġà®µà®´à®Ļà®ķà®²": 6143,
      "Ġà®ıà®ŀà®ļà®²": 6144,
      "Ġà®°à®Łà®¯": 6145,
      "Ġà®µà®Łà®ķà®³à®®": 6146,
      "Ġà®ľà®®à®©": 6147,
      "Ġà®ľà®©à®°à®²": 6148,
      "Ġà®ĩà®²à®ķà®ķà®£à®®": 6149,
      "ref": 6150,
      "Ġà®®à®°à®ªà®µà®´": 6151,
      "Ġà®®à®Łà®¯à®²": 6152,
      "à®µà®ķà®³à®ķà®ķ": 6153,
      "à®µà®±à®±à®©": 6154,
      "Ġà®¤à®Łà®°à®ªà®ķ": 6155,
      "Ġà®¯à®¤": 6156,
      "Ġà®¯à®´": 6157,
      "Ġà®¹à®¯": 6158,
      "Ġbe": 6159,
      "Ġà®ħà®°à®Ļà®ķà®®": 6160,
      "Ġà®ħà®©à®µà®°": 6161,
      "Ġà®ªà®ļà®ļà®¯": 6162,
      "Ġà®ªà®¯à®°à®ķ": 6163,
      "Ġà®ħà®µà®¤à®©": 6164,
      "Ġà®ħà®²à®ķà®ļ": 6165,
      "ĠCl": 6166,
      "Ġà®ķà®£à®Łà®°à®ªà®ªà®¤": 6167,
      "Ġà®¨à®³à®®à®©": 6168,
      "Ġà®ªà®Ļà®ķà®²": 6169,
      "Ġà®ķà®ªà®ªà®®": 6170,
      "Ġà®ķà®°à®¤à®ªà®ªà®Łà®Ł": 6171,
      "Ġà®¤à®£à®Łà®ķà®ķà®²": 6172,
      "à®Ĵà®³": 6173,
      "Ġà®ªà®©à®©à®³à®²": 6174,
      "Ġà®İà®©à®ªà®µà®°à®©": 6175,
      "Ġà®¨à®®à®ªà®ķà®ķà®¯": 6176,
      "Ġà®ĩà®¯à®±à®ķà®¯": 6177,
      "Ġà®ªà®¨à®¤à®µ": 6178,
      "Ġà®¤à®©à®±à®ķà®±à®¤": 6179,
      "Ġ1957": 6180,
      "Ġà®ķà®µà®©à®¤à®¤": 6181,
      "Ġà®°à®®à®ļà®®": 6182,
      "Ġà®ħà®©à®®à®¤à®ķà®ķà®±à®¤": 6183,
      "Ġà®Ĩà®Łà®Łà®¤à®¤à®²": 6184,
      "Ġà®ĩà®¤à®´à®ķà®³": 6185,
      "Ġà®ªà®Ļà®ķà®³à®°": 6186,
      "Ġà®İà®µà®µà®³à®µ": 6187,
      "Ġà®İà®ļà®ªà®ªà®©à®¯": 6188,
      "Ġà®ĩà®¯à®ļà®µà®©": 6189,
      "Ġà®ªà®°à®°à®Łà®ļà®ķà®³": 6190,
      "Ġà®µà®¨à®¯à®ķà®°": 6191,
      "Ġà®ĩà®£à®¯à®¤à®¤à®³à®®": 6192,
      "In": 6193,
      "be": 6194,
      "ps": 6195,
      "³à®³": 6196,
      "à®¤à®±à®ķà®ķ": 6197,
      "à®©à®ªà®Ł": 6198,
      "à®²à®ļ": 6199,
      "Ġà®ķà®ĥ": 6200,
      "Ġà®ķà®ŀà®ļà®®": 6201,
      "à®ļà®°à®¨à®¤": 6202,
      "Ġà®ĩà®ªà®ªà®ķà®¤à®¯à®²": 6203,
      "Ġà®µà®¤à®¤à®ķ": 6204,
      "Ġà®¤à®ķà®¨à®¤": 6205,
      "Ġà®¤à®¤à®¤à®µà®®": 6206,
      "à®¨à®±à®±": 6207,
      "à®£à®Ļà®ķà®³": 6208,
      "Ġà®īà®¤à®¤à®¯": 6209,
      "Ġà®ªà®°à®ľ": 6210,
      "Ġà®ªà®°à®ªà®ªà®°à®³": 6211,
      "Ġà®ªà®ķà®¯": 6212,
      "ara": 6213,
      "Ġà®ķà®£à®®à®Ł": 6214,
      "à®¤à®©à®¯": 6215,
      "à®¤à®©à®±": 6216,
      "ana": 6217,
      "Ġà®ķà®±à®¯à®®": 6218,
      "Ġà®ķà®±à®ķà®ķà®³": 6219,
      "à®µà®¤à®²à®®": 6220,
      "Ġà®¨à®Łà®ķà®³à®®": 6221,
      "Ġà®®à®©à®¯": 6222,
      "Ġà®®à®©à®ªà®°à®Łà®ķà®³": 6223,
      "Ġà®ªà®Łà®¨à®²": 6224,
      "Ġà®¨à®²à®ªà®ªà®ķà®¤": 6225,
      "Ġà®ļà®®à®ªà®ª": 6226,
      "Ġà®ĩà®²à®µ": 6227,
      "à®ķà®ķà®±à®ªà®ªà®ķà®³": 6228,
      "1950": 6229,
      "à®ħà®ļ": 6230,
      "à®Ĩà®ļà®¯": 6231,
      "Ġà®¤à®®à®´à®¨à®Łà®Łà®©": 6232,
      "à®·à®©à®²": 6233,
      "Ġà®ķà®µà®²à®ķà®³": 6234,
      "à®µà®Łà®ķà®ķ": 6235,
      "Ġà®ħà®´à®ªà®ª": 6236,
      "ĠSw": 6237,
      "Ġ2018": 6238,
      "Ġà®ħà®©à®ªà®ªà®©à®°": 6239,
      "Ġà®Ĵà®©à®±à®¯à®¤à®¤à®©": 6240,
      "Ġà®ķà®¯à®®à®Ł": 6241,
      "Ġà®İà®¤à®°à®ķà®³": 6242,
      "Ġà®ĩà®©à®ļà®²à®©": 6243,
      "Ġà®ħà®µà®¤à®°à®®": 6244,
      "Ġà®¤à®°à®µà®¤à®¤à®³à®®": 6245,
      "Ġà®Īà®°à®©": 6246,
      "Ġà®µà®ļà®©à®®": 6247,
      "Ġà®ªà®Ļà®ķà®µ": 6248,
      "Ġà®ħà®¤à®ķà®°à®ªà®ªà®°": 6249,
      "2013": 6250,
      "Ġà®ķà®°à®£à®®à®ķà®®": 6251,
      "à®ķà®ªà®ªà®Łà®Łà®©à®®": 6252,
      "Ġ1963": 6253,
      "Ġà®ĩà®±à®¤à®ª": 6254,
      "1985": 6255,
      "Ġà®ªà®ªà®ļ": 6256,
      "Ġ1945": 6257,
      "Ġà®®à®°à®¤à®¤à®µà®ķ": 6258,
      "1963": 6259,
      "1944": 6260,
      "Ġà®Ĩà®£à®Łà®ķà®³à®ķà®ķà®ª": 6261,
      "Ġà®µà®³à®¯à®Łà®®": 6262,
      "Ġà®µà®¸à®ķà®ķà®³": 6263,
      "Ġà®µà®´à®Ļà®ķà®ªà®ªà®Łà®ķà®±à®¤": 6264,
      "Ġà®¤à®°à®¨à®²à®ķà®³": 6265,
      "Ġà®Ĵà®µà®µà®©": 6266,
      "Ġà®ħà®®à®ļà®ļà®°à®ķà®³": 6267,
      "Ġà®®à®ķà®°à®ļà®ªà®Ł": 6268,
      "Ġà®¤à®ªà®ķà®±": 6269,
      "htm": 6270,
      "',": 6271,
      "ec": 6272,
      "my": 6273,
      "à®²à®¤": 6274,
      "à®±à®ķà®ļ": 6275,
      "à®ļà®Ļà®ķ": 6276,
      "à®£à®ķ": 6277,
      "à®±à®±à®©": 6278,
      "Ġà®ªà®°à®¤à®¯": 6279,
      "Ġà®ªà®°à®ªà®ŀà®ļ": 6280,
      "à®¤à®²à®°à®¨à®¤": 6281,
      "à®¸à®Łà®Ł": 6282,
      "Ġà®ķà®£à®¤à®¤": 6283,
      "Ġà®µà®°à®ķà®©à®±à®¤": 6284,
      "Ġà®µà®°à®¨à®¤à®©à®°": 6285,
      "Ġà®ķà®°à®²à®©": 6286,
      "Ġà®ķà®±à®ªà®ªà®©": 6287,
      "à®®à®©à®Ł": 6288,
      "à®µà®¤à®ª": 6289,
      "Ġà®µà®³à®£à®®": 6290,
      "Ġà®µà®³à®Ļà®ķà®¯": 6291,
      "Ġà®ªà®¤à®ķà®ķà®Łà®Ł": 6292,
      "Ġà®ļà®°à®ªà®²": 6293,
      "Ġà®¤à®©à®¯à®ķ": 6294,
      "à®ĩà®Ł": 6295,
      "à®ĩà®µà®µà®°": 6296,
      "Ġà®Łà®ķà®ķà®©": 6297,
      "Ġà®¨à®°à®µà®´": 6298,
      "ich": 6299,
      "ese": 6300,
      "Ġà®ķà®´à®ķà®ķà®ª": 6301,
      "Ġà®¤à®Łà®²": 6302,
      "à®ķà®ļà®Ł": 6303,
      "Ġà®®à®²à®µ": 6304,
      "Ġà®®à®°à®ªà®¯à®²": 6305,
      "loso": 6306,
      "Ġà®²à®¯": 6307,
      "ons": 6308,
      "à®©à®²à®Ł": 6309,
      "Ġà®¯à®®": 6310,
      "Ġà®¯à®¤à®¤": 6311,
      "à®ķà®ķà®ªà®ªà®Łà®²à®®": 6312,
      "Ġà®ķà®¤à®°à®µ": 6313,
      "Ġ49": 6314,
      "ĠSte": 6315,
      "Ġà®īà®²à®ķà®ªà®ªà®°": 6316,
      "Ġà®¸à®ķà®Łà®Ł": 6317,
      "Ġà®ħà®©à®¤à®¤à®ª": 6318,
      "Ġà®ħà®©à®ªà®ªà®µ": 6319,
      "Ġà®ªà®³à®ķ": 6320,
      "Ġà®µà®Łà®Łà®¯à®Ł": 6321,
      "Ġà®¤à®µà®Ļ": 6322,
      "Ġà®¤à®µà®ķà®ķ": 6323,
      "Ġà®ĩà®±à®ķà®ķ": 6324,
      "Ġà®¨à®±à®µà®©à®®à®©": 6325,
      "ĠĠĠĠĠ": 6326,
      "Ġà®µà®ļà®¨à®¤": 6327,
      "à®¹à®ļà®©": 6328,
      "Ġà®Ĩà®²à®ªà®°à®Ł": 6329,
      "Ġà®µà®¨à®¤à®³à®³à®¤": 6330,
      "Ġà®¤à®µà®°à®ķà®ķ": 6331,
      "Ġà®ªà®°à®¤à®¯à®°": 6332,
      "Ġà®µà®³à®¯à®Łà®Łà®²": 6333,
      "à®ķà®¤à®¤à®²à®°à®¨à®¤": 6334,
      "à®ªà®ļà®©": 6335,
      "Ġà®Ĩà®ķà®¯à®µà®±à®±à®Łà®©": 6336,
      "à®ªà®ªà®£à®Ł": 6337,
      "Ġà®ķà®Łà®®à®¯à®ķ": 6338,
      "Ġà®Ĩà®¤à®°à®®": 6339,
      "Ġà®¤à®ļà®¯à®²": 6340,
      "Ġà®®à®²à®²à®¯": 6341,
      "Ġ1964": 6342,
      "Ġà®ªà®®à®ª": 6343,
      "Ġà®ļà®¯à®¯à®ªà®ªà®Łà®Łà®©à®°": 6344,
      "1969": 6345,
      "Ġà®¤à®Łà®Łà®®à®Ł": 6346,
      "Ġà®ľà®°à®®à®©à®¯à®©": 6347,
      "Ġà®ķà®£à®£à®©": 6348,
      "Ġà®Ĩà®Łà®Łà®®à®´": 6349,
      "Ġà®ķà®©à®©à®Ł": 6350,
      "Ġà®Īà®Łà®ªà®Łà®Łà®°": 6351,
      "Ġà®µà®²à®®à®¯à®©": 6352,
      "view": 6353,
      "Ġà®Ĩà®¤à®ķà®ķà®®": 6354,
      "Ġà®Ĩà®µà®£à®Ļà®ķà®³": 6355,
      "Ġà®°à®·à®¯": 6356,
      "Ġà®®à®¸à®²à®®à®ķà®³": 6357,
      "Ġà®ļà®°à®²à®¸": 6358,
      "Ġà®¨à®·à®¤à®®": 6359,
      "Ġà®µà®²à®¯à®±à®¤à®¤": 6360,
      "bsite": 6361,
      "08": 6362,
      "49": 6363,
      "RO": 6364,
      "oci": 6365,
      "Ġme": 6366,
      "Ġalign": 6367,
      "Ġà®®à®µà®°": 6368,
      "Ġà®µà®ķà®ķà®ķà®": 6369,
      "Ġà®¤à®ķà®ķà®ķà®ªà®ªà®Łà®Ł": 6370,
      "à®¨à®µà®©": 6371,
      "à®¨à®µà®²": 6372,
      "Ġà®ħà®¸": 6373,
      "Ġà®ļà®ķà®ª": 6374,
      "Ġà®ļà®ļà®²": 6375,
      "à®ªà®ķà®ķà®®": 6376,
      "Ġà®İà®ļà®ļ": 6377,
      "Ġà®Ĵà®¤à®¤à®´": 6378,
      "à®ªà®ªà®Łà®ķ": 6379,
      "à®¯à®©à®¸": 6380,
      "à®ķà®°à®®à®©": 6381,
      "Ġà®¤à®°à®ļà®ļà®°": 6382,
      "à®¤à®¤à®²à®³à®³": 6383,
      "Ġà®ªà®±à®ªà®ªà®Łà®Łà®¤": 6384,
      "Ġà®¨à®Łà®µà®²": 6385,
      "Ġà®µà®³à®ķà®Ł": 6386,
      "Ġà®ħà®®à®ķà®ķ": 6387,
      "Ġà®ļà®°à®ļà®¯": 6388,
      "Ġà®ªà®Łà®ķà®±à®¤": 6389,
      "Ġà®ªà®Łà®°à®²": 6390,
      "Ġà®µà®´à®ķà®ķà®ķà®³": 6391,
      "à®©à®±à®®": 6392,
      "Ġà®Łà®ľ": 6393,
      "Ġà®µà®Łà®ķà®Łà®Ł": 6394,
      "Ġà®ļà®¯à®£à®Ł": 6395,
      "Ġà®ļà®¯à®µà®¤à®±à®ķ": 6396,
      "Ġà®ļà®®à®ªà®³": 6397,
      "ĠMal": 6398,
      "Ġà®īà®°à®³": 6399,
      "à®ħà®£à®Ł": 6400,
      "Ġà®®à®°à®¤": 6401,
      "à®ªà®©à®¤": 6402,
      "Ġà®µà®²à®µà®©": 6403,
      "à®µà®¯à®¨à®¤": 6404,
      "Ġà®ħà®³à®ķà®ķ": 6405,
      "Ġà®ķà®µà®°à®Łà®ļ": 6406,
      "Ġà®ħà®´à®µ": 6407,
      "Ġà®īà®²à®ķà®Ļ": 6408,
      "ĠGu": 6409,
      "à®°à®©à®¸": 6410,
      "Ġà®ļà®©à®ķ": 6411,
      "Ġà®¤à®µà®ªà®ªà®Łà®ķà®±à®¤": 6412,
      "Ġà®ļà®µà®ªà®°à®®à®©": 6413,
      "Ġà®ļà®Łà®Łà®ķà®ķà®Łà®Ł": 6414,
      "Ġà®ªà®Ļà®ķà®Ł": 6415,
      "à®µà®¯à®²à®²": 6416,
      "Ġà®ķà®ªà®Ł": 6417,
      "2014": 6418,
      "Ġà®®à®Łà®Łà®²": 6419,
      "Ġà®ķà®²à®²à®ªà®ªà®Łà®Łà®°": 6420,
      "Ġà®¤à®Łà®Łà®¤à®¤à®©": 6421,
      "à®Ļà®ķà®°à®¨à®¤": 6422,
      "Ġà®ªà®²à®ķà®²à®ķà®ķà®´à®ķà®Ļà®ķà®³": 6423,
      "Ġà®µà®°à®¯à®±à®ķà®ķà®ªà®ªà®Łà®Ł": 6424,
      "Ġà®ħà®ķà®Łà®®": 6425,
      "hiloso": 6426,
      "Ġà®Ĩà®´à®®à®©": 6427,
      "Ġà®®à®ķà®¤à®µà®©": 6428,
      "Ġà®ļà®¤à®¨à®¤à®°à®®": 6429,
      "Ġà®µà®²à®¯à®®à®ªà®ª": 6430,
      "Ġà®Ĵà®ªà®ªà®Łà®ķà®¯à®²": 6431,
      "à®ķà®ķà®Ļà®ķà®³à®²": 6432,
      "Ġà®·à®Łà®ľà®®": 6433,
      "Ġà®ħà®¤à®ķà®ªà®ªà®Łà®¯à®©": 6434,
      "97": 6435,
      "AI": 6436,
      "TU": 6437,
      "fo": 6438,
      "illi": 6439,
      "nal": 6440,
      "ual": 6441,
      "à®°à®¯à®²": 6442,
      "à®Łà®µà®²": 6443,
      "à®®à®¨à®²": 6444,
      "à®¯à®ķà®¤": 6445,
      "à®ļà®ķà®³": 6446,
      "Ġà®µà®ļà®©": 6447,
      "Ġà®µà®ķà®ķà®ªà®ªà®Łà®Łà®¤": 6448,
      "Ġà®µà®ķà®Łà®°à®¯": 6449,
      "à®¨à®®à®ª": 6450,
      "Ġà®ļà®ªà®¯": 6451,
      "à®ªà®ķà®ķà®µ": 6452,
      "Ġà®ªà®°à®¯à®®": 6453,
      "Ġà®ªà®°à®µà®ķ": 6454,
      "Ġà®ªà®°à®ļà®©": 6455,
      "Ġà®ĩà®°à®¤à®¤à®©": 6456,
      "Ġà®ĩà®°à®ļà®¯à®©": 6457,
      "à®ķà®°à®ªà®Ł": 6458,
      "Ġà®¤à®°à®³": 6459,
      "Ġà®¤à®°à®ªà®ªà®°": 6460,
      "Ġà®µà®°à®µà®°": 6461,
      "à®ªà®°à®¤à®¤à®²": 6462,
      "Ġà®ķà®°à®ªà®ªà®°": 6463,
      "Ġà®ķà®°à®µà®¯": 6464,
      "Ġà®ķà®Łà®ķ": 6465,
      "Ġ250": 6466,
      "à®ļà®ļà®´": 6467,
      "à®ķà®ķà®³à®¯à®®": 6468,
      "Ġà®Ĵà®°à®®": 6469,
      "à®ķà®±à®ªà®ªà®¤à®µà®ķà®³": 6470,
      "Ġà®®à®©à®©à®¤à®ķ": 6471,
      "Ġà®ªà®²à®ªà®ªà®©": 6472,
      "Ġà®ªà®©à®±à®¤": 6473,
      "Ġà®ļà®°à®®à®©à®¯": 6474,
      "Ġà®ļà®°à®¤à®°à®¤à®¤": 6475,
      "earch": 6476,
      "Ġà®¨à®°à®®à®©": 6477,
      "Ġà®¨à®²à®ª": 6478,
      "Ġà®¨à®²à®ķà®³à®©": 6479,
      "Ġà®ļà®®à®µà®³": 6480,
      "à®ķà®Łà®ªà®°": 6481,
      "Ġà®¤à®²à®ķà®ķà®Ł": 6482,
      "Ġà®¤à®²à®Ļà®ķà®³à®²": 6483,
      "à®ħà®´": 6484,
      "à®ªà®ªà®¤à®±à®ķà®®": 6485,
      "à®ķà®ķà®ķà®¤": 6486,
      "Ġà®®à®¤à®µà®ķ": 6487,
      "à®ķà®ķà®Łà®¤": 6488,
      "Ġà®īà®¯à®°à®¯": 6489,
      "Ġà®ĩà®£à®¯à®®": 6490,
      "Ġà®ħà®°à®ļà®®à®°": 6491,
      "Ġà®ħà®°à®Ł": 6492,
      "Ġà®ķà®¤à®¨à®¯": 6493,
      "Ġà®¤à®±à®®à®ķà®®": 6494,
      "Ġà®ħà®±à®ķà®ķà®ķà®³": 6495,
      "Ġà®®à®ķà®ķà®³à®®": 6496,
      "Ġà®ķà®®à®°à®©": 6497,
      "Ġà®ļà®©à®ª": 6498,
      "Ġà®¤à®°à®µà®£": 6499,
      "Ġà®ªà®°à®³à®©": 6500,
      "Ġà®ªà®´à®ķà®ķà®¤à®¤à®²": 6501,
      "à®ªà®ªà®²à®°à®¨à®¤": 6502,
      "Ġà®ĩà®°à®ķà®ķà®®à®ªà®¤": 6503,
      "à®ķà®ķà®Łà®Łà®²": 6504,
      "Ġà®Ĩà®²à®ªà®Ļà®ķà®³": 6505,
      "Ġà®®à®ķà®ķà®¯à®®à®©à®¤": 6506,
      "à®µà®´à®ķà®ķà®ķ": 6507,
      "Ġà®īà®£à®µà®ķà®³": 6508,
      "Ġà®ªà®¤à®¤à®ķà®®": 6509,
      "Ġà®ķà®²à®²à®ªà®ªà®Łà®Ł": 6510,
      "Ġà®µà®°à®®à®ªà®µ": 6511,
      "à®Ĵà®²": 6512,
      "Ġà®¨à®®à®Ł": 6513,
      "Ġà®ªà®¤à®¤à®°à®¤à®¤à®²": 6514,
      "Ġà®ķà®°à®£à®¤à®¤à®²": 6515,
      "Ġà®µà®Łà®µà®®à®ķà®ķà®ªà®ªà®Łà®Ł": 6516,
      "Ġà®Ĩà®°à®®à®ªà®¤à®¤à®¤": 6517,
      "Ġà®Ĩà®°à®®à®ªà®ķà®ķà®ªà®ªà®Łà®Łà®¤": 6518,
      "Ġà®Ĩà®¯à®µà®²": 6519,
      "Ġà®®à®£à®Łà®ªà®®": 6520,
      "Ġ1942": 6521,
      "Ġà®ĩà®²à®ķà®ķà®¯à®Ļà®ķà®³": 6522,
      "Ġà®īà®°à®®à®±à®±à®®": 6523,
      "Ġà®µà®µà®ķà®°": 6524,
      "Ġà®īà®¤à®µà®¯à®ķ": 6525,
      "Ġà®ªà®°à®¤à®¤à®©à®¯à®ª": 6526,
      "Ġà®Ĩà®±à®±à®²à®®": 6527,
      "Ġà®ªà®£à®Łà®ķ": 6528,
      "Ġà®ļà®¤à®¤à®°à®®": 6529,
      "Ġà®ķà®£à®Łà®Łà®ªà®ªà®Łà®ķà®±à®¤": 6530,
      "1957": 6531,
      "Ġà®ļà®°à®¯à®©à®©": 6532,
      "Ġ1928": 6533,
      "Ġà®Ĩà®ªà®ķà®©": 6534,
      "Ġà®ķà®±à®¯à®Łà®ķà®³": 6535,
      "Ġà®īà®¤à®°à®£à®®": 6536,
      "Ġà®°à®·à®ªà®®": 6537,
      "Ġà®Ĩà®©à®®à®ķ": 6538,
      "Ġà®®à®´à®µà®¤à®²à®®": 6539,
      "à®µà®©à®±à®²": 6540,
      "Ġà®ĩà®±à®ķà®ķà®®à®¤": 6541,
      "Ġà®ħà®°à®Ļà®ķà®Łà®ļà®¯à®ķà®®": 6542,
      "Ġà®İà®£à®£à®ķà®ķà®¯à®²à®©": 6543,
      "Ġà®İà®³à®®à®¯à®©": 6544,
      "Ġà®¨à®²à®¨à®Łà®ķà®ķà®®": 6545,
      ".(": 6546,
      "38": 6547,
      "93": 6548,
      "BL": 6549,
      "ition": 6550,
      "mp": 6551,
      "ob": 6552,
      "âĪĴ": 6553,
      "ĠÂ°": 6554,
      "à®®à®µà®Łà®Ł": 6555,
      "à®¯à®´": 6556,
      "à®±à®¨à®¤": 6557,
      "à®±à®ķà®Ł": 6558,
      "Ġà®ªà®ŀ": 6559,
      "Ġà®®à®ķà®ķà®µ": 6560,
      "à®¤à®¤à®±à®©": 6561,
      "Ġà®µà®¯à®µ": 6562,
      "Ġà®¤à®ķà®ªà®ªà®©": 6563,
      "Ġà®ļà®¤à®¯": 6564,
      "à®£à®ķà®°": 6565,
      "Ġà®Ĩà®¤à®®": 6566,
      "Ġà®Ĩà®ªà®°à®ķà®ķ": 6567,
      "Ġà®ªà®°à®ķà®ķà®ªà®ªà®Łà®Ł": 6568,
      "Ġ120": 6569,
      "à®ķà®¤à®¤à®©à®®": 6570,
      "Ġà®ķà®£à®µà®°": 6571,
      "Ġà®ķà®°à®®à®ª": 6572,
      "Ġà®ķà®±à®ķ": 6573,
      "Ġà®µà®³à®¨à®¤": 6574,
      "Ġà®ªà®Łà®µà®°": 6575,
      "Ġà®®à®±à®ªà®ªà®Ł": 6576,
      "Ġà®°à®¤à®¤": 6577,
      "Ġà®°à®ķà®ķà®°": 6578,
      "Ġà®Ĩà®£à®Łà®®": 6579,
      "à®®à®´à®ķà®³": 6580,
      "Ġà®ªà®£à®ķà®³à®ķà®ķ": 6581,
      "Ġà®ľà®ļà®ª": 6582,
      "Ġà®īà®°à®µà®®": 6583,
      "à®ķà®ķà®¤à®°": 6584,
      "1975": 6585,
      "à®ķà®ªà®ªà®³": 6586,
      "Ġà®¨à®±à®ªà®¤": 6587,
      "Ġà®®à®¤à®ªà®ªà®Łà®Ł": 6588,
      "à®¨à®²à®¯": 6589,
      "Ġà®¹à®µ": 6590,
      "à®µà®Łà®¤à®¤à®²": 6591,
      "Ġà®ĵà®µà®¯à®°": 6592,
      "ĠSci": 6593,
      "Ġà®Ĵà®©à®±à®Łà®©": 6594,
      "Ġà®ªà®¯à®©à®ªà®Łà®¤à®¤à®ķà®©à®±à®©à®°": 6595,
      "Ġà®¤à®´à®²à®ķà®³": 6596,
      "Ġà®¤à®µà®Ļà®ķà®¯à®¤": 6597,
      "Ġà®ħà®²à®²à®®à®²": 6598,
      "Ġà®İà®Łà®µà®°à®Ł": 6599,
      "Ġà®¨à®Łà®¤à®¤à®ķà®³": 6600,
      "Ġà®µà®¯à®¤à®©": 6601,
      "Ġà®µà®¯à®¨à®¤à®¤": 6602,
      "Ġà®µà®¯à®ªà®ªà®³à®³": 6603,
      "Ġà®ħà®¨à®¤à®©": 6604,
      "Ġà®ļà®¨à®¤à®ķà®ķ": 6605,
      "Ġà®ļà®¨à®¤à®°à®ļ": 6606,
      "Ġà®®à®©à®±à®²": 6607,
      "Ġà®¨à®³à®ķà®ķ": 6608,
      "Ġà®Ĩà®²à®¯": 6609,
      "Ġà®ħà®¤à®ķà®°à®ķà®ķà®®": 6610,
      "Ġà®ķà®ªà®®": 6611,
      "Ġà®¤à®¯à®°à®ķà®ķà®ªà®ªà®Łà®Ł": 6612,
      "Ġà®ªà®¤à®¤à®ķà®Ļà®ķà®³": 6613,
      "Ġà®®à®¯à®¤à®¤à®²": 6614,
      "Ġà®¤à®®à®ªà®¤": 6615,
      "à®ªà®ªà®£à®°à®µ": 6616,
      "Ġà®Łà®°à®ªà®ķ": 6617,
      "Ġà®¤à®©à®®à®Ļà®ķà®³": 6618,
      "Ġà®ħà®©à®±à®¯": 6619,
      "Ġà®İà®Łà®¤à®¤à®ķà®ķà®³à®³": 6620,
      "Ġà®ªà®°à®¤à®¤à®®à®©": 6621,
      "Ġ125": 6622,
      "Ġà®¤à®²à®µà®°à®ķà®µà®®": 6623,
      "Ġà®Ĵà®°à®µà®°à®ķ": 6624,
      "Ġà®ķà®Łà®²à®°": 6625,
      "à®ĩà®¨à®¤à®¯à®µà®©": 6626,
      "Ġà®īà®°à®®à®±à®±": 6627,
      "Ġà®ļà®ķà®ļà®ļà®ķà®³": 6628,
      "1964": 6629,
      "Ġ1959": 6630,
      "1940": 6631,
      "Ġà®ķà®±à®µà®ķà®µ": 6632,
      "à®īà®¯à®°à®ļà®ļà®¤à®¤": 6633,
      "Ġà®Ĵà®²à®µà®Ļà®ķà®¯": 6634,
      "Ġà®¸à®Łà®µ": 6635,
      "Ġà®ķà®ªà®°à®©": 6636,
      "à®Īà®´": 6637,
      "Ġà®Ĭà®Łà®ķà®Ļà®ķà®³": 6638,
      "Ġà®®à®¨à®¤à®°à®®": 6639,
      "Ġà®®à®©à®®à®¤à®°": 6640,
      "Ġà®¨à®£à®£à®¯à®°": 6641,
      "à®ĩà®¤à®©à®¯à®®": 6642,
      "Ġà®ªà®´à®Ļà®ķà®Łà®¯à®©": 6643,
      "Ġà®®à®°à®¤à®¤à®µà®®à®©à®¯à®²": 6644,
      "Ġà®ħà®Łà®Łà®µà®£à®¯à®²": 6645,
      "Ġà®ĩà®°à®£à®µà®®": 6646,
      "Ġà®ķà®²à®ªà®ªà®ķà®ķà®²": 6647,
      ".[": 6648,
      "cc": 6649,
      "net": 6650,
      "over": 6651,
      "ris": 6652,
      "ted": 6653,
      "ÃĹ": 6654,
      "Ø§": 6655,
      "à¸": 6656,
      "à®®à®Łà®Łà®°": 6657,
      "Ġà®®à®ľ": 6658,
      "Ġà®µà®ªà®¤à®¤": 6659,
      "à®¨à®ļ": 6660,
      "Ġà®ħà®ķà®¤": 6661,
      "à®£à®¯à®©": 6662,
      "Ġà®İà®ĥ": 6663,
      "Ġà®İà®°à®ķ": 6664,
      "Ġà®īà®©à®©": 6665,
      "Ġà®İà®©à®ķà®ķ": 6666,
      "à®ķà®°à®³": 6667,
      "à®ķà®°à®¸": 6668,
      "à®ķà®¤à®¤à®°": 6669,
      "à®ªà®Łà®Ļà®ķà®³": 6670,
      "Ġà®ķà®²à®¤à®¤à®±": 6671,
      "Ġà®ªà®²à®ķà®³": 6672,
      "rab": 6673,
      "Ġà®ªà®¤à®ļ": 6674,
      "à®ķà®ķà®ªà®ªà®²": 6675,
      "Ġà®ħà®®à®¯": 6676,
      "à®ĩà®°à®®": 6677,
      "à®¤à®¤à®°à®©": 6678,
      "à®¤à®¤à®©à®®à®¯": 6679,
      "Ġà®°à®ªà®³": 6680,
      "Ġà®ĩà®¤à®´à®²": 6681,
      "Ġà®ļà®²à®µà®©": 6682,
      "Ġà®µà®Łà®ªà®°à®³": 6683,
      "à®ķà®ķà®²à®²": 6684,
      "Ġà®ļà®®à®¨à®¤": 6685,
      "ĠMy": 6686,
      "Ġà®īà®°à®µà®ķ": 6687,
      "à®ķà®Łà®¨à®¤": 6688,
      "Ġà®¤à®²à®ªà®ª": 6689,
      "Ġà®®à®°à®©": 6690,
      "à®ļà®°à®¯": 6691,
      "Ġà®²à®¯à®©": 6692,
      "Ġà®®à®¤à®ªà®ªà®ķà®³": 6693,
      "Ġà®¤à®Łà®°à®¨à®¤à®¤": 6694,
      "Ġà®¯à®°à®®": 6695,
      "Ġà®ħà®°à®ļà®ª": 6696,
      "Ġà®ķà®µà®²à®²": 6697,
      "Ġà®ħà®°à®ªà®ª": 6698,
      "à®ķà®£à®Łà®©": 6699,
      "Ġà®ĵà®Łà®Łà®®": 6700,
      "Ġà®ħà®©à®ªà®ªà®ªà®ªà®Ł": 6701,
      "Ġà®ªà®¯à®©à®ªà®Łà®¤à®¤à®ķ": 6702,
      "à®ķà®ªà®Łà®Ł": 6703,
      "Ġà®ļà®¯à®²à®±à®±": 6704,
      "Ġà®ªà®³à®Łà®Ł": 6705,
      "Ġà®¨à®¯à®ķà®ķ": 6706,
      "Ġà®ĩà®©à®ª": 6707,
      "Ġà®ªà®¯à®°à®Łà®ªà®ªà®Łà®Ł": 6708,
      "Ġà®ħà®µà®ļà®°": 6709,
      "Ġà®İà®Łà®ķà®ķà®®": 6710,
      "Ġà®¤à®£à®ķà®ķ": 6711,
      "Ġà®ļà®©à®©à®¤": 6712,
      "à®¤à®®à®´à®²": 6713,
      "Ġà®ħà®µà®±à®±à®³": 6714,
      "Ġà®¤à®ļà®ķà®³": 6715,
      "ush": 6716,
      "Ġà®İà®´à®¤à®ªà®ªà®Łà®Łà®¤": 6717,
      "Ġà®¯à®©à®¯à®©": 6718,
      "Ġà®ªà®°à®Łà®ķà®³à®²": 6719,
      "Ġà®ªà®ªà®²": 6720,
      "Ġà®İà®£à®£à®®": 6721,
      "Ġà®µà®ķà®¤à®¤à®¤": 6722,
      "Ġ1954": 6723,
      "à®İà®©à®©à®®": 6724,
      "Ġà®İà®°à®µà®³": 6725,
      "Ġà®¤à®ķà®ķà®¤à®²à®²": 6726,
      "à®ªà®ªà®±à®±à®²": 6727,
      "Ġà®Ĩà®¸à®¤à®°à®²": 6728,
      "Ġà®¨à®¯à®³à®ķà®³à®²": 6729,
      "Ġà®Ĳà®°à®ªà®ªà®µà®©": 6730,
      "Ġà®ĩà®¯à®±à®±à®¯": 6731,
      "Ġà®ħà®®à®¨à®¤à®°à®ķà®ķà®®": 6732,
      "Ġà®ªà®£à®ªà®°à®¨à®¤": 6733,
      "Ġà®ĩà®°à®ªà®ªà®¤à®²à®²": 6734,
      "Ġà®µà®©à®®à®±": 6735,
      "Ġà®Ĳà®¤à®°à®ļà®©": 6736,
      "Ġà®®à®ķà®ķà®³à®¤à®ķà®¯à®®": 6737,
      "Ġà®Ĩà®²à®ķà®ķà®²à®ķà®³": 6738,
      "Ġà®ĩà®³à®µà®°à®ļà®©": 6739,
      "Ġà®µà®ŀà®ŀà®©": 6740,
      "Ġà®µà®ķà®ķà®ªà®ªà®Łà®¯": 6741,
      "07": 6742,
      "PU": 6743,
      "gro": 6744,
      "Ġã": 6745,
      "ĠÂł": 6746,
      "à®°à®°": 6747,
      "à®Łà®ļà®®à®ªà®°": 6748,
      "à®¯à®ķà®µ": 6749,
      "à®µà®µ": 6750,
      "Ġà®®à®¯à®°": 6751,
      "Ġà®®à®ķà®µà®°": 6752,
      "Ġà®µà®¸à®Ł": 6753,
      "Ġà®¤à®£à®®": 6754,
      "Ġà®¤à®¨à®¤à®¯": 6755,
      "à®¨à®ªà®²": 6756,
      "à®¨à®ŀà®ļ": 6757,
      "Ġà®ħà®©à®²": 6758,
      "Ġà®ħà®²à®ķà®³": 6759,
      "Ġà®ļà®ķà®²": 6760,
      "Ġà®¨à®¯à®²": 6761,
      "Ġst": 6762,
      "Ġà®Ĵà®±à®±à®®": 6763,
      "Ġà®ķà®£à®ļà®®à®©": 6764,
      "ann": 6765,
      "Ġà®ķà®Łà®ªà®ªà®Ł": 6766,
      "Ġà®ķà®Łà®ķà®ķà®ªà®ªà®Łà®Ł": 6767,
      "Ġà®µà®³à®ķà®ķà®ķà®±à®¤": 6768,
      "lop": 6769,
      "Ġà®®à®±à®µ": 6770,
      "Ġà®®à®±à®ķà®¨à®¤": 6771,
      "Ġà®Ĩà®£à®Łà®ķà®³à®©": 6772,
      "Ġà®ķà®³à®¤à®¤à®²": 6773,
      "ĠMe": 6774,
      "Ġà®īà®°à®®à®ª": 6775,
      "à®ŀà®°à®©": 6776,
      "Ġà®ªà®Łà®Łà®¯à®©": 6777,
      "Ġà®®à®¤à®µà®©": 6778,
      "Ġà®ĩà®¯à®ķà®ķà®Ļà®ķà®³": 6779,
      "Ġà®İà®©à®ªà®¤à®ª": 6780,
      "à®µà®¯à®Ł": 6781,
      "Ġà®¯à®ķà®®": 6782,
      "à®ķà®£à®¤à®¤à®²": 6783,
      "Ġ44": 6784,
      "Ġà®ħà®±à®ªà®¤": 6785,
      "ĠSer": 6786,
      "à®µà®Łà®Łà®ª": 6787,
      "Ġà®ªà®¯à®©à®ªà®Łà®¤à®¤à®ªà®ªà®Łà®ķà®©à®±à®¤": 6788,
      "Ġà®Ĭà®Łà®°": 6789,
      "Ġà®ķà®®à®ªà®²": 6790,
      "à®īà®£à®®": 6791,
      "Ġà®µà®Łà®Łà®¤à®¤à®©": 6792,
      "ĠIs": 6793,
      "Ġà®ħà®µà®¤à®°": 6794,
      "Ġà®¤à®µà®ķà®ķà®¤à®¤à®²": 6795,
      "Ġà®¨à®Łà®¤à®¤à®³à®³à®°": 6796,
      "à®ķà®Łà®Łà®²": 6797,
      "Ġà®¤à®Łà®ªà®ªà®Łà®Łà®®": 6798,
      "Ġà®ļà®´à®²à®®": 6799,
      "Ġà®µà®¤à®ª": 6800,
      "Ġà®ľà®©à®¸": 6801,
      "Ġà®µà®´à®Ļà®ķà®µ": 6802,
      "Ġà®®à®¨à®²à®Ļà®ķà®³à®²": 6803,
      "Ġà®ķà®±à®±à®ļà®ļà®°à®®": 6804,
      "Ġà®¤à®Łà®Łà®¤à®¤à®²": 6805,
      "Ġà®¤à®©à®©à®Łà®ļ": 6806,
      "Ġà®·à®ķà®¸": 6807,
      "Ġà®ªà®¤à®¤à®°à®ķà®¯": 6808,
      "Ġà®ķà®±à®ªà®ªà®Łà®ªà®ªà®Łà®Łà®³à®³à®¤": 6809,
      "Ġà®īà®Łà®©à®©": 6810,
      "Ġà®ĩà®¨à®¨à®¯": 6811,
      "Ġà®ħà®±à®¯à®ªà®ªà®Ł": 6812,
      "à®°à®¸à®Ļà®ķà®°": 6813,
      "amb": 6814,
      "à®¯à®³à®µ": 6815,
      "Ġà®ļà®¯à®¯à®ªà®ªà®Łà®Łà®©": 6816,
      "ĠUK": 6817,
      "Ġà®ħà®±à®µà®¯à®²à®³à®°à®ķà®³": 6818,
      "Ġà®¨à®®à®ªà®ķà®ķà®ķà®³": 6819,
      "Ġà®ļà®¨à®¤à®°à®®": 6820,
      "Ġà®µà®®à®©à®Ļà®ķà®³": 6821,
      "Ġà®¤à®²à®²à®¯à®®à®©": 6822,
      "Ġà®ķà®£à®ķà®ķà®Łà®ªà®ª": 6823,
      "Ġà®®à®ķà®°à®·": 6824,
      "Ġà®µà®¸à®µà®¨à®¤à®©": 6825,
      "Ġà®ĩà®ļà®¯à®®à®ªà®ªà®³à®°": 6826,
      "Ġ1929": 6827,
      "à®ķà®ķà®©à®±à®°à®ķà®³": 6828,
      "Ġà®ķà®ªà®ªà®±à®±à®¯à®¤": 6829,
      "à®ļà®Ļà®ķà®ª": 6830,
      "Ġà®Ĵà®°à®Ļà®ķà®£à®¨à®¤": 6831,
      "Ġà®ĩà®Łà®®à®ªà®±à®±à®¤": 6832,
      "Ġà®Ĩà®¯à®°à®ķà®ķà®£à®ķà®ķà®©": 6833,
      "Ġà®Ĵà®³à®ªà®°à®ªà®ª": 6834,
      "Ġà®¨à®¤à®°à®²à®¨à®¤": 6835,
      "Ġà®¤à®Łà®°à®ªà®Łà®¯à®¤": 6836,
      "Ġà®®à®¯à®¯à®´à®¤à®¤": 6837,
      "Ġà®¨à®¯à®ļà®²à®¨à®¤": 6838,
      "Ġà®®à®±à®®à®²à®°à®ļà®ļ": 6839,
      "34": 6840,
      "87": 6841,
      "OS": 6842,
      "yn": 6843,
      "Î¿": 6844,
      "Ġ*": 6845,
      "Ġpp": 6846,
      "Ġit": 6847,
      "ĨĴ": 6848,
      "à®¯à®ķà®ķà®®": 6849,
      "Ġà®®à®ķà®ķà®°": 6850,
      "Ġà®¨à®¤à®¤": 6851,
      "Ġà®¨à®ķ": 6852,
      "Ġà®Ĩà®Łà®¯": 6853,
      "Ġà®Ĩà®ªà®¸": 6854,
      "Ġà®Ĩà®ķà®ķà®Ļà®ķà®³": 6855,
      "Ġà®İà®ŀà®ļà®¯": 6856,
      "Ġà®ªà®ķà®ļ": 6857,
      "Ġà®ªà®ķà®ªà®ª": 6858,
      "Ġà®ªà®ķà®µà®¤": 6859,
      "Ġà®ĩà®°à®ķà®ķà®¤": 6860,
      "Ġà®ĩà®°à®ķà®Ļà®ķà®³à®²": 6861,
      "ink": 6862,
      "à®ķà®°à®ª": 6863,
      "Ġà®¤à®°à®ķ": 6864,
      "Ġà®®à®±à®±à®¯": 6865,
      "Ġà®µà®°à®©": 6866,
      "à®ªà®°à®ªà®ª": 6867,
      "à®¤à®°à®ļà®ļ": 6868,
      "Ġà®ªà®±à®¤": 6869,
      "Ġà®ķà®±à®ķà®©à®±à®©à®°": 6870,
      "à®µà®¤à®¯à®®": 6871,
      "Ġà®µà®³à®ķà®³à®²": 6872,
      "Ġà®µà®³à®°à®¤à®¤": 6873,
      "à®ķà®²à®ļ": 6874,
      "Ġà®ªà®²à®Ļà®ķà®³": 6875,
      "à®Łà®°à®ķà®³": 6876,
      "Ġà®ªà®¤à®ķà®³": 6877,
      "Ġà®ħà®®à®ªà®ªà®ķ": 6878,
      "Ġà®ļà®°à®ķà®ķà®ªà®ªà®Łà®Ł": 6879,
      "Ġà®ªà®Łà®°": 6880,
      "à®ĩà®¯à®ļ": 6881,
      "Ġà®ķà®Łà®Łà®¯à®¤": 6882,
      "Ġà®°à®¯à®©": 6883,
      "Ġà®°à®¤à®¯": 6884,
      "Ġà®ħà®µà®°à®Łà®©": 6885,
      "Ġà®ķà®´à®ķà®ķà®¨à®¤": 6886,
      "Ġà®ªà®£à®¯à®®": 6887,
      "Ġà®µà®²à®Ļà®ķà®©": 6888,
      "Ġà®²à®ļ": 6889,
      "Ġà®ªà®±à®±à®³à®³à®©": 6890,
      "à®ªà®ªà®°à®µà®°": 6891,
      "Ġà®¤à®®à®´à®¨à®Łà®Ł": 6892,
      "Ġà®®à®´à®ķà®ķ": 6893,
      "ĠTamil": 6894,
      "Ġà®¤à®°à®ªà®ªà®Łà®ª": 6895,
      "Ġà®ĩà®£à®¨à®¤à®°": 6896,
      "à®ļà®®à®°": 6897,
      "Ġà®ĩà®Łà®¤à®¤à®±à®ķ": 6898,
      "Ġà®ĵà®µà®¯à®®": 6899,
      "à®³à®°à®®": 6900,
      "Ġà®ħà®£à®¨à®¤": 6901,
      "Ġà®Ĭà®°à®©": 6902,
      "Ġà®ļà®©à®Ł": 6903,
      "à®ĥà®ªà®°à®®": 6904,
      "ĠĠĠĠĠĠĠ": 6905,
      "ost": 6906,
      "à®¹à®Ł": 6907,
      "ĠWe": 6908,
      "Ġà®īà®£à®£à®®": 6909,
      "Ġà®ķà®°à®¤à®ªà®ªà®Łà®ķà®±à®°": 6910,
      "Ġà®¤à®¯à®°à®ķà®ķà®®": 6911,
      "2019": 6912,
      "Ġà®ļà®¤à®¸": 6913,
      "Ġà®ļà®Ļà®ķà®ķà®²à®ª": 6914,
      "Ġà®ļà®©à®±à®¤à®´": 6915,
      "Ġà®¤à®£à®ķà®³": 6916,
      "Ġà®Ĩà®ķà®¯à®µà®±à®±à®ķà®ķ": 6917,
      "Ġà®ªà®°à®¨à®¤à®ķà®³à®³": 6918,
      "Ġà®ªà®©à®©à®ķà®ķ": 6919,
      "ĠFI": 6920,
      "Ġà®Łà®°à®ķà®©": 6921,
      "chn": 6922,
      "à®Ļà®ķà®ķà®³à®²": 6923,
      "Ġà®Ĩà®¯à®µà®³à®°": 6924,
      "Ġà®ķà®´à®¨à®¤à®ķà®³à®ķà®ķ": 6925,
      "Ġ1949": 6926,
      "Ġà®ķà®£à®Łà®¤à®ķà®®": 6927,
      "1973": 6928,
      "Ġà®®à®°à®¤à®¤à®µà®°à®ķà®³": 6929,
      "1965": 6930,
      "1966": 6931,
      "à®¨à®±à®µà®©à®®": 6932,
      "Ġà®µà®©à®±à®µà®°à®ķà®³": 6933,
      "1954": 6934,
      "Ġà®ªà®²à®®à®ªà®°": 6935,
      "Ġà®Ĵà®ªà®ªà®¨à®¤à®¤à®¤": 6936,
      "Ġà®®à®±à®®à®ķà®³": 6937,
      "Ġà®ħà®µà®³à®¤": 6938,
      "à®ªà®Ļà®ķà®³à®²": 6939,
      "Ġà®ĩà®¤à®µà®ķà®®": 6940,
      "ĠÎ¼": 6941,
      "ĠâĨĴ": 6942,
      "Ġà®ĩà®£à®¯à®¤à®³à®®": 6943,
      "Ġà®ªà®¤à®ķà®ªà®ªà®ķ": 6944,
      "Ġà®µà®´à®ķà®ķà®±à®ŀà®°": 6945,
      "Ġà®®à®¯à®ļà®ķà®¯à®¯à®²": 6946,
      "à¤°à¤": 6947,
      "Ġà®¤à®©à®¤à®¤à®µà®®à®©": 6948,
      "Ġare": 6949,
      "à®Łà®Ļ": 6950,
      "à®±à®ª": 6951,
      "à®µà®®à®©": 6952,
      "Ġà®®à®ļà®¤": 6953,
      "Ġà®®à®©à®°à®®": 6954,
      "à®¤à®¤à®ķà®ķà®³": 6955,
      "à®ļà®¯à®°": 6956,
      "Ġà®ĩà®µà®ķà®³": 6957,
      "Ġà®ĩà®ķà®ķà®Łà®Ł": 6958,
      "Ġà®¤à®¸": 6959,
      "Ġà®ħà®ļà®®": 6960,
      "Ġà®¨à®¯à®©à®°": 6961,
      "Ġà®ªà®°à®ķà®Ł": 6962,
      "à®¯à®²à®³à®°à®ķà®³": 6963,
      "Ġà®İà®©à®²": 6964,
      "Ġà®Ĵà®¤à®¤à®°": 6965,
      "Ġà®ĩà®°à®ķà®ķà®±à®°à®ķà®³": 6966,
      "à®ķà®®à®ª": 6967,
      "à®¯à®©à®¸à®ķ": 6968,
      "Ġà®¤à®°à®¤à®¤à®®": 6969,
      "Ġà®¤à®°à®ķà®ķà®¯à®²": 6970,
      "Ġà®¤à®°à®µà®°à®ļ": 6971,
      "Ġà®µà®°à®ªà®Łà®®": 6972,
      "à®¤à®°à®ķ": 6973,
      "Ġà®ªà®±à®µà®²à®²": 6974,
      "à®µà®¤à®¯": 6975,
      "Ġà®ķà®²à®Łà®©": 6976,
      "the": 6977,
      "Ġà®®à®©à®ķ": 6978,
      "Ġà®ªà®©à®¸": 6979,
      "à®ķà®ķà®ªà®ªà®©": 6980,
      "Ġà®ªà®¯à®¨à®¤": 6981,
      "Ġà®ļà®°à®Ļà®ķà®³à®®": 6982,
      "Ġà®¤à®©à®±à®©": 6983,
      "ates": 6984,
      "atch": 6985,
      "à®ĩà®¤à®¤à®°": 6986,
      "Ġà®®à®±à®©à®°": 6987,
      "Ġà®®à®±à®ªà®ķà®¤à®¯à®²": 6988,
      "Ġà®ħà®¤à®ª": 6989,
      "Ġà®Łà®©à®®": 6990,
      "Ġà®¨à®°à®£à®¯": 6991,
      "Ġà®¨à®²à®Ļà®ķà®³": 6992,
      "Ġà®ļà®¯à®ķà®±à®°": 6993,
      "Ġà®ķà®´à®ķà®¤à®¤à®©": 6994,
      "Ġà®ļà®®à®¤à®¤à®°": 6995,
      "Ġà®ļà®®à®ªà®µ": 6996,
      "Ġà®ļà®®à®ªà®¨à®¤à®°": 6997,
      "Ġà®īà®°à®®à®®": 6998,
      "à®ķà®Łà®µà®³": 6999,
      "à®ħà®¤à®©": 7000,
      "à®ħà®µà®°à®¤": 7001,
      "à®ļà®°à®µà®¤à®ļ": 7002,
      "Ġà®®à®¤à®²à®³": 7003,
      "Ġà®²à®®à®Łà®Ł": 7004,
      "Ġà®¤à®®à®´à®©": 7005,
      "à®ªà®¯à®°à®©": 7006,
      "Ġà®®à®¤à®¯": 7007,
      "Ġà®ħà®³à®µà®©": 7008,
      "Ġà®¹à®°à®¸": 7009,
      "à®¤à®®à®°": 7010,
      "Ġ47": 7011,
      "Ġà®ĩà®Łà®Ļà®ķà®³à®²à®®": 7012,
      "Ġà®īà®²à®ķà®¤": 7013,
      "à®®à®®à®¤": 7014,
      "Ġà®īà®Łà®ªà®Łà®¤à®¤": 7015,
      "Ġà®Ĭà®°à®ķà®³": 7016,
      "Ġà®ķà®©à®©à®¯à®ķà®®à®°": 7017,
      "Ġà®ķà®®à®©": 7018,
      "à®īà®³": 7019,
      "Ġà®ªà®ļà®ªà®ªà®Łà®ķà®±à®¤": 7020,
      "Ġà®¤à®µà®±à®ķ": 7021,
      "à®¯à®µà®ķà®ķ": 7022,
      "Ġà®ļà®µà®ļ": 7023,
      "Ġà®ļà®µà®Łà®©": 7024,
      "Ġà®ħà®±à®µà®±": 7025,
      "Ġà®ļà®±à®±à®ª": 7026,
      "à®ķà®Łà®Łà®ķ": 7027,
      "Ġà®Ĩà®²à®ªà®¤à®¤à®©": 7028,
      "ory": 7029,
      "Ġà®ķà®ªà®ļ": 7030,
      "Ġà®ªà®µà®°": 7031,
      "Ġà®µà®°à®®à®ªà®¯": 7032,
      "Ġà®µà®£à®Łà®®à®©à®±": 7033,
      "Ġà®ļà®¤à®©à®¯": 7034,
      "Ġà®¨à®®à®ķà®ķ": 7035,
      "à®İà®¸à®İà®®": 7036,
      "Ġà®ħà®®à®ªà®ªà®ķà®³à®²": 7037,
      "Ġà®Ĵà®³à®¯à®©": 7038,
      "Ġà®¨à®ķà®´à®ļà®ļà®¯à®©": 7039,
      "à®¤à®±à®ķà®®": 7040,
      "Ġà®®à®ķà®©à®©": 7041,
      "Ġ1939": 7042,
      "à®ķà®µà®¤à®±à®ķ": 7043,
      "Ġà®Ĩà®ķà®ļà®Ł": 7044,
      "Ġà®¨à®¯à®®à®©à®®": 7045,
      "Ġà®ªà®°à®³à®¤à®°à®¤à®¤à®²": 7046,
      "à®ªà®ªà®´à®¤à®®": 7047,
      "Ġà®Ĵà®ªà®ªà®¨à®¤à®¤à®¤à®²": 7048,
      "Ġà®ħà®ªà®ªà®¤à®¯": 7049,
      "Ġà®®à®±à®ķà®³à®³à®ªà®ªà®Łà®Ł": 7050,
      "Ġà®µà®£à®®à®©à®ķà®³": 7051,
      "Ġà®ªà®°à®®à®ªà®°à®¯à®ķ": 7052,
      "Ġà®ĩà®¨à®¨à®ķà®°à®®": 7053,
      "Ġà®ªà®¯à®°à®Łà®ªà®ªà®Łà®Łà®¤": 7054,
      "Ġà®µà®±à®±à®ķà®°à®®à®©": 7055,
      "Ġà®Ĩà®ļà®°à®¯à®°à®ķà®³": 7056,
      "Ġà®ķà®£à®¤à®µà®¯à®²à®³à®°": 7057,
      "Ġà®ķà®®à®¯à®©à®¸à®Ł": 7058,
      "Ġà®ĩà®©à®ªà®ªà®°à®ķà®ķà®®": 7059,
      "Ġà®ķà®°à®ķà®°à®¯à®©": 7060,
      "à®¨à®µà®ķà®ķà®°": 7061,
      "Ġà®¤à®®à®´à®±à®ŀà®°": 7062,
      "AP": 7063,
      "EC": 7064,
      "IS": 7065,
      "ML": 7066,
      "NT": 7067,
      "PL": 7068,
      "lu": 7069,
      "à®¤à®µà®©": 7070,
      "à®¤à®ļà®¯": 7071,
      "à®°à®ķà®ķà®±à®¤": 7072,
      "à®Łà®ķà®±à®¤": 7073,
      "à®²à®ª": 7074,
      "à®²à®¯à®²": 7075,
      "à®ļà®Łà®°": 7076,
      "Ġà®¤à®Ļà®ķà®³à®©": 7077,
      "Ġà®ħà®µà®¯": 7078,
      "Ġà®ħà®ļà®²": 7079,
      "Ġà®ļà®¯à®°": 7080,
      "Ġà®Ĩà®ķà®¸": 7081,
      "Ġà®ªà®°à®Ļ": 7082,
      "Ġà®ªà®°à®ªà®ªà®¤": 7083,
      "Ġà®İà®©à®ķà®±à®°": 7084,
      "à®£à®Łà®ķ": 7085,
      "Ġà®Ĵà®ķà®¤à®¯": 7086,
      "arch": 7087,
      "à®ķà®°à®Łà®Ł": 7088,
      "Ġà®¤à®°à®µà®ķ": 7089,
      "Ġà®ķà®°à®ªà®ªà®©": 7090,
      "Ġà®ķà®°à®ķà®ķà®Ł": 7091,
      "Ġà®ķà®±à®¤à®¤à®®": 7092,
      "Ġà®ķà®±à®¸à®Ł": 7093,
      "Ġà®ķà®Łà®ķà®ķà®ªà®ªà®±": 7094,
      "à®ķà®©à®¸à®Łà®©": 7095,
      "à®ļà®ļà®¯à®©": 7096,
      "Ġà®ķà®²à®¯à®£": 7097,
      "à®ķà®ķà®³à®ª": 7098,
      "à®ķà®²à®¯": 7099,
      "Ġà®ªà®¯à®¸": 7100,
      "Ġà®ļà®°à®ªà®¯": 7101,
      "Ġà®¤à®©à®ªà®ªà®Ł": 7102,
      "Ġà®ªà®Łà®ķà®ķà®®": 7103,
      "à®ĩà®¨à®¤à®¤": 7104,
      "Ġà®®à®±à®²": 7105,
      "Ġà®ıà®²": 7106,
      "Ġà®ķà®Łà®Łà®¯à®©": 7107,
      "Ġà®°à®ķà®ķ": 7108,
      "Ġà®Łà®¯à®©": 7109,
      "à®¨à®¤à®°à®®": 7110,
      "Ġà®ķà®³à®°à®µ": 7111,
      "Ġà®ķà®³à®ªà®Łà®©à®©": 7112,
      "Ġà®ļà®®à®¯à®²": 7113,
      "Ġà®ļà®®à®ªà®¤à®¤à®¯": 7114,
      "Ġà®ĩà®²à®Ļà®ķà®¯": 7115,
      "Ġà®īà®°à®®à®©": 7116,
      "Ġà®¤à®Łà®ªà®ªà®¤": 7117,
      "Ġà®¤à®²à®¯à®²": 7118,
      "à®ķà®ªà®ªà®®": 7119,
      "Ġà®®à®²à®®à®ķà®µà®®": 7120,
      "à®Ĩà®ķà®ļ": 7121,
      "Ġà®ļà®±à®ªà®ªà®®": 7122,
      "Ġà®ĩà®µà®°à®ķà®³à®ķà®ķ": 7123,
      "à®İà®²à®²": 7124,
      "Ġà®ħà®°à®ļà®ķà®ķ": 7125,
      "Ġà®¹à®©à®±": 7126,
      "Ġà®ħà®°à®³à®®à®ķ": 7127,
      "à®µà®Łà®µà®®": 7128,
      "Ġà®ħà®´à®ķà®ķà®ªà®ªà®Łà®ķà®©à®±à®©": 7129,
      "Ġ2020": 7130,
      "Ġà®¨à®ķà®°à®µà®°": 7131,
      "Ġà®ļà®¯à®²à®®à®±à®ķà®³": 7132,
      "Ġà®¨à®¯à®±": 7133,
      "à®¨à®Łà®¤à®¤": 7134,
      "Ġà®ªà®ļà®µà®°": 7135,
      "Ġà®µà®£à®ķà®°à®ķà®³": 7136,
      "Ġà®ªà®°à®³à®²": 7137,
      "mag": 7138,
      "à®ĩà®¨à®¤à®ª": 7139,
      "tral": 7140,
      "Ġà®¨à®Łà®Łà®°": 7141,
      "ĠHe": 7142,
      "à®ķà®ªà®ªà®Łà®®": 7143,
      "Ġà®Ĩà®²à®ªà®¤à®¤": 7144,
      "Ġà®ķà®ªà®ªà®³": 7145,
      "Ġà®ļà®´à®°": 7146,
      "Ġà®ķà®°à®¤à®ķà®³": 7147,
      "2015": 7148,
      "Ġà®ªà®µà®£à®Ł": 7149,
      "Ġà®ªà®Łà®Łà®¯à®²à®ķà®³": 7150,
      "Ġà®ķà®±à®±à®ªà®ªà®Ł": 7151,
      "à®¨à®°à®¤à®¤à®²": 7152,
      "Ġà®¨à®®à®ªà®¯à®°": 7153,
      "Ġà®ªà®¤à®¤à®°à®ķ": 7154,
      "Ġ2017": 7155,
      "Ġà®īà®³à®ªà®ªà®£": 7156,
      "Ġà®ĩà®³à®¯": 7157,
      "à®ĩà®°à®ªà®¤à®®": 7158,
      "Ġà®ķà®µà®²à®¤à®±": 7159,
      "Ġà®®à®¤à®©à®®à®¤à®²à®ķ": 7160,
      "ĠOffic": 7161,
      "Ġà®µà®°à®Łà®Ļà®ķà®³à®ķà®ķ": 7162,
      "1962": 7163,
      "ages": 7164,
      "Ġ1952": 7165,
      "Ġà®ĩà®Łà®¯à®¯à®©": 7166,
      "Ġà®ľà®°à®®à®©à®¯à®ª": 7167,
      "Ġà®¤à®±à®ķà®²à®ķ": 7168,
      "Ġà®¤à®±à®ķà®²à®¤à®¤à®²": 7169,
      "Ġà®ĩà®°à®ļà®ļà®¯": 7170,
      "à®ķà®ķà®©à®±à®°": 7171,
      "Ġà®¨à®Łà®³à®®à®©à®±à®¤": 7172,
      "Ġà®ĩà®°à®ķà®®à®ķà®¯": 7173,
      "Ġà®µà®ķà®¯à®ļ": 7174,
      "Ġà®µà®´à®µà®ķà®¤à®¤à®¤": 7175,
      "Ġà®Łà®°à®©à®¸": 7176,
      "Ġà®®à®ķà®£à®¤à®¤à®²": 7177,
      "Ġà®İà®ļà®ªà®ªà®©": 7178,
      "Ġà®ħà®®à®¨à®¤à®°à®¨à®¤à®¤": 7179,
      "Ġà®¤à®¤à®¤à®ķà®ķà®Ł": 7180,
      "Ġà®ĩà®ļà®ķà®ķà®´à®µà®©à®°": 7181,
      "Ġà®īà®¤à®¤à®ķà®³": 7182,
      "ĠComp": 7183,
      "à®ķà®ķà®ķà®Łà®¯": 7184,
      "Ġà®Ĩà®°à®®à®ªà®®à®©à®¤": 7185,
      "ĠIndian": 7186,
      "Ġà®¹à®Łà®°à®ľà®©": 7187,
      "stitu": 7188,
      "Ġà®ªà®Łà®¤à®¤à®¯à®³à®³à®°": 7189,
      "Ġà®µà®ķà®ķà®ķà®Łà®Ł": 7190,
      "Ġj": 7191,
      "à®Łà®¤à®±": 7192,
      "à®¯à®ķà®ª": 7193,
      "Ġà®µà®ķà®µ": 7194,
      "à®¨à®ķà®ķà®®": 7195,
      "Ġà®¨à®ķà®ķà®Ļà®ķà®³": 7196,
      "à®ªà®ªà®Ļà®ķà®³": 7197,
      "Ġà®ªà®°à®¤à®¤à®²": 7198,
      "à®Łà®Łà®©à®°": 7199,
      "à®¯à®²à®²à®®": 7200,
      "à®£à®Łà®¯": 7201,
      "Ġse": 7202,
      "Ġà®Ĵà®ªà®ªà®®": 7203,
      "à®¤à®²à®Ļà®ķ": 7204,
      "Ġà®¤à®°à®ªà®¤": 7205,
      "Ġà®ķà®£à®©à®ķà®³": 7206,
      "Ġà®ªà®±à®ķà®±à®¤": 7207,
      "Ġà®ķà®±à®ķà®ķà®©à®±à®©": 7208,
      "à®ķà®©à®¸": 7209,
      "à®µà®¤à®ķà®ķ": 7210,
      "Ġà®ªà®²à®¤": 7211,
      "Ġà®ªà®¤à®ķà®µà®²": 7212,
      "Ġà®ªà®¯à®Ļà®ķà®°": 7213,
      "Ġà®ªà®Łà®ķà®³à®©": 7214,
      "à®ĩà®¤à®¤à®²": 7215,
      "Ġà®ķà®Łà®Łà®Ļà®ķà®³": 7216,
      "Ġà®°à®ľà®©": 7217,
      "Ġà®ķà®£à®Łà®µà®°à®ķà®³": 7218,
      "Ġà®Łà®ª": 7219,
      "Ġà®¨à®°à®¯à®°à®²": 7220,
      "Ġà®¨à®°à®®à®´à®ķà®ķ": 7221,
      "à®°à®ļà®°": 7222,
      "Ġà®ļà®²à®¤à®¤à®®": 7223,
      "Ġà®µà®Łà®¤": 7224,
      "Ġà®ķà®³à®¯": 7225,
      "Ġà®ķà®³à®°à®¨à®¤": 7226,
      "Ġà®ªà®£à®¤à®¤": 7227,
      "Ġà®ªà®£à®ķà®³à®²": 7228,
      "Ġà®ĩà®²à®ķà®µ": 7229,
      "Ġà®¤à®Łà®Ļà®ķà®®": 7230,
      "à®ķà®ķà®±à®ª": 7231,
      "à®ļà®°à®¯à®°à®ķà®³": 7232,
      "Ġà®®à®¤à®²à®µà®°": 7233,
      "Ġà®µà®²à®µ": 7234,
      "à®ķà®ªà®ªà®£": 7235,
      "Ġà®ļà®±à®µà®°à®ķà®³": 7236,
      "Ġà®¯à®ľà®©": 7237,
      "Ġà®ªà®ķà®¤à®°à®ķà®³": 7238,
      "Ġà®ħà®³à®ªà®ªà®¤": 7239,
      "Ġà®Ĳà®ª": 7240,
      "Ġà®¹à®°à®®à®©": 7241,
      "Ġà®ħà®°à®ļà®ļà®¨à®¤à®°à®©": 7242,
      "Ġà®ħà®´à®ķà®ķà®ªà®ªà®Łà®Łà®°": 7243,
      "Ġà®¸à®ªà®¯à®©": 7244,
      "à®µà®±à®ķà®ķ": 7245,
      "Ġà®¨à®¯à®Łà®®": 7246,
      "Ġà®ĩà®ļà®¯à®©": 7247,
      "à®ķà®¤à®¤à®¯à®®": 7248,
      "à®ªà®ªà®Łà®¤à®¤à®±à®ķ": 7249,
      "ĠWW": 7250,
      "ystem": 7251,
      "Ġà®ĩà®Łà®®à®ķ": 7252,
      "à®ªà®ªà®¯à®©": 7253,
      "Ġà®ªà®Ļà®ķà®¤à®°": 7254,
      "Ġà®ªà®©à®©à®°à®£à®Ł": 7255,
      "Ġà®ķà®ªà®ªà®©": 7256,
      "Ġà®ªà®³à®³à®¤à®¤": 7257,
      "Ġà®ªà®³à®³à®¯à®°": 7258,
      "Ġà®¤à®´à®²à®¤à®±": 7259,
      "à®ĩà®²à®Ļà®ķà®¯à®²": 7260,
      "Ġà®ªà®°à®µà®¯à®¤": 7261,
      "Ġà®¤à®£à®Łà®®à®©": 7262,
      "à®¤à®®à®´à®°": 7263,
      "à®¤à®®à®´à®¨à®Łà®Łà®²": 7264,
      "ĠFor": 7265,
      "Ġà®Łà®°à®£à®Ł": 7266,
      "Ġà®Ĩà®£à®ķà®³à®©": 7267,
      "Ġà®µà®Łà®µà®¤à®¤": 7268,
      "Ġà®ĩà®¯à®²à®ªà®ķà®³": 7269,
      "à®¯à®ļà®Ļà®ķà®°": 7270,
      "ĠĊĊĠĊ": 7271,
      "Ġà®İà®²à®ļ": 7272,
      "Ġà®¤à®²à®²à®¯à®®à®ķ": 7273,
      "Ġà®ªà®¨à®¤à®ķà®³à®²": 7274,
      "Ġ1956": 7275,
      "Ġà®ªà®¤à®©à®Ļà®ķà®³": 7276,
      "Ġà®µà®¯à®¤à®ķà®ķà®Łà®ªà®Łà®Ł": 7277,
      "ĠInternational": 7278,
      "Ġà®ļà®°à®®à®Ļà®ķà®³": 7279,
      "Ġà®µà®³à®°à®ªà®ª": 7280,
      "à®ªà®ªà®ªà®Łà®Ł": 7281,
      "Ġà®ĩà®°à®ļà®ļà®¯à®¤à®¤": 7282,
      "Ġà®İà®©à®©à®µà®©à®±à®²": 7283,
      "à®µà®£à®Łà®¸": 7284,
      "tail": 7285,
      "Ġà®ķà®©à®Łà®µà®²": 7286,
      "Ġà®®à®ķà®£à®¤à®¤à®©": 7287,
      "Ġà®µà®ªà®ªà®¨à®²à®¯à®²": 7288,
      "Ġà®ļà®¤à®®à®ªà®°à®®": 7289,
      "Ġà®ļà®¯à®±à®ķà®ķà®ķà®³à®ķà®³": 7290,
      "Ġà®ħà®´à®ķà®ķà®ªà®ªà®Łà®ķà®©à®±à®¤": 7291,
      "Ġà®ªà®Łà®ªà®ªà®Łà®ªà®ª": 7292,
      "Ġà®īà®Łà®±à®ªà®¯à®±à®ļ": 7293,
      "à®®à®²à®²à®¯à®©": 7294,
      "Ġà®²à®£à®Łà®©à®²": 7295,
      "Ġà®¨à®±à®®à®±à®ļà®°": 7296,
      "Ġà®ĩà®¤à®¯à®®à®Ł": 7297,
      "Ġà®ķà®°à®·à®£à®®à®°à®¤à®¤": 7298,
      "Ġà®ªà®°à®¤à®¨à®¤à®¤à®¤à®µà®ª": 7299,
      "à®ĩà®Ļà®ķà®²à®¨à®¤à®¤": 7300,
      "Ġà®ªà®©à®¯à®±à®µ": 7301,
      "Ġà®¤à®°à®µà®£à®£à®®à®²": 7302,
      "04": 7303,
      "55": 7304,
      "69": 7305,
      "BC": 7306,
      "IA": 7307,
      "ied": 7308,
      "ox": 7309,
      "tic": 7310,
      "à®²à®¸": 7311,
      "à®®à®¸": 7312,
      "à®±à®µà®©": 7313,
      "Ġà®®à®¨à®Łà®Łà®²": 7314,
      "Ġà®ĩà®¤à®¤à®©": 7315,
      "Ġà®ħà®ķà®ķà®²": 7316,
      "Ġà®ħà®ķà®°à®¤": 7317,
      "Ġà®ļà®²à®²à®¤": 7318,
      "Ġà®¨à®¸": 7319,
      "Ġà®¨à®¯à®Ł": 7320,
      "Ġà®¨à®ļà®µ": 7321,
      "à®Ļà®ķà®´": 7322,
      "à®ªà®¤à®¤à®¤": 7323,
      "à®ªà®ķà®¸": 7324,
      "Ġà®İà®ĥà®ª": 7325,
      "Ġà®ªà®°à®Łà®©": 7326,
      "Ġà®ªà®°à®ķà®ļ": 7327,
[...]
