{
  "version": "1.0",
  "truncation": null,
  "padding": null,
  "added_tokens": [
    {
      "id": 0,
      "content": "[UNK]",
      "single_word": false,
      "lstrip": false,
      "rstrip": false,
      "normalized": false,
      "special": true
    },
    {
      "id": 1,
      "content": "[PAD]",
      "single_word": false,
      "lstrip": false,
      "rstrip": false,
      "normalized": false,
      "special": true
    },
    {
      "id": 2,
      "content": "[CLS]",
      "single_word": false,
      "lstrip": false,
      "rstrip": false,
      "normalized": false,
      "special": true
    },
    {
      "id": 3,
      "content": "[SEP]",
      "single_word": false,
      "lstrip": false,
      "rstrip": false,
      "normalized": false,
      "special": true
    },
    {
      "id": 4,
      "content": "[MASK]",
      "single_word": false,
      "lstrip": false,
      "rstrip": false,
      "normalized": false,
      "special": true
    }
  ],
  "normalizer": {
    "type": "Sequence",
    "normalizers": [
      {
        "type": "NFD"
      },
      {
        "type": "StripAccents"
      }
    ]
  },
  "pre_tokenizer": {
    "type": "ByteLevel",
    "add_prefix_space": false,
    "trim_offsets": true,
    "use_regex": true
  },
  "post_processor": null,
  "decoder": {
    "type": "ByteLevel",
    "add_prefix_space": true,
    "trim_offsets": true,
    "use_regex": true
  },
  "model": {
    "type": "BPE",
    "dropout": null,
    "unk_token": "[UNK]",
    "continuing_subword_prefix": null,
    "end_of_word_suffix": null,
    "fuse_unk": false,
    "byte_fallback": false,
    "ignore_merges": false,
    "vocab": {
      "[UNK]": 0,
      "[PAD]": 1,
      "[CLS]": 2,
      "[SEP]": 3,
      "[MASK]": 4,
      "!": 5,
      "\"": 6,
      "#": 7,
      "$": 8,
      "%": 9,
      "&": 10,
      "'": 11,
      "(": 12,
      ")": 13,
      "*": 14,
      "+": 15,
      ",": 16,
      "-": 17,
      ".": 18,
      "/": 19,
      "0": 20,
      "1": 21,
      "2": 22,
      "3": 23,
      "4": 24,
      "5": 25,
      "6": 26,
      "7": 27,
      "8": 28,
      "9": 29,
      ":": 30,
      ";": 31,
      "<": 32,
      "=": 33,
      ">": 34,
      "?": 35,
      "@": 36,
      "A": 37,
      "B": 38,
      "C": 39,
      "D": 40,
      "E": 41,
      "F": 42,
      "G": 43,
      "H": 44,
      "I": 45,
      "J": 46,
      "K": 47,
      "L": 48,
      "M": 49,
      "N": 50,
      "O": 51,
      "P": 52,
      "Q": 53,
      "R": 54,
      "S": 55,
      "T": 56,
      "U": 57,
      "V": 58,
      "W": 59,
      "X": 60,
      "Y": 61,
      "Z": 62,
      "[": 63,
      "\\": 64,
      "]": 65,
      "^": 66,
      "_": 67,
      "`": 68,
      "a": 69,
      "b": 70,
      "c": 71,
      "d": 72,
      "e": 73,
      "f": 74,
      "g": 75,
      "h": 76,
      "i": 77,
      "j": 78,
      "k": 79,
      "l": 80,
      "m": 81,
      "n": 82,
      "o": 83,
      "p": 84,
      "q": 85,
      "r": 86,
      "s": 87,
      "t": 88,
      "u": 89,
      "v": 90,
      "w": 91,
      "x": 92,
      "y": 93,
      "z": 94,
      "{": 95,
      "|": 96,
      "}": 97,
      "~": 98,
      "¡": 99,
      "¢": 100,
      "£": 101,
      "¤": 102,
      "¥": 103,
      "¦": 104,
      "§": 105,
      "¨": 106,
      "©": 107,
      "ª": 108,
      "«": 109,
      "¬": 110,
      "®": 111,
      "¯": 112,
      "°": 113,
      "±": 114,
      "²": 115,
      "³": 116,
      "´": 117,
      "µ": 118,
      "¶": 119,
      "·": 120,
      "¸": 121,
      "¹": 122,
      "º": 123,
      "»": 124,
      "¼": 125,
      "½": 126,
      "¾": 127,
      "¿": 128,
      "Â": 129,
      "Ã": 130,
      "Ä": 131,
      "Å": 132,
      "Æ": 133,
      "Ç": 134,
      "È": 135,
      "É": 136,
      "Ê": 137,
      "Ë": 138,
      "Î": 139,
      "Ï": 140,
      "Ð": 141,
      "Ñ": 142,
      "Ò": 143,
      "Ó": 144,
      "Ô": 145,
      "Õ": 146,
      "Ö": 147,
      "×": 148,
      "Ø": 149,
      "Ù": 150,
      "Ú": 151,
      "Û": 152,
      "Ü": 153,
      "Ý": 154,
      "Þ": 155,
      "à": 156,
      "á": 157,
      "â": 158,
      "ã": 159,
      "ä": 160,
      "å": 161,
      "æ": 162,
      "ç": 163,
      "è": 164,
      "é": 165,
      "ê": 166,
      "ï": 167,
      "ð": 168,
      "ĉ": 169,
      "Ċ": 170,
      "Ġ": 171,
      "Ģ": 172,
      "ģ": 173,
      "Ĥ": 174,
      "ĥ": 175,
      "Ħ": 176,
      "ħ": 177,
      "Ĩ": 178,
      "ĩ": 179,
      "Ī": 180,
      "ī": 181,
      "Ĭ": 182,
      "ĭ": 183,
      "Į": 184,
      "į": 185,
      "İ": 186,
      "ı": 187,
      "Ĳ": 188,
      "ĳ": 189,
      "Ĵ": 190,
      "ĵ": 191,
      "Ķ": 192,
      "ķ": 193,
      "ĸ": 194,
      "Ĺ": 195,
      "ĺ": 196,
      "Ļ": 197,
      "ļ": 198,
      "Ľ": 199,
      "ľ": 200,
      "Ŀ": 201,
      "ŀ": 202,
      "Ł": 203,
      "ł": 204,
      "Ń": 205,
      "à®": 206,
      "Ġà®": 207,
      "ķà®": 208,
      "à®¤": 209,
      "ªà®": 210,
      "à®ķà®": 211,
      "à®°": 212,
      "à®Ł": 213,
      "à®®": 214,
      "à®©": 215,
      "à®²": 216,
      "à®¯": 217,
      "à®±": 218,
      "à®µ": 219,
      "à®ªà®": 220,
      "Ġà®ªà®": 221,
      "Ġà®ķà®": 222,
      "Ġà®®": 223,
      "à®¤à®¤": 224,
      "à®ķà®³": 225,
      "à®ļ": 226,
      "à®³": 227,
      "à®ķà®ķà®": 228,
      "Ġà®¤": 229,
      "Ġà®ĩ": 230,
      "Ġà®µ": 231,
      "à®¨": 232,
      "Ġà®ħ": 233,
      "Ġà®ļ": 234,
      "à®ªà®ªà®": 235,
      "à®ķ": 236,
      "à®£": 237,
      "à®¨à®¤": 238,
      "Ġà®¨": 239,
      "à®Ļ": 240,
      "Łà®Ł": 241,
      "Ġà®İ": 242,
      "à®´": 243,
      "Ġà®Ĩ": 244,
      "à®ª": 245,
      "à®µà®°": 246,
      "Ġà®ī": 247,
      "à®Łà®Ł": 248,
      "à®±à®±": 249,
      "Ġà®ªà®°": 250,
      "à®¯à®²": 251,
      "à®ķà®ķ": 252,
      "Ġà®İà®©": 253,
      "à®£à®Ł": 254,
      "Ġà®Ĵ": 255,
      "à®Ļà®ķà®³": 256,
      "à®ªà®ªà®Ł": 257,
      "à®¤à®²": 258,
      "Ġ(": 259,
      "à®³à®³": 260,
      "Ġà®ĩà®°": 261,
      "à®ķà®®": 262,
      "Ġ1": 263,
      "à®²à®®": 264,
      "Ġà®¤à®°": 265,
      "à®¯à®®": 266,
      "ªà®ªà®": 267,
      "à®ªà®ª": 268,
      "à®¯à®©": 269,
      "Ġà®ķà®£": 270,
      "à®ķà®°": 271,
      "à®ªà®°": 272,
      "à®¤à®©": 273,
      "Ġà®µà®°": 274,
      "à®²à®²": 275,
      "à®ªà®ªà®Łà®Ł": 276,
      "Ġà®ª": 277,
      "à®Ļà®ķà®": 278,
      "à®¸": 279,
      "à®ªà®Ł": 280,
      "Ġà®ªà®±": 281,
      "à®¤à®°": 282,
      "à®¯à®°": 283,
      "à®¤à®¤à®²": 284,
      "Ġà®ķà®Ł": 285,
      "Ġà®®à®±à®±": 286,
      "Ġà®ķà®°": 287,
      "Ġà®ķà®²": 288,
      "à®µà®©": 289,
      "à®®à®©": 290,
      "à®ķà®ķà®®": 291,
      "Ġà®ķà®±": 292,
      "à®ļà®ļ": 293,
      "Ġà®¨à®Ł": 294,
      "à®µà®¤": 295,
      "à®©à®°": 296,
      "©à®±": 297,
      "Ġà®µà®³": 298,
      "Ġà®¤à®Ł": 299,
      "Ġà®Ĵà®°": 300,
      "Ġà®®à®©": 301,
      "Ġà®ªà®²": 302,
      "à®°à®ķà®³": 303,
      "Ġà®®à®±à®±à®®": 304,
      "à®ķà®±": 305,
      "à®ķà®¤": 306,
      "à®ĩ": 307,
      "à®ķà®ķà®³": 308,
      "Ġ2": 309,
      "ķà®³": 310,
      "Ġà®ħà®®": 311,
      "à®ķà®ķà®ªà®ªà®": 312,
      "à®°à®¨à®¤": 313,
      "Ġà®ªà®¯": 314,
      "Ġà®ªà®¤": 315,
      "ĠĊ": 316,
      "Ġà®ªà®Ł": 317,
      "à®ªà®¤": 318,
      "Ġà®ķà®£à®Ł": 319,
      "Ġà®¤à®©": 320,
      "00": 321,
      "Ġà®ĩà®¨à®¤": 322,
      "à®ķà®¯": 323,
      "Ġà®µà®´": 324,
      "à®®à®´": 325,
      "Ġà®İà®©à®±": 326,
      "à®µà®²": 327,
      "ĠĠ": 328,
      "à®°à®ļ": 329,
      "à®©à®±": 330,
      "à®¯à®¤": 331,
      "à®ķà®µ": 332,
      "Ġ19": 333,
      "Ġà®ªà®ķà®": 334,
      "Ġà®®à®±": 335,
      "Ġà®īà®³à®³": 336,
      "à®°à®®": 337,
      "à®ķà®³à®²": 338,
      "à®¤à®¤à®©": 339,
      "à®Łà®©": 340,
      "Ġà®ı": 341,
      "Ġà®ķà®Łà®Ł": 342,
      "à®ķà®²": 343,
      "Ġà®¨à®²": 344,
      "Ġà®ļà®²": 345,
      "Ġà®Ĩà®£à®Ł": 346,
      "Ġ-": 347,
      "à®ķà®ķà®¯": 348,
      "Ġà®ħà®¤": 349,
      "âĢ": 350,
      "Ġà®ĩà®¤": 351,
      "à®¤à®¤à®°": 352,
      "Ġà®ªà®©": 353,
      "Ġà®°": 354,
      "Ġà®ļà®°": 355,
      "à®®à®ªà®": 356,
      "Ġà®ªà®£": 357,
      "à®ķà®±à®¤": 358,
      "Ġà®µà®Ł": 359,
      "Ġà®ªà®Łà®Ł": 360,
      "à®¯à®ķ": 361,
      "à®ķà®ķà®ªà®ªà®Łà®Ł": 362,
      "Ġà®ħà®µà®°": 363,
      "Ġà®ĩà®²": 364,
      "à®ķà®©à®±": 365,
      "Ġà®Ł": 366,
      "Ġà®ļà®¯": 367,
      "Ġà®ķà®´": 368,
      "à®©à®®": 369,
      "à®µà®®": 370,
      "Ġà®¤à®®à®´": 371,
      "à®ľ": 372,
      "Ġà®ħà®Ł": 373,
      "19": 374,
      "à®ªà®ªà®ķà®³": 375,
      "Ġà®®à®¤à®²": 376,
      "à®±à®ķ": 377,
      "à®°à®µ": 378,
      "Ġà®ķà®³": 379,
      "à®¨à®¤à®¤": 380,
      "à®£à®®": 381,
      "Ġà®ªà®±à®±": 382,
      "à®Ļà®ķ": 383,
      "Ġà®ľ": 384,
      "à®ļà®¯": 385,
      "à®¨à®¤à®°": 386,
      "à®ķà®©": 387,
      "à®µà®³": 388,
      "à®ķà®ķà®°": 389,
      "Ġà®¨à®±": 390,
      "Ġà®ļà®±": 391,
      "Ġà®ĩà®Ł": 392,
      "Ġà®ļà®®": 393,
      "Ġà®¤à®²": 394,
      "Ġà®ĩà®µà®°": 395,
      "à®ħ": 396,
      "Ġà®ħà®±": 397,
      "à®ŀ": 398,
      "Ġà®®à®²": 399,
      "à®ªà®ªà®©": 400,
      "à®ķà®ķà®±": 401,
      "à®ķà®ķà®²": 402,
      "à®Ĩ": 403,
      "Ġà®®à®°": 404,
      "à®ķà®³à®©": 405,
      "à®ķà®ķà®¤": 406,
      "à®ªà®Łà®Ł": 407,
      "an": 408,
      "à®®à®±": 409,
      "Ġà®¤à®Łà®ªà®ªà®Łà®Ł": 410,
      "Ġà®®à®Ł": 411,
      "à®µà®±à®±": 412,
      "à®¯à®Ł": 413,
      "à®²à®²à®¤": 414,
      "er": 415,
      "à®ļà®°": 416,
      "Ġà®ĩà®°à®¨à®¤": 417,
      "à®©à®©": 418,
      "Ġà®¨à®°": 419,
      "ĠâĢ": 420,
      "à®ªà®ªà®°": 421,
      "à®ķà®ķà®Ł": 422,
      "à®ķà®ļ": 423,
      "à®Łà®Łà®®": 424,
      "Ġà®®à®´": 425,
      "Ġà®ħà®°à®ļ": 426,
      "à®ªà®ªà®¤": 427,
      "à®µà®ķà®³": 428,
      "à®µà®Ł": 429,
      "à®ķà®Ł": 430,
      "Ġà®ªà®¯à®©": 431,
      "Ġà®ĩà®£": 432,
      "Ġà®µà®²": 433,
      "à®ªà®Łà®¤à®¤": 434,
      "Ġà®ĩà®¯": 435,
      "Ġà®®à®²à®®": 436,
      "Ġà®İà®©à®ªà®¤": 437,
      "à®¨à®²": 438,
      "on": 439,
      "Ġà®Ĩà®®": 440,
      "Ġà®¤à®±": 441,
      "Ġà®®à®¤": 442,
      "à®Ļà®ķà®²": 443,
      "Ġà®¤à®°à®ªà®ªà®Ł": 444,
      "in": 445,
      "à®ķà®µà®®": 446,
      "Ġà®²": 447,
      "à®ķà®ª": 448,
      "Ġà®İà®´": 449,
      "à®ķà®ķà®µ": 450,
      "à®ªà®©": 451,
      "à®ķà®´": 452,
      "Ġ\"": 453,
      "Ġà®ķà®µ": 454,
      "Ġà®Ĩà®ķà®¯": 455,
      "Ġà®ħà®²à®²à®¤": 456,
      "à®Łà®ļ": 457,
      "Ġà®ķà®¤": 458,
      "Ġà®ªà®ķà®¤": 459,
      "à®İ": 460,
      "à®µà®¯": 461,
      "à®©à®²": 462,
      "Ġà®¯": 463,
      "Ġ200": 464,
      "à®ªà®²": 465,
      "à®ķà®ķà®©": 466,
      "Ġà®ħà®£": 467,
      "à®Łà®°": 468,
      "Ġà®ĵ": 469,
      "Ġà®īà®±": 470,
      "Ġà®Ĳ": 471,
      "à®£à®Łà®®": 472,
      "à®ªà®ªà®ķà®": 473,
      "à®ķà®ķà®ªà®ªà®Ł": 474,
      "à®ªà®¯": 475,
      "Ġà®ħà®³": 476,
      "à®¤à®®": 477,
      "à®ļà®²": 478,
      "Ġà®ªà®©à®±": 479,
      "Ġà®ĩà®±": 480,
      "ĠĠĠĠ": 481,
      "Ġà®¨à®ķà®°": 482,
      "à®³à®³à®¤": 483,
      "à®µà®±": 484,
      "Ġà®īà®¯à®°": 485,
      "à®ķà®©à®±à®©": 486,
      "à®ªà®±": 487,
      "à®µà®Łà®Ł": 488,
      "ĠâĢĵ": 489,
      "à®ļà®®": 490,
      "à®ķà®ªà®ªà®": 491,
      "à®µà®ķ": 492,
      "à®ªà®ķà®": 493,
      "à®ļà®©": 494,
      "à®Łà®¯": 495,
      "à®·": 496,
      "at": 497,
      "Ġà®ıà®±": 498,
      "Ġà®ĩà®¨à®¤à®¯": 499,
      "al": 500,
      "à®Ļà®ķà®³à®²": 501,
      "Ġà®Ĵà®©à®±": 502,
      "à®ķà®£": 503,
      "à®ªà®ªà®Łà®®": 504,
      "ar": 505,
      "Ġà®ħà®°": 506,
      "Ġà®ħà®´": 507,
      "Ļà®ķà®³": 508,
      "Ġà®¹": 509,
      "Ġà®®à®ķà®ķà®³": 510,
      "à®Ļà®ķà®¯": 511,
      "or": 512,
      "à®µà®°à®ķà®³": 513,
      "¨à®¤": 514,
      "Ġà®Ĩà®ķà®®": 515,
      "à®¤à®¤à®¤": 516,
      "à®ªà®µ": 517,
      "en": 518,
      "à®Łà®®": 519,
      "01": 520,
      "Ġà®ªà®³": 521,
      "),": 522,
      "Ġà®īà®²": 523,
      "Ġà®īà®°à®µ": 524,
      "à®¨à®Ł": 525,
      "Ġà®ªà®°à®®": 526,
      "à®£à®£": 527,
      "à®¯à®Łà®Ł": 528,
      "Ġà®ķà®¯": 529,
      "à®³à®®": 530,
      "Ġà®ĩà®¤à®©": 531,
      "Ġà®ķà®®": 532,
      "Ġà®ħà®©": 533,
      "Ġ3": 534,
      "à®°à®©": 535,
      "Ġà®ªà®¯à®©à®ªà®Łà®¤à®¤": 536,
      "Ġà®Ĭ": 537,
      "Ġà®ĩà®µ": 538,
      "es": 539,
      "Ġà®¤à®´": 540,
      "Ġà®ļà®¯à®²": 541,
      "Ġà®ªà®ļ": 542,
      "à®®à®®": 543,
      "à®ķà®ķà®£": 544,
      "à®ķà®ķà®ķà®": 545,
      "Ġà®İà®¤à®°": 546,
      "à®ķà®ķà®ķ": 547,
      "à®µà®¯à®²": 548,
      "à®¤à®¯": 549,
      "Ġà®īà®Ł": 550,
      "Ġà®¨à®Łà®¤à®¤": 551,
      "à®²à®ķà®³": 552,
      "à®³à®°": 553,
      "Ġà®¤à®Łà®°": 554,
      "Ġà®¸": 555,
      "Ġà®ħà®®à®°": 556,
      "Ġà®ªà®¯à®°": 557,
      "à®ªà®ªà®Łà®Łà®¤": 558,
      "ic": 559,
      "Ġà®¨à®©": 560,
      "Ġà®İà®©à®©à®®": 561,
      "Ġà®ļà®©": 562,
      "Ġà®µà®Łà®Ł": 563,
      "à®Ļà®ķà®®": 564,
      "à®ī": 565,
      "à®¤à®¤à®®": 566,
      "Ġà®ħà®¤à®©": 567,
      "ĠS": 568,
      "à®¯à®±": 569,
      "Ġà®ļà®µ": 570,
      "Ġà®Ī": 571,
      "Ġà®ĩà®ļ": 572,
      "th": 573,
      "Ġà®ļà®¯à®¯": 574,
      "Ġà®ĩà®©": 575,
      "à®ķà®ķà®±à®¤": 576,
      "Ġà®¨à®¯": 577,
      "à®®à®±à®ķà®³": 578,
      "à®ĩà®¨à®¤": 579,
      "à®ªà®¤à®¤": 580,
      "is": 581,
      "ĠC": 582,
      "Ġà®¨à®ķà®´": 583,
      "Ġà®ªà®°à®³": 584,
      "à®µà®´": 585,
      "à®ķà®ķà®ª": 586,
      "Ġà®ªà®´": 587,
      "Ġà®µà®±": 588,
      "à®ķà®³à®®": 589,
      "à®ªà®ªà®Łà®¤à®¤": 590,
      "à®ĥ": 591,
      "à®ªà®ªà®Łà®ķà®±à®¤": 592,
      "Ġà®¤à®Łà®ªà®ªà®Łà®Łà®ª": 593,
      "Ġà®ªà®Ļ": 594,
      "à®ķà®ķà®©à®±": 595,
      "Ġà®¨à®±à®µà®©": 596,
      "Ġà®ķà®©": 597,
      "Ġà®Ĩà®°": 598,
      "Ġà®ļà®Łà®Ł": 599,
      "ĠA": 600,
      "Ġà®ħà®²": 601,
      "Ġà®İà®Ł": 602,
      "à®¯à®µ": 603,
      "à®ªà®ªà®²": 604,
      "Ġ18": 605,
      "Ġà®ļà®°à®¨à®¤": 606,
      "Ġà®ĩà®°à®£à®Ł": 607,
      "à®¤à®¤à®ķ": 608,
      "à®®à®°": 609,
      "Ġà®ħà®µ": 610,
      "à®ķà®ªà®": 611,
      "Ġà®ļà®¯à®¤": 612,
      "Ġà®¤à®µ": 613,
      "Ġà®ªà®Łà®Łà®¯à®²": 614,
      "Ġà®¤à®°à®ªà®ªà®Łà®Ļà®ķà®³": 615,
      "à®®à®²": 616,
      "Ġà®¤à®Łà®ªà®ªà®Łà®Łà®ķà®ķà®°": 617,
      "Ġà®µà®£": 618,
      "à®³à®³à®°": 619,
      "à®ŀà®ļ": 620,
      "Ġà®īà®³à®³à®¤": 621,
      "it": 622,
      "Ġà®®à®©à®±": 623,
      "à®ķà®¤à®¤": 624,
      "à®ķà®³à®ķà®ķ": 625,
      "ion": 626,
      "Ġà®µà®³à®¯à®Łà®Ł": 627,
      "Ġà®ļà®¨à®¤": 628,
      "of": 629,
      "à®®à®©à®±": 630,
      "Ġà®®à®¤à®¤": 631,
      "Ġà®¤à®°à®µ": 632,
      "Ġà®µà®ļ": 633,
      "ĠP": 634,
      "à®®à®ķ": 635,
      "Ġà®¨à®Łà®Ł": 636,
      "à®ĩà®²": 637,
      "à®ķà®ķà®´": 638,
      "Ġà®µà®¯": 639,
      "à®³à®°à®ķà®³": 640,
      "Ġ4": 641,
      "à®¤à®¤à®±": 642,
      "Ġà®ªà®³à®³": 643,
      "à®ªà®Łà®®": 644,
      "Ġà®®à®©à®©": 645,
      "ĊĊ": 646,
      "à®ªà®ªà®³": 647,
      "à®¹": 648,
      "Ġ201": 649,
      "Ġà®ļà®±à®±": 650,
      "à®ķà®¸": 651,
      "à®¤à®±": 652,
      "Ġà®ªà®©à®©à®°": 653,
      "Ġà®Ĩà®£à®Łà®²": 654,
      "à®®à®±à®ķà®³à®ķà®³": 655,
      "Ġà®ķà®ªà®ªà®": 656,
      "à®Ĩà®®": 657,
      "à®ķà®ķà®Łà®Ł": 658,
      "Ġà®ĩà®°à®ķà®ķà®®": 659,
      "Ġà®µà®¨à®¤": 660,
      "Ġ5": 661,
      "±à®±": 662,
      "ĠT": 663,
      "Ġà®¨à®³": 664,
      "à®¤à®µ": 665,
      "à®¤à®ķ": 666,
      "à®ªà®ªà®¯": 667,
      "200": 668,
      "Ġof": 669,
      "Ġà®īà®£": 670,
      "Ġà®µà®©": 671,
      "ĠM": 672,
      "Ġà®īà®°": 673,
      "à®¯à®ª": 674,
      "Ġà®®à®ķà®ķà®¯": 675,
      "Ġà®ķ": 676,
      "Ġà®ļà®´": 677,
      "Ġà®¤à®ķà®¤": 678,
      "Ġà®ħà®¨à®¤": 679,
      "Ġà®ħà®®à®¨à®¤": 680,
      "à®¤à®¤à®µ": 681,
      "Ġ199": 682,
      "à®®à®ª": 683,
      "Ġà®µà®°à®²": 684,
      "le": 685,
      "à®ªà®®": 686,
      "à®®à®ªà®²": 687,
      "Ġà®®à®£": 688,
      "Ġà®ªà®¤à®¤": 689,
      "à®ķà®ķà®ķà®³": 690,
      "à®ķà®ķà®ªà®ªà®Łà®Łà®¤": 691,
      "à®¤à®®à®´": 692,
      "Ġà®¨à®±à®±": 693,
      "à®²à®©": 694,
      "à®²à®°": 695,
      "à®ķà®Łà®Ł": 696,
      "Ġà®ªà®ķà®ķà®": 697,
      "Ġà®µà®¤": 698,
      "à®Ļà®ķà®¤": 699,
      "Ġà®¤à®©à®¤": 700,
      "à®ķà®³à®ķ": 701,
      "Ġà®ķà®Łà®ļ": 702,
      "Ġà®¤à®µà®°": 703,
      "Ġà®Ĩà®©à®²": 704,
      "Ġà®İà®´à®¤à®¤": 705,
      "om": 706,
      "am": 707,
      "à®°à®ķ": 708,
      "à®ªà®³": 709,
      "Ġà®ļà®¤": 710,
      "Ġà®ªà®°à®¤": 711,
      "Ġà®®à®µà®Łà®Ł": 712,
      "Ġà®®à®Łà®Ł": 713,
      "à®¨à®ķà®°": 714,
      "18": 715,
      "Ġà®ķà®²à®¨à®¤": 716,
      "Ġà®µà®°à®¤": 717,
      "à®¯à®±à®±": 718,
      "à®ªà®±à®±": 719,
      "Ġà®¤à®´à®²": 720,
      "Ġ,": 721,
      "à®©à®¤": 722,
      "Ġ6": 723,
      "ĠI": 724,
      "Ġà®¤à®®": 725,
      "Ġà®ħà®¤à®ķà®°": 726,
      "Ġà®ªà®°à®µ": 727,
      "à®¨à®Łà®Ł": 728,
      "à®ªà®ªà®ķ": 729,
      "à®ļà®ļà®°": 730,
      "ĠB": 731,
      "Ġà®ħà®µà®°à®ķà®³": 732,
      "à®µà®²à®²": 733,
      "à®³à®³à®©": 734,
      "Ġà®ļà®²à®²": 735,
      "Ġà®µà®±à®±": 736,
      "Ġà®ļà®©à®±": 737,
      "Ġà®µà®³à®¯à®Ł": 738,
      "Ġà®¨à®±à®±à®£à®Ł": 739,
      "à®ķà®¤à®¤à®²": 740,
      "re": 741,
      "à®µà®°à®®": 742,
      "à®ķà®©à®±à®¤": 743,
      "Ġà®¤à®£": 744,
      "Ġà®ªà®µ": 745,
      "ĠĠĠĠĠĠĠĠ": 746,
      "à®ķà®³à®²à®®": 747,
      "à®°à®ļà®ļ": 748,
      "Ġà®¤à®Łà®ªà®ªà®Łà®Łà®ķà®ķà®°à®°à®ķà®³": 749,
      "Ġà®ĥ": 750,
      "à®Ļà®ķà®ªà®ªà®": 751,
      "Ġà®ķà®±à®±": 752,
      "à®µà®¨à®¤": 753,
      "à®²à®¯": 754,
      "and": 755,
      "Ġà®ļà®©à®©": 756,
      "Ġà®¤à®¯à®°": 757,
      "Ġà®¤à®³": 758,
      "Ġà®īà®³à®³à®©": 759,
      "Ġà®ķà®³à®³": 760,
      "as": 761,
      "ol": 762,
      "Ġà®ķà®°à®¤": 763,
      "Ġà®®à®Łà®Łà®®": 764,
      "à®¯à®²à®®": 765,
      "Ġà®¨à®¤": 766,
      "à®¤à®©à®®": 767,
      "à®Ļà®ķà®°": 768,
      "Ġà®¤à®°à®®": 769,
      "Ġ198": 770,
      "Ġà®ķà®£à®Łà®°": 771,
      "à®Łà®ķà®³": 772,
      "Ġà®µà®£à®Łà®®": 773,
      "à®Ļà®ķà®©": 774,
      "à®°à®²": 775,
      "Ġà®ªà®±à®ªà®ªà®ķà®³": 776,
      "Ġà®İà®£à®£": 777,
      "il": 778,
      "à®ªà®£": 779,
      "à®ķà®Ļà®ķà®³": 780,
      "ĠR": 781,
      "à®¤à®²à®²": 782,
      "Ġ7": 783,
      "à®ªà®ļ": 784,
      "Ġà®İà®©à®ªà®µ": 785,
      "Ġà®®à®¯": 786,
      "Âł": 787,
      "à®ķà®±à®°": 788,
      "Ġà®¤à®Łà®Ł": 789,
      "à®ªà®ªà®±": 790,
      "Ġà®ľà®©": 791,
      "Ġà®ªà®°à®ļ": 792,
      "à®Ĵ": 793,
      "à®ķà®¯à®²": 794,
      "à®ªà®°à®®": 795,
      "Ġà®īà®±à®ªà®ªà®©": 796,
      "à®¤à®¤à®¯": 797,
      "Ġà®İà®©à®±à®®": 798,
      "Ġà®ªà®©à®©": 799,
      "ed": 800,
      "Ġà®ħà®Łà®ªà®ªà®Ł": 801,
      "Ġà®®à®¨à®²": 802,
      "ĠD": 803,
      "Ġà®ħà®®à®°à®ķà®ķ": 804,
      "à®¯à®¯à®²": 805,
      "Ġà®ªà®°à®¯": 806,
      "Ġà®¤à®©à®©": 807,
      "Ġà®ķà®°à®£à®®": 808,
      "à®Ļà®ķà®³à®©": 809,
      "Ġà®¤à®£à®Ł": 810,
      "à®ªà®ªà®£": 811,
      ").": 812,
      "Ġà®ĩà®£à®ªà®ªà®ķà®³": 813,
      "à®µà®£": 814,
      "Ġà®¤à®°à®µà®¤": 815,
      "Ġà®®à®ķà®µà®®": 816,
      "à®ªà®ªà®®": 817,
      "à®ķà®ķà®ļ": 818,
      "us": 819,
      "Ġà®ĵà®°": 820,
      "Ġà®ħà®°à®ļà®¯à®²": 821,
      "Ġà®ħà®³à®µ": 822,
      "Ġà®ªà®°à®¨à®¤": 823,
      "Ġth": 824,
      "ur": 825,
      "ch": 826,
      "Ġà®ħà®µà®°à®¤": 827,
      "à®ļà®°à®¯à®°": 828,
      "Ġ8": 829,
      "Ġà®¤à®Łà®°à®¨à®¤": 830,
      "à®¤à®¤à®±à®ķ": 831,
      "Ġ'": 832,
      "ĠH": 833,
      "à®¯à®ķà®®": 834,
      "Ġ197": 835,
      "Ġà®¤à®ļà®¯": 836,
      "Ġà®ķà®ªà®": 837,
      "à®®à®ķà®®": 838,
      "el": 839,
      "ĠL": 840,
      "ing": 841,
      "Ġà®¤à®²à®®": 842,
      "à®ķà®ķà®²à®®": 843,
      "à®ķà®ªà®ª": 844,
      "à®°à®¤à®¤": 845,
      "Ġà®ĩà®°à®¨à®¤à®¤": 846,
      "Ġà®Ĩà®°à®®": 847,
      "Ġà®¤à®©à®®": 848,
      "Ġà®İà®¨à®¤": 849,
      "Ġ9": 850,
      "Ġ.": 851,
      "ent": 852,
      "Ġà®īà®°à®®": 853,
      "Ġà®ħà®±à®µ": 854,
      "Ġà®¤à®®à®´à®¤": 855,
      "Ġà®¨à®ªà®°": 856,
      "Ġà®ªà®¤à®¯": 857,
      "Ġà®µà®£à®Ł": 858,
      "ĠN": 859,
      "000": 860,
      "Ġà®Ĩà®£": 861,
      "Ġà®Ĩà®ķà®¯à®µà®±à®±": 862,
      "à®Ļà®ķà®Ł": 863,
      "Ġthe": 864,
      "à®ķà®ķà®©à®±à®©": 865,
      "à®ķà®©à®±à®©à®°": 866,
      "à®ªà®ªà®µ": 867,
      "Ġà®Ĩà®²": 868,
      "Ġà®ªà®²à®ķà®²": 869,
      "à®ªà®ªà®Łà®ķà®©à®±à®©": 870,
      "à®¨à®°": 871,
      "ation": 872,
      "à®µà®ļ": 873,
      "Ġà®ªà®°à®¤à®¤": 874,
      "Ġà®¨à®Łà®ķà®³": 875,
      "Ġà®ķà®ļ": 876,
      "à®ªà®ķ": 877,
      "Ġà®ªà®°à®©": 878,
      "ĠE": 879,
      "Ġà®ªà®°à®Łà®Ł": 880,
      "Ġà®ķà®Łà®®": 881,
      "Ġà®µà®°à®®": 882,
      "à®ķà®ªà®ªà®Ł": 883,
      "ro": 884,
      "Ġà®Ĩà®±": 885,
      "à®¨à®¯": 886,
      "Ġà®ªà®°à®®à®ªà®²": 887,
      "à®ķà®ķà®ªà®ªà®Łà®®": 888,
      "à®Ļà®ķà®³à®®": 889,
      "Ġà®®à®¤à®°": 890,
      "à®µà®¤à®±": 891,
      "à®ªà®ķà®³": 892,
      "he": 893,
      "Ġ10": 894,
      "Ġà®ħà®¤à®ķà®®": 895,
      "Ġ196": 896,
      "à®¸à®Ł": 897,
      "Ġà®µà®¤à®¤": 898,
      "ĠG": 899,
      "Ġà®Ĩà®±à®±": 900,
      "Ġs": 901,
      "Ġà®İà®Łà®¤à®¤": 902,
      "Ġà®ļà®±à®¨à®¤": 903,
      "Ġà®ħà®µà®±à®±": 904,
      "Ġà®ķà®°à®®": 905,
      "à®Ļà®ķà®²à®¨à®¤": 906,
      "ĠF": 907,
      "Ġà®ķà®²à®®": 908,
      "à®ªà®ªà®ķà®¤": 909,
      "Ġà®Ĩà®µà®°": 910,
      "à®ľà®©": 911,
      "Ġà®®à®©à®©à®°": 912,
      "Ġà®ļà®¤à®¤": 913,
      "Ġà®Ĩà®Ļà®ķà®²": 914,
      "Ġà®ħà®©à®±": 915,
      "Ġà®¨à®°à®µ": 916,
      "Ġ15": 917,
      "Ġ=": 918,
      "à®¤à®¤à®ª": 919,
      "199": 920,
      "à®ªà®ªà®©à®®": 921,
      "à®ªà®ķà®ķà®": 922,
      "Ġà®¤à®ļ": 923,
      "Ġà®Ĩà®Łà®ļ": 924,
      "à®¯à®©à®¤": 925,
      "..": 926,
      "à®ķà®£à®Ł": 927,
      "à®±à®±à®®": 928,
      "Ġà®ĩà®²à®ķà®ķà®¯": 929,
      "et": 930,
      "à®µà®µà®°": 931,
      "Ġà®İà®²à®²": 932,
      "à®®à®ªà®ķà®": 933,
      "Ġà®ķà®°à®¤à®¤": 934,
      "Ġ20": 935,
      "Ġà®ªà®±à®ªà®ª": 936,
      "Ġà®İà®©à®®": 937,
      "Ġà®¨à®°à®®": 938,
      "à®ªà®°à®³": 939,
      "Ġà®¤à®²à®µà®°": 940,
      "Ġ17": 941,
      "Ġà®Ĩà®¤à®°": 942,
      "à®Ĳ": 943,
      "Ġà®ĩà®Ļà®ķà®²à®¨à®¤": 944,
      "Ġà®ļà®ķà®¤": 945,
      "Ġà®ªà®²à®ķà®²à®ķà®ķà®´": 946,
      "ra": 947,
      "198": 948,
      "Ġà®®à®²à®²": 949,
      "Ġà®ªà®²à®µà®±": 950,
      "Ġà®ªà®Łà®²": 951,
      "Ġà®ķà®ķà®": 952,
      "Ġà®®à®ķ": 953,
      "Ġà®ķà®Ļ": 954,
      "à®¯à®£": 955,
      "Ġà®Ĩà®¯": 956,
      "Ġà®ķà®°à®£": 957,
      "Ġà®ħà®Łà®¤à®¤": 958,
      "à®µà®¤à®®": 959,
      "20": 960,
      "Ġà®ĩà®²à®²": 961,
      "Ġà®¨à®®": 962,
      "à®ķà®ļà®ļ": 963,
      "Ġand": 964,
      "à®ķà®ķà®µà®²": 965,
      "à®ķà®¤à®¤à®©": 966,
      "Ġà®ªà®±à®ķ": 967,
      "Ġà®ķà®±à®ªà®ªà®Łà®Ł": 968,
      "Ġà®Ĵà®³": 969,
      "à®©à®¯": 970,
      "Ġà®İà®´à®¤": 971,
      "Ġà®¨à®²à®ķà®³": 972,
      "Ġà®Ĵà®°à®µà®°": 973,
      "Ġà®İà®¸": 974,
      "un": 975,
      "Ġà®ªà®Łà®Łà®ķà®³à®²": 976,
      "Ġà®µà®Łà®µà®®": 977,
      "Ġà®ķà®±à®¤à®¤": 978,
      "Ġà®ĩà®°à®£à®Łà®®": 979,
      "à®ļà®¤à®¤": 980,
      "ĠW": 981,
      "à®µà®ķà®ķ": 982,
      "Ġà®ķà®±à®ªà®ªà®Ł": 983,
      "Ġà®µà®³à®µà®¨à®¤": 984,
      "Ġà®ªà®£à®ķà®³": 985,
      "Ġà®ķà®¯à®²": 986,
      "Ġà®¨à®ªà®°à®ķà®³": 987,
      "ct": 988,
      "à®¯à®ļ": 989,
      "à®ķà®ķà®¤à®¤à®²": 990,
      "Ġp": 991,
      "à®±à®ļ": 992,
      "à®ı": 993,
      "Ġà®ķà®Łà®Łà®®": 994,
      "201": 995,
      "à®ªà®ªà®ķà®ķà®": 996,
      "Ġà®ķà®´à®¨à®¤": 997,
      "Ġà®¤à®¨à®¤": 998,
      "Ġà®ķà®²à®µ": 999,
      "à®°à®Ł": 1000,
      "Ġà®ķà®²à®¤à®¤à®²": 1001,
      "à®ķà®¯à®©": 1002,
      "Ġà®ķà®µà®²": 1003,
      "Ġà®ªà®±à®±à®°": 1004,
      "à®ķà®¨à®¤": 1005,
      "Ġà®ĩà®¤à®²": 1006,
      "à®ķà®ķà®ªà®ªà®Łà®ķà®±à®¤": 1007,
      "Ġà®īà®³": 1008,
      "Ġ195": 1009,
      "à®°à®®à®©": 1010,
      "Ġà®ªà®ªà®": 1011,
      "Ġà®ĩà®´": 1012,
      "Ġà®¤à®¯": 1013,
      "ĊĠ": 1014,
      "à®ķà®µà®²": 1015,
      "Ġà®®à®¤à®²à®¤à®°": 1016,
      "Ġà®ĩà®¤à®´": 1017,
      "Ġà®ļà®¯à®¯à®ªà®ªà®Łà®Ł": 1018,
      "Ġ12": 1019,
      "à®ªà®Łà®ķà®³": 1020,
      "Ġ16": 1021,
      "Ġà®¨à®©à®ķ": 1022,
      "à®Ļà®ķà®µ": 1023,
      "197": 1024,
      "Ġà®ħà®£à®¯à®©": 1025,
      "à®ĩà®¨à®¤à®¯": 1026,
      "Ġà®ĩà®Ļà®ķ": 1027,
      "Ġ194": 1028,
      "à®ªà®°à®Ł": 1029,
      "à®µà®Łà®Łà®®": 1030,
      "Ġà®ĩà®°à®ªà®ªà®©à®®": 1031,
      "Ġà®¤à®©à®±": 1032,
      "Ġà®µà®°à®²à®±à®±": 1033,
      "iv": 1034,
      "Ġà®ĩà®¨": 1035,
      "à®¯à®°à®ķà®³": 1036,
      "Ġà®ıà®±à®±": 1037,
      "Ġà®¤à®Ļà®ķà®³": 1038,
      "Ġà®İà®£": 1039,
      "à®¨à®¤à®©": 1040,
      "à®°à®¯": 1041,
      "Ġà®īà®£à®Ł": 1042,
      "Ġà®İà®©à®ª": 1043,
      "à®µà®¤à®²": 1044,
      "à®®à®ªà®¯": 1045,
      "Ġà®ķà®²à®²": 1046,
      "à®®à®©à®¤": 1047,
      "à®ķà®ķà®¤à®¤": 1048,
      "Ġà®ļà®¤à®©": 1049,
      "Ġà®ĩà®©à®±": 1050,
      "Ġf": 1051,
      "Ġà®ĩà®±à®¤": 1052,
      "à®¤à®¤à®©à®°": 1053,
      "Ġc": 1054,
      "Ġà®ļà®Ł": 1055,
      "Ġà®µà®³à®°à®ļà®ļ": 1056,
      "à®µà®¤à®±à®ķ": 1057,
      "à®ķà®ķà®µà®®": 1058,
      "Ġà®µà®³à®³": 1059,
      "Ġà®ĩà®³": 1060,
      "à®ķà®³à®¯à®®": 1061,
      "Ġà®°à®ľ": 1062,
      "à®ªà®ªà®ķà®ķà®³": 1063,
      "Ġà®ĩà®Łà®®": 1064,
      "id": 1065,
      "Ġà®ħà®±à®¯": 1066,
      "Ġà®ªà®¤à®¤à®°": 1067,
      "Ġà®ªà®®": 1068,
      "Ġà®ķà®²à®²à®°": 1069,
      "à®®à®¯": 1070,
      "ig": 1071,
      "à®®à®Ł": 1072,
      "à®Ļà®ķà®ķà®³": 1073,
      "Ġà®ªà®±à®±à®¯": 1074,
      "Ġà®ªà®¤à®µà®ķ": 1075,
      "à®ŀà®ļà®²": 1076,
      "à®ŀà®°": 1077,
      "à®¯à®¤à®¤": 1078,
      "Ġà®ªà®ķà®¤à®¯à®²": 1079,
      "à®Łà®Łà®°": 1080,
      "à®ļà®¤": 1081,
      "à®ĥà®ª": 1082,
      "ag": 1083,
      "Ġà®ħà®©à®¤à®¤": 1084,
      "Ġà®®à®£à®Ł": 1085,
      "Ġà®®à®ķà®©": 1086,
      "à®ªà®°à®²": 1087,
      "Ġà®ıà®±à®ªà®Łà®Ł": 1088,
      "Ġà®ħà®¤à®ķ": 1089,
      "à®ķà®Ļ": 1090,
      "à®µà®°à®°": 1091,
      "à®®à®¯à®©": 1092,
      "Ġà®ħà®ļà®ļ": 1093,
      "Ġà®īà®±à®ªà®¤à®¤": 1094,
      "à®ļà®±": 1095,
      "Ġà®ĩà®²à®Ļà®ķ": 1096,
      "Ġà®·": 1097,
      "ĠĊĊ": 1098,
      "Ġà®®à®±à®ķà®³": 1099,
      "Ġà®ĩà®¯à®²": 1100,
      "à®¨à®³": 1101,
      "Ġà®Ĳà®ķà®ķà®¯": 1102,
      "à®ķà®ķà®£à®Ł": 1103,
      "à®©à®ķà®³": 1104,
      "Ġà®µà®´à®Ļà®ķà®ªà®ªà®": 1105,
      "Ġà®ªà®°à®Ł": 1106,
      "Ġà®Ĵà®µà®µà®°": 1107,
      "à®ķà®ķà®£à®Łà®°": 1108,
      "Ġà®ĩà®µà®°à®¤": 1109,
      "Ġà®īà®Łà®©": 1110,
      "Ġà®¨à®£": 1111,
      "Ġà®Īà®Ł": 1112,
      "ad": 1113,
      "Ġà®µà®Łà®µ": 1114,
      "st": 1115,
      "Ġb": 1116,
      "Ġà®ħà®³à®µà®²": 1117,
      "Ġin": 1118,
      "à®İà®¸": 1119,
      "Ġà®ħà®±à®µà®¯à®²": 1120,
      "Ġà®ªà®¤à®µ": 1121,
      "à®¯à®¤à®¤à®²": 1122,
      "Ġà®ĩà®µà®±à®±": 1123,
      "Ġ|": 1124,
      "à®¯à®Ļà®ķà®³": 1125,
      "196": 1126,
      "Ġà®Ĩà®¯à®µ": 1127,
      "Ġà®µà®°à®²à®±": 1128,
      "ŀà®ļ": 1129,
      "à®®à®£": 1130,
      "à®ĩà®°": 1131,
      "Ġà®ķà®°à®£à®®à®ķ": 1132,
      "um": 1133,
      "Ġà®ķà®Łà®²": 1134,
      "Ġà®Ĳà®¨à®¤": 1135,
      "à®ªà®ªà®ļ": 1136,
      "à®¤à®¤à®²à®®": 1137,
      "Ġt": 1138,
      "Ġà®ªà®°à®°à®ļ": 1139,
      "Ġà®ħà®®à®ªà®ª": 1140,
      "Ġà®ķà®£à®Łà®³à®³à®°": 1141,
      "à®ķà®ķà®ªà®ªà®Łà®Łà®°": 1142,
      "ĠO": 1143,
      "à®ļà®ļà®²": 1144,
      "Ġà®®à®£à®Łà®®": 1145,
      "17": 1146,
      "Ġà®ªà®ļà®ļ": 1147,
      "Ġà®ļà®¤à®°": 1148,
      "Ġà®¨à®²à®²": 1149,
      "Ġ14": 1150,
      "Ġ2011": 1151,
      "à®¯à®²à®©": 1152,
      "Ġà®ħà®ķà®Ł": 1153,
      "Ġà®®à®³": 1154,
      "à®ļà®µ": 1155,
      "Ġà®®à®°à®¤à®¤": 1156,
      "Ġà®®à®µà®Łà®Łà®¤à®¤à®²": 1157,
      "Ġà®µà®²à®²": 1158,
      "Ġà®İà®®": 1159,
      "Ġà®ªà®¤à®©": 1160,
      "Ġà®µà®µ": 1161,
      "Ġà®ªà®Łà®Łà®ķà®³à®²à®®": 1162,
      "em": 1163,
      "Ġ13": 1164,
      "Ġà®®à®µà®Łà®Łà®®": 1165,
      "ul": 1166,
      "à®ªà®ªà®¨": 1167,
      "Ġà®ķà®±à®¨à®¤": 1168,
      "Ġà®ķà®£à®Łà®¤": 1169,
      "à®¯à®³": 1170,
      "âĢĵ": 1171,
      "Ġà®¤à®±à®ªà®¤": 1172,
      "Ġà®İà®©à®ªà®µà®°": 1173,
      "à®³à®³à®©à®°": 1174,
      "Ġà®Ĳà®°": 1175,
      "Ġà®ªà®¯à®©à®ªà®Ł": 1176,
      "ist": 1177,
      "Ġ11": 1178,
      "ht": 1179,
      "Ġà®īà®Łà®²": 1180,
      "Ġà®ªà®Łà®²à®ķà®³": 1181,
      "Ġà®ĩà®¯à®±": 1182,
      "ia": 1183,
      "Ġà®®à®¤à®©à®®": 1184,
      "à®¤à®²à®®": 1185,
      "Ġà®Ĩà®£à®Łà®ķà®³à®²": 1186,
      "Ġà®®à®¤à®®": 1187,
      "Ġà®®à®©à®¤": 1188,
      "Ġà®¤à®°à®¤à®¤": 1189,
      "Ġà®īà®¤à®µ": 1190,
      "Ġà®ªà®£à®Ł": 1191,
      "à®¨à®±": 1192,
      "Ġà®¤à®Łà®ªà®ªà®Łà®Łà®ķà®ķà®°à®°": 1193,
      "à®°à®ķà®³à®©": 1194,
      "à®®à®¤": 1195,
      "à®´à®¤à®¤": 1196,
      "à®°à®Łà®ļ": 1197,
      "Ġà®Ĩà®©": 1198,
      "Ġd": 1199,
      "Ġà®®à®Łà®¯à®®": 1200,
      "194": 1201,
      "à®ķà®°à®®": 1202,
      "à®µà®°à®²": 1203,
      "Ġà®¨à®ķà®´à®ļà®ļ": 1204,
      "Ġà®ıà®±à®ªà®Ł": 1205,
      "à®¨à®¤à®¯": 1206,
      "ut": 1207,
      "Ġà®Ĩà®Ł": 1208,
      "Ġà®ķà®Łà®¯à®°": 1209,
      "Ġà®ħà®®à®¨à®¤à®³à®³à®¤": 1210,
      "Ġ193": 1211,
      "à®ªà®ªà®³à®³": 1212,
      "Ġà®¤à®°à®¨à®¤": 1213,
      "Ġà®¤à®±à®±": 1214,
      "Ġà®ªà®²à®²": 1215,
      "Ġà®ĩà®¤à®©à®²": 1216,
      "à®µà®´à®®": 1217,
      "Ġà®ħà®µà®©": 1218,
      "à®°à®¨à®¤à®°": 1219,
      "Ġà®µà®ķà®ķà®³": 1220,
      "âĢĿ": 1221,
      "Ġà®®à®¤à®©": 1222,
      "à®ķà®ķà®¯à®²": 1223,
      "Ġà®ĩà®±à®ªà®ªà®ķà®³": 1224,
      "Ġà®ķà®¨à®¤": 1225,
      "ac": 1226,
      "ĠIn": 1227,
      "à®£à®µ": 1228,
      "à®ķà®ķà®Ļà®ķà®³": 1229,
      "Ġà®ªà®ķà®´": 1230,
      "à®¤à®¤à®Łà®©": 1231,
      "Ġà®¤à®¤": 1232,
      "à®ķà®ķà®Łà®¯": 1233,
      "à®¯à®²à®°à®¨à®¤": 1234,
      "à®ªà®¯à®²": 1235,
      "Ġà®īà®³à®³à®Ł": 1236,
      "Ġà®Ĵà®²": 1237,
      "à®Łà®²": 1238,
      "à®¯à®©à®°": 1239,
      "à®ķà®ķà®Łà®ļ": 1240,
      "à®ªà®ªà®ª": 1241,
      "ªà®ªà®Łà®Ł": 1242,
      "og": 1243,
      "op": 1244,
      "Ġà®ªà®°à®¤à®¤à®©": 1245,
      "Ġà®İà®²": 1246,
      "ĠJ": 1247,
      "à®®à®ªà®©": 1248,
      "à®Ļà®ķà®¯à®¤": 1249,
      "à®Ĵà®°": 1250,
      "ĠU": 1251,
      "Ġà®īà®¤": 1252,
      "Ġà®ĩà®¤à®¤": 1253,
      "Ġà®®à®°à®¤à®¤à®µ": 1254,
      "Ġà®µà®Łà®¤à®²": 1255,
      "Ġà®ķà®ªà®ªà®±à®±": 1256,
      "à®´à®²": 1257,
      "Ġà®ħà®ķà®Łà®ªà®°": 1258,
      "Ġà®ıà®±à®ªà®Łà®¤à®¤": 1259,
      "Ġà®ĩà®²à®Ļà®ķà®¯": 1260,
      "Ġà®Łà®°": 1261,
      "à®µà®®à®ªà®°": 1262,
      "à®²à®°à®¨à®¤": 1263,
      "195": 1264,
      "Ġà®İà®´à®¤à®¯": 1265,
      "ers": 1266,
      "à®ªà®Łà®®à®ªà®°": 1267,
      "Ġà®¤à®Łà®Łà®®": 1268,
      "Ġà®ªà®±à®±à®¤": 1269,
      "Ġà®ļà®®à®°": 1270,
      "Ġà®µà®ķ": 1271,
      "Ġà®µà®ķà®¤": 1272,
      "Ġà®®à®±à®ķ": 1273,
      "Ġà®ķà®Łà®Łà®Ł": 1274,
      "à®İà®©": 1275,
      "Ġà®Ĩà®°à®¯": 1276,
      "Ġà®īà®±à®ªà®ªà®©à®°à®ķà®³": 1277,
      "à®ķà®¨": 1278,
      "Ġà®ķà®Łà®¤à®¤": 1279,
      "Ġà®īà®£à®µ": 1280,
      "Ġà®ĩà®Łà®®à®ªà®": 1281,
      "Ġà®īà®²à®ķ": 1282,
      "à®ªà®¸": 1283,
      "Ġà®ªà®Łà®¤à®¤": 1284,
      "à®ªà®ķà®¤": 1285,
      "ĠK": 1286,
      "Ġà®ĩà®£à®¨à®¤": 1287,
      "Ġà®īà®£à®®": 1288,
      "à®Ļà®ķà®³à®ķ": 1289,
      "im": 1290,
      "à®¤à®°à®®": 1291,
      "Ġà®ļà®¯à®±": 1292,
      "Ġm": 1293,
      "Ġà®ļà®¨à®¤à®°": 1294,
      "Ġà®ķà®Łà®Łà®ªà®ªà®Łà®Ł": 1295,
      "Ġà®µà®°à®ļ": 1296,
      "à®Ļà®ķà®©à®°": 1297,
      "ir": 1298,
      "Ġà®¨à®Łà®ªà®±à®±": 1299,
      "Ġà®µà®®": 1300,
      "Ġà®ļà®²à®²à®®": 1301,
      "Ġà®ļà®°à®ļ": 1302,
      "à®¤à®¤à®ļ": 1303,
      "Ġà®Ĩà®ļà®°à®¯à®°": 1304,
      "à®ķà®ķà®±à®°": 1305,
      "Ġà®¨à®±à®µ": 1306,
      "Ġà®ªà®±à®¨à®¤": 1307,
      "Ġà®ĩà®°à®ªà®ªà®¤": 1308,
      "Ġà®ĩà®¨à®¤à®¯à®µà®©": 1309,
      "à®ķà®ķà®±à®ªà®ª": 1310,
      "à®ķà®°à®ķà®³": 1311,
      "Ġà®ªà®¤à®®": 1312,
      "Ġà®ĵà®Łà®Ł": 1313,
      "à®±à®ķà®©": 1314,
      "Ġà®ªà®Łà®Łà®¯à®²à®®": 1315,
      "à®¤à®©à®°": 1316,
      "à®ļà®®à®ªà®°": 1317,
      "ot": 1318,
      "à®Ļà®ķà®³à®ķà®ķ": 1319,
      "ĠThe": 1320,
      "à®µà®±à®±à®¯à®®": 1321,
      "Ġà®¯à®©": 1322,
      "Ġà®®à®ķà®®": 1323,
      "Ġà®ķà®Łà®ļà®¯": 1324,
      "à®±à®ķà®ķ": 1325,
      "Ġà®®à®ļ": 1326,
      "à®¤à®ķà®³": 1327,
      "à®ĩà®¤": 1328,
      "à®ķà®²à®®": 1329,
      "à®·à®£": 1330,
      "à®ķà®ķà®³à®³": 1331,
      "Ġà®Ĩà®ķà®¯à®°": 1332,
      "Ġà®¤à®®à®´à®¨à®Ł": 1333,
      "à®ķà®ķà®©à®°": 1334,
      "Ġà®¨à®±à®µà®©à®®": 1335,
      "Ġà®¨à®Łà®ķà®³à®²": 1336,
      "à®ªà®ªà®Łà®Łà®°": 1337,
      "ĠĊĠĊ": 1338,
      "Ġà®ªà®Ļà®ķà®ķà®£à®Łà®°": 1339,
      "Ġà®µà®´à®ķà®ķ": 1340,
      "à®Łà®Łà®©": 1341,
      "Ġà®®à®¯à®±": 1342,
      "10": 1343,
      "Ġà®ªà®¨à®¤": 1344,
      "à®ķà®±à®±": 1345,
      "à®°à®ľ": 1346,
      "os": 1347,
      "ww": 1348,
      "à®ªà®¯à®°": 1349,
      "Ġà®¤à®´à®²à®¨à®Ł": 1350,
      "Ġà®ħà®¤à®²": 1351,
      "Ġà®ķà®Łà®¯": 1352,
      "Ġà®ĩà®£à®ªà®ª": 1353,
      "Ġà®¨à®Łà®µà®Ł": 1354,
      "Ġà®¨à®²à®¯à®²": 1355,
      "Ġà®µà®ªà®°": 1356,
      "Ġà®ĩà®°à®ķà®ķà®±à®¤": 1357,
      "à®ķà®³à®ª": 1358,
      "Ġà®®à®°à®ļ": 1359,
      "ĠV": 1360,
      "à®®à®²à®®": 1361,
      "Ġà®ªà®£à®¯à®±à®±": 1362,
      "Ġà®ªà®°à®µà®²": 1363,
      "à®¯à®Łà®©": 1364,
      "Ġà®¨à®µà®®à®ªà®°": 1365,
      "Ġà®ªà®Ļà®ķ": 1366,
      "Ġà®ķà®£à®Łà®ªà®Ł": 1367,
      "à®ķà®ªà®ªà®°": 1368,
      "Ġà®ªà®©à®©à®Łà®Ł": 1369,
      "à®²à®®à®²": 1370,
      "Ġà®İà®¨à®¤à®µà®°": 1371,
      "Ġà®ļà®ªà®Łà®®à®ªà®°": 1372,
      "Ġà®ªà®Łà®®": 1373,
      "Ġà®¤à®²à®²": 1374,
      "16": 1375,
      "ay": 1376,
      "à®®à®ªà®°": 1377,
      "Ġà®µà®©à®±": 1378,
      "Ġ2008": 1379,
      "Ġà®µà®°à®Ł": 1380,
      "Ġà®®à®±à®ªà®Łà®Ł": 1381,
      "Ġà®ħà®°à®ļà®©": 1382,
      "Ġà®Ĩà®ķà®¯à®µ": 1383,
      "Ġà®µà®³à®°": 1384,
      "âĢĻ": 1385,
      "à®ªà®ªà®¤à®²": 1386,
      "Ġà®ļà®±à®¯": 1387,
      "15": 1388,
      "Ġà®ªà®°à®ķà®ķà®ªà®ªà®Łà®Ł": 1389,
      "Ġà®µà®°à®¤à®¤": 1390,
      "Ġà®ªà®¤à®ªà®ª": 1391,
      "Ġà®®à®²à®²à®¯à®©": 1392,
      "à®µà®°à®©": 1393,
      "Ġà®ªà®ķà®¤à®ķà®³": 1394,
      "Ġà®¤à®°à®¤à®²": 1395,
      "Ġà®ªà®¯à®£": 1396,
      "Ġà®ªà®°à®¤à®®": 1397,
      "Ġà®®à®¸": 1398,
      "à®¯à®ķà®ķ": 1399,
      "Ġà®ļà®¯à®¯à®®": 1400,
      "à¤": 1401,
      "Ġà®Ĩà®±à®±à®²": 1402,
      "à®µà®Łà®®": 1403,
      "Ġà®ľà®°à®®à®©": 1404,
      "Ġà®ħà®Ļà®ķ": 1405,
      "à®µà®¤à®ķ": 1406,
      "Ġà®µà®´à®¨à®¤": 1407,
      "Ġ25": 1408,
      "Ġà®ķà®£à®£": 1409,
      "Ġà®®à®±à®¯à®²": 1410,
      "à®ŀà®°à®ķà®³": 1411,
      "à®ªà®ªà®Łà®Łà®©": 1412,
      "Ġà®¤à®ķà®ķà®¤": 1413,
      "Ġà®µà®¨à®¤à®¤": 1414,
      "à®Ļà®ķà®£": 1415,
      "Ġà®ĩà®¤à®¤à®°": 1416,
      "Ġà®µà®®à®©": 1417,
      "Ġà®ªà®°à®Łà®ķà®³": 1418,
      "ter": 1419,
      "Ġà®ķà®Łà®±": 1420,
      "Ġà®¨à®Łà®¨à®¤": 1421,
      "Ġà®ªà®¤à®²": 1422,
      "Ġà®ĩà®µà®°à®ķà®³": 1423,
      "à®µà®©à®¤": 1424,
      "Ġà®ªà®°à®®à®ªà®²à®®": 1425,
      "Ġà®®à®¤à®¤à®¯": 1426,
      "à®¤à®¤à®¯à®®": 1427,
      "à®³à®µ": 1428,
      "Ġà®ħà®®à®¨à®¤à®³à®³": 1429,
      "Ġà®Ĵà®´": 1430,
      "Ġà®¤à®°à®ļà®ļ": 1431,
      "Ġw": 1432,
      "à®ĩà®µà®±à®±à®¯à®®": 1433,
      "à®¤à®¤à®ķà®ķ": 1434,
      "Ġà®µà®°à®¯à®±": 1435,
      "Ġà®ĩà®°à®¨à®¤à®°": 1436,
      "Ġà®ļà®²à®µ": 1437,
      "Ġà®ļà®°à®®": 1438,
      "à®´à®ªà®ªà®£": 1439,
      "à®¸à®¤à®°": 1440,
      "ĠâĢľ": 1441,
      "à®³à®®à®©à®±": 1442,
      "Ġ:": 1443,
      "à®ªà®ªà®¨à®¤": 1444,
      "à®°à®¤": 1445,
      "od": 1446,
      "Ġà®®à®¤à®²à®²": 1447,
      "Ġà®ķà®±à®ªà®ªà®Łà®¤à®¤": 1448,
      "12": 1449,
      "Ġ0": 1450,
      "Ġà®ħà®°à®ļà®¯à®²à®µà®¤": 1451,
      "à®µà®°à®ļ": 1452,
      "ĠĠĠĠĠĠĠĠĠĠĠĠĠĠĠĠ": 1453,
      "Ġà®ªà®ªà®°": 1454,
      "Ġà®ļà®£à®Ł": 1455,
      "Ġà®Ĩà®Łà®Ł": 1456,
      "Ġà®ķà®£à®Łà®±": 1457,
      "Ġ2007": 1458,
      "ap": 1459,
      "Ġà®®à®¯à®±à®ļ": 1460,
      "à®ªà®ªà®Łà®¤à®¤à®²": 1461,
      "Ġà®¨à®®à®ªà®ķà®": 1462,
      "à®İà®®": 1463,
      "Ġà®ĩà®Łà®¤à®¤à®²": 1464,
      "Ġà®ıà®´": 1465,
      "Ġà®ħà®£à®Ł": 1466,
      "à®ķà®ķà®ķà®ķà®": 1467,
      "Ġà®ķà®´à®ķà®ķ": 1468,
      "Ġà®ķà®£à®ķà®ķà®Ł": 1469,
      "à®°à®ķà®³à®²": 1470,
      "Ġà®ķà®°à®µ": 1471,
      "Ġà®ķà®³à®³à®µà®²à®²": 1472,
      "Ġà®Ĭà®Ł": 1473,
      "Ġ30": 1474,
      "Ġà®Ĩà®£à®Łà®ķà®³": 1475,
      "à®ªà®¤à®®": 1476,
      "Ġà®µà®°à®µ": 1477,
      "Ġà®µà®³à®µ": 1478,
      "ri": 1479,
      "ĠĠĊ": 1480,
      "à®ªà®´": 1481,
      "Ġà®µà®¯à®¤": 1482,
      "Ġà®ªà®©à®¤": 1483,
      "Ġà®¤à®²à®¨à®ķà®°": 1484,
      "Ġà®µà®ķà®¯à®²": 1485,
      "Ġà®ıà®±à®ªà®Łà®®": 1486,
      "Ġà®ļà®¤à®¤à®°": 1487,
      "Ġà®ĩà®Łà®®à®ªà®±à®±": 1488,
      "Ġà®¨à®Łà®³à®®à®©à®±": 1489,
      "Ġà®¨à®²à®¯à®®": 1490,
      "Ġ2009": 1491,
      "Ġà®ķà®£à®ªà®ªà®Łà®®": 1492,
      "à®£à®Łà®©": 1493,
      "ªà®ªà®Ł": 1494,
      "Ġà®ħà®Łà®ªà®ªà®Łà®¯à®²": 1495,
      "Ġà®°à®®": 1496,
      "à®ªà®ªà®±à®±": 1497,
      "à®¨à®¤à®©à®°": 1498,
      "à®¯à®¤à®¤à®©": 1499,
      "Ġà®ªà®°à®ķà®ķ": 1500,
      "à®Łà®¸": 1501,
      "à®©à®ķ": 1502,
      "Ġ192": 1503,
      "ce": 1504,
      "à®ªà®ªà®Łà®Łà®³à®³à®¤": 1505,
      "Ġà®¨à®²à®®": 1506,
      "Ġà®ªà®Łà®ķà®³": 1507,
      "Ġà®ħà®©à®®": 1508,
      "Ġ2006": 1509,
      "Ġà®ĩà®°à®£à®Łà®µà®¤": 1510,
      "Ġà®İà®©à®ªà®ªà®Łà®®": 1511,
      "Ġà®Ĩà®³": 1512,
      "193": 1513,
      "Ġà®¤à®²à®µ": 1514,
      "à®¯à®¯à®®": 1515,
      "Ġà®ªà®°à®ªà®²": 1516,
      "à®Ļà®ķà®²à®®": 1517,
      "à®ķà®ªà®ªà®Łà®¤à®¤": 1518,
      "Ġà®ĩà®¨à®¤à®ª": 1519,
      "Ġà®ķà®Łà®µà®³": 1520,
      "Ġà®ıà®ªà®°à®²": 1521,
      "Ġà®µà®µà®°": 1522,
      "à®©à®¸": 1523,
      "à®ªà®¤à®¤à®²": 1524,
      "Ġà®ħà®®à®ªà®ªà®ķà®³": 1525,
      "Ġà®İà®©à®µ": 1526,
      "Ġà®ļà®ķà®ķà®²": 1527,
      "Ġà®¨à®£à®Ł": 1528,
      "Ġà®ħà®ļ": 1529,
      "Ġà®ļà®Łà®Łà®®à®©à®±": 1530,
      "Ġà®®à®°à®¨à®¤": 1531,
      "Ġa": 1532,
      "Ġà®ķà®±à®ķà®ķà®®": 1533,
      "Ġà®®à®®": 1534,
      "à®ķà®³à®³": 1535,
      "Ġà®®à®ķà®£": 1536,
      "Ġà®ķà®£à®Łà®³à®³à®¤": 1537,
      "Ġà®ĩà®ļà®¯à®®": 1538,
      "ew": 1539,
      "Ġà®ļà®¯à®²à®ªà®Ł": 1540,
      "Ġà®®à®©à®µ": 1541,
      "à®°à®¸": 1542,
      "Ġà®¤à®ķà®µà®²": 1543,
      "à®ªà®¯à®©": 1544,
      "à®ļà®ļà®©": 1545,
      "à®¯à®®à®©": 1546,
      "Ġà®İà®©à®ķ": 1547,
      "Ġà®ļà®¯à®¤à®°": 1548,
      "à®Ļà®ķà®²à®¨à®¤à®¤": 1549,
      "Ġà®¨à®±à®µà®©à®Ļà®ķà®³": 1550,
      "à®Ī": 1551,
      "à®Łà®¤à®¤": 1552,
      "à®°à®ļà®©": 1553,
      "14": 1554,
      "Ġà®ªà®¸": 1555,
      "Ġà®¤à®ķ": 1556,
      "à®ķà®ķà®ªà®ªà®Łà®ķà®©à®±à®©": 1557,
      "Ġ||": 1558,
      "à®¯à®µà®©": 1559,
      "Ġà®®à®¤à®²à®®": 1560,
      "Ġà®ĩà®µà®µà®±": 1561,
      "Ġà®ķà®²à®µà®¯": 1562,
      "ph": 1563,
      "oc": 1564,
      "à®ķà®±à®°à®ķà®³": 1565,
      "Ġà®ªà®ªà®°à®µà®°": 1566,
      "Ġà®İà®´à®¤à®¤à®³à®°à®ķà®³": 1567,
      "Ġà®¤à®±à®©": 1568,
      "à®ķà®ķà®¨": 1569,
      "Ġà®ļà®ķà®°": 1570,
      "à®ķà®ķà®©à®±à®¤": 1571,
      "à®°à®ķà®ķ": 1572,
      "Ġà®ļà®±à®ªà®ª": 1573,
      "à®ĩà®Ļà®ķà®²à®¨à®¤à®¤": 1574,
      "Ġà®ªà®°à®²": 1575,
      "à®ªà®ªà®°à®³": 1576,
      "Ġà®ĩà®®": 1577,
      "Ġà®ħà®Łà®Ł": 1578,
      "à®ªà®ªà®´": 1579,
      "Ġà®ķà®°à®ķà®ķà®Ł": 1580,
      "Łà®Łà®¤": 1581,
      "Ġà®¨à®Łà®Łà®©": 1582,
      "Ġà®ĩà®¨à®¤à®¯à®µà®²": 1583,
      "Ġà®ĩà®Łà®¯": 1584,
      "Ġà®µà®°à®ķà®±à®¤": 1585,
      "ity": 1586,
      "Ġà®İà®©à®µà®®": 1587,
      "Ġà®ħà®²à®µà®²": 1588,
      "à®¯à®³à®°à®ķà®³": 1589,
      "âĢĮ": 1590,
      "Ġà®µà®ªà®°à®ķà®ķà®±à®ªà®ª": 1591,
      "Ġà®¨à®ķà®°à®®": 1592,
      "à®ļà®ķ": 1593,
      "Ġà®ļà®ķà®ļà®ļ": 1594,
      "Ġà®İà®´à®¤à®¤à®³à®°": 1595,
      "à®ĵ": 1596,
      "à®ļà®¤à®¤à®£": 1597,
      "Ġà®ªà®£à®£": 1598,
      "Ġ2005": 1599,
      "Ġà®ªà®¯à®©à®ªà®Łà®Ł": 1600,
      "Ġà®īà®±à®¤": 1601,
      "Ġà®®à®ķà®°": 1602,
      "com": 1603,
      "Ġà®ļà®®à®ªà®": 1604,
      "Ġà®ļà®®à®¯": 1605,
      "à®¤à®©à®²": 1606,
      "à®°à®ķà®³à®®": 1607,
      "Ġà®ªà®°à®³à®¤à®°": 1608,
      "Ġà®¨à®Łà®ķà®°": 1609,
      "ess": 1610,
      "Ġà®µà®³à®¯à®Łà®Łà®µà®°à®°": 1611,
      "à®ªà®ªà®Łà®ķà®©à®±à®¤": 1612,
      "Ġà®ĥà®ªà®°": 1613,
      "Ġà®ªà®ķà®ķà®µ": 1614,
      "à®ħà®®à®°": 1615,
      "Ġ)": 1616,
      "Ġà®ªà®°à®¤à®ļ": 1617,
      "Ġà®İà®Łà®Ł": 1618,
      "Ġà®µà®´à®ķà®ķà®®": 1619,
      "à®¤à®¤à®µà®®": 1620,
      "Ġà®Ĩà®°à®¯à®ļà®ļ": 1621,
      "Ġà®¤à®µà®ķà®³": 1622,
      "à®¤à®©à®©": 1623,
      "à®īà®ļà®¤à®¤à®£": 1624,
      "à®ķà®ķà®³à®©": 1625,
      "Ġ24": 1626,
      "Ġà®ªà®¯à®°à®²": 1627,
      "Ġà®ķà®±à®ªà®ªà®ķ": 1628,
      "Ġà®ķà®Łà®¤à®²": 1629,
      "Ġà®ĩà®¨à®¤à®ķ": 1630,
      "à®ķà®ķà®ªà®ªà®Łà®Łà®³à®³à®¤": 1631,
      "Ġà®¤à®±à®ķà®²": 1632,
      "Ġà®µà®¤à®®": 1633,
      "à®¯à®°à®®": 1634,
      "Ġà®ªà®°à®®à®ªà®²à®©": 1635,
      "Ġà®ķà®µà®©": 1636,
      "Ġà®İà®Łà®¤à®¤à®ķà®ķà®Łà®Ł": 1637,
      "Ġà®®à®©à®¤à®°": 1638,
      "Ġà®¤à®°à®¨à®¤à®Ł": 1639,
      "Ġà®¤à®®à®¤": 1640,
      "à®Łà®Łà®²": 1641,
      "à®¯à®®à®ķ": 1642,
      "Ġà®µà®£à®£": 1643,
      "à®ķà®ķà®µà®©": 1644,
      "ian": 1645,
      "Ġà®ªà®ķà®¤à®ķà®³à®²": 1646,
      "à®¯à®©à®®": 1647,
      "Ġà®¨à®ļ": 1648,
      "Ġà®ļà®Ļà®ķà®¤": 1649,
      "à®¤à®Ł": 1650,
      "à®¤à®¤à®²à®°à®¨à®¤": 1651,
      "Ġà®¤à®°à®ªà®ªà®Łà®®": 1652,
      "Ġà®®à®²à®ļà®¯": 1653,
      "Ġà®ªà®¤à®ķà®ªà®ª": 1654,
      "13": 1655,
      "Ġà®ļà®Ļ": 1656,
      "Ġà®ķà®Łà®©": 1657,
      "Ġà®ħà®ªà®ªà®¤": 1658,
      "ab": 1659,
      "à®¸à®Łà®°": 1660,
      "à®¤à®¤à®©à®®": 1661,
      "Ġà®®à®±à®¯": 1662,
      "Ġà®ļà®®à®©": 1663,
      "Ġà®µà®Łà®ķà®ķ": 1664,
      "±à®¤": 1665,
      "à®°à®ķà®ķà®®": 1666,
      "Ġà®¨à®ķà®°à®²": 1667,
      "à®µà®³à®¯à®£": 1668,
      "à®ĩà®¨à®¤à®¯à®¤": 1669,
      "à®ľà®¯": 1670,
      "Ġà®ķà®ªà®ªà®²": 1671,
      "Ġ22": 1672,
      "à®ķà®ķà®³à®²": 1673,
      "Ġà®ķà®Łà®ļà®¯à®ķà®ª": 1674,
      "Ġ23": 1675,
      "Ġà®®à®ķà®ķà®¯à®®à®©": 1676,
      "Ġà®¨à®Łà®ªà®±": 1677,
      "ow": 1678,
      "à®©à®ļ": 1679,
      "Ġà®¤à®²à®ķà®ķà®Łà®ļ": 1680,
      "Ġà®ĩà®°à®£à®µ": 1681,
      "Ġà®¯à®´à®ªà®ªà®£": 1682,
      "à®ķà®ķà®°à®®": 1683,
      "Ġà®¨à®°à®Ł": 1684,
      "à®ªà®ªà®ªà®": 1685,
      "à®ĩà®µà®°": 1686,
      "à®²à®ķ": 1687,
      "Ġà®ĩà®±à®ªà®ª": 1688,
      "Ġà®®à®Łà®µ": 1689,
      "Ġà®ĩà®¤à®¤à®²": 1690,
      "ub": 1691,
      "Ġà®¸à®°": 1692,
      "à®µà®°à®ķ": 1693,
      "Ġà®¤à®®à®´à®ķ": 1694,
      "Ġà®İà®³": 1695,
      "Ġà®İà®°": 1696,
      "Ġà®°à®¤": 1697,
      "Ġà®Ĵà®©à®±à®ķà®®": 1698,
      "Ġà®ķà®Ļà®ķà®°": 1699,
      "à®©à®Ł": 1700,
      "à®¯à®³à®°": 1701,
      "à®ªà®¤à®¤à®°": 1702,
      "à®®à®ªà®®": 1703,
      "Ġà®¨à®Łà®ķ": 1704,
      "Ġà®ħà®±à®®": 1705,
      "Ġn": 1706,
      "Ġà®ħà®°à®ķà®²": 1707,
      "à®¯à®©à®±": 1708,
      "à®¤à®ļ": 1709,
      "Ġà®ıà®°": 1710,
      "Ġà®ļà®°à®®à®©": 1711,
      "à®¯à®²à®²": 1712,
      "à®ªà®ªà®°à®ķà®ķ": 1713,
      "Ġà®¨à®¯à®®": 1714,
      "Ġà®¨à®©à®±": 1715,
      "à®±à®µ": 1716,
      "Ġà®®à®©à®±à®®": 1717,
      "à®Ļà®ķà®³à®¯à®®": 1718,
      "Ġà®ļà®°à®ļà®°": 1719,
      "Ġà®ªà®©à®±à®µà®±à®±": 1720,
      "Ġà®ľà®²": 1721,
      "Ġà®°à®ļ": 1722,
      "Ġà®ªà®°à®®à®ªà®°": 1723,
      "Ġà®ħà®¤à®µà®¤": 1724,
      "Ġà®®à®±à®®": 1725,
      "Ġà®ªà®ķà®°": 1726,
      "à®ħà®Ł": 1727,
      "Ġà®ªà®Ļà®ķà®³": 1728,
      "Ġà®Ĭà®°": 1729,
      "ine": 1730,
      "Ġà®Łà®²": 1731,
      "à®ļà®©à®©": 1732,
      "Ġà®µà®¨à®¤à®°": 1733,
      "//": 1734,
      "à®ķà®ķà®ªà®ªà®Łà®Łà®©": 1735,
      "Ġà®¤à®ķà®ªà®ªà®": 1736,
      "Ġà®ĩà®¤à®±à®ķ": 1737,
      "ĠâĢĺ": 1738,
      "Ġà®µà®©à®²": 1739,
      "Ġà®ķà®Łà®ķà®ķà®®": 1740,
      "tp": 1741,
      "à®²à®¨à®¤": 1742,
      "Ġà®Ĩà®£à®Łà®©": 1743,
      "à®Ĩà®°": 1744,
      "à®Ĭ": 1745,
      "Ġà®īà®³à®³à®©à®°": 1746,
      "Ġà®īà®²à®ķà®©": 1747,
      "Ġà®¨à®´": 1748,
      "ĠSt": 1749,
      "Ġà®®à®±à®±à®°": 1750,
      "Ġà®¤à®Łà®°à®ªà®©": 1751,
      "Ġà®ħà®µà®±à®±à®©": 1752,
      "50": 1753,
      "à®®à®©à®©": 1754,
      "Ġà®ļà®¯à®²à®ªà®Łà®Ł": 1755,
      "Ġà®µà®ķà®¯": 1756,
      "à®®à®¸": 1757,
      "à®ļà®¯à®®": 1758,
      "Ġà®®à®´à®µà®¤à®®": 1759,
      "Ġà®Ĵà®ªà®ªà®¨à®¤": 1760,
      "Ġà®ħà®´à®¤à®¤": 1761,
      "Ġà®ħà®¤à®±à®ķ": 1762,
      "av": 1763,
      "Ġà®¤à®±à®ķ": 1764,
      "Ġà®Īà®°": 1765,
      "à®µà®¤à®ļ": 1766,
      "à®ªà®ªà®ķà®ķ": 1767,
      "à®·à®©": 1768,
      "Ġà®ļà®Łà®Łà®®": 1769,
      "Ġà®ļà®ķà®¤à®°": 1770,
      "à®µà®¤à®±à®ķà®©": 1771,
      "Ġà®İà®ļ": 1772,
      "à®¤à®´": 1773,
      "://": 1774,
      "Ġà®ļà®®à®ķ": 1775,
      "à®¯à®¤à®ķ": 1776,
      "http": 1777,
      "à®ķà®ķà®©à®±à®©à®°": 1778,
      "Ġà®İà®µ": 1779,
      "Ġà®ªà®´à®¯": 1780,
      "Ġà®ªà®©à®±à®µ": 1781,
      "Ġà®ŀ": 1782,
      "à®ķà®ªà®°": 1783,
      "Ġà®ªà®°à®ķà®ķà®µà®®": 1784,
      "Ġà®µà®±à®ªà®©": 1785,
      "Ġà®¨à®±à®±à®£à®Łà®²": 1786,
      "Ġà®®à®ķà®ªà®ªà®°": 1787,
      "à®Ļà®ķà®³à®²à®®": 1788,
      "Ġà®¤à®ķà®µ": 1789,
      "Ġà®Łà®©": 1790,
      "à®ļà®Łà®Ł": 1791,
      "à®¤à®¤à®Ł": 1792,
      "Ġà®ħà®°à®£": 1793,
      "Ġà®µà®´à®®": 1794,
      "Ġà®®à®¨à®²à®¤à®¤à®²": 1795,
      "Ġà®ħà®©à®®à®¤": 1796,
      "à®Ļà®ķà®ķà®±à®¤": 1797,
      "Ġà®¨à®°à®²": 1798,
      "à®ķà®¸à®Ł": 1799,
      "à®¨à®Łà®Łà®²": 1800,
      "à®ķà®³à®Łà®©": 1801,
      "à®µà®Łà®©": 1802,
      "Ġà®®à®©à®©à®³": 1803,
      "Ġà®ķà®£à®©": 1804,
      "Ġà®ķà®Łà®¨à®¤": 1805,
      "Ġà®ķà®£à®Łà®Ł": 1806,
      "Ġà®®à®Łà®¯à®¤": 1807,
      "Ġà®ħà®µà®°à®Łà®¯": 1808,
      "Ġà®ªà®°à®¨à®¤à®°": 1809,
      "à®Łà®ļà®®": 1810,
      "Ġl": 1811,
      "Ġà®ļà®´à®²": 1812,
      "à®¤à®¤à®´": 1813,
      "ak": 1814,
      "11": 1815,
      "Ġà®īà®³à®³à®°": 1816,
      "Ġà®Ĳà®°à®ªà®ªà®¯": 1817,
      "Ġà®Ĩà®ļà®¯": 1818,
      "Ġà®ªà®²à®©": 1819,
      "Ġà®®à®ķà®³": 1820,
      "Ġà®®à®Łà®Łà®°": 1821,
      "Ġà®ĩà®°à®ļà®ļ": 1822,
      "à®¨à®¤à®°à®®": 1823,
      "à®£à®Łà®²": 1824,
      "Ġà®®à®²à®®à®ķ": 1825,
      "Ġà®ħà®µà®³": 1826,
      "à®ªà®ªà®ķà®®": 1827,
      "à®µà®°à®²à®±": 1828,
      "à®¤à®¤à®¤à®²": 1829,
      "Ġà®®à®¤à®²à®µà®¤": 1830,
      "Ġà®Ĩà®´": 1831,
      "|-": 1832,
      "à®ªà®¨": 1833,
      "Ġà®İà®©à®©": 1834,
      "Ġ21": 1835,
      "à®ªà®ªà®³à®°": 1836,
      "Ġà®µà®´à®Ļà®ķà®ªà®ªà®Ł": 1837,
      "à®°à®¨à®¤à®©à®°": 1838,
      "Ġ26": 1839,
      "Ġà®ķà®¤à®°": 1840,
      "Ġà®īà®²à®ķà®ª": 1841,
      "Ġà®¤à®°à®®à®©": 1842,
      "Ġ2010": 1843,
      "Ġà®ĩà®Łà®Ļà®ķà®³à®²": 1844,
      "à®¯à®µà®°": 1845,
      "à®ªà®¨à®¤": 1846,
      "Ġà®¨à®ķà®ķ": 1847,
      "Ġ100": 1848,
      "Ġà®ªà®°à®¤à®¤à®©à®¯": 1849,
      "à®±à®ķà®®": 1850,
      "Ġà®ªà®°à®ŀà®ļ": 1851,
      "à®¨à®²à®®": 1852,
      "à®µà®¸": 1853,
      "Ġà®ļà®µà®©": 1854,
      "à®ķà®±à®©": 1855,
      "ish": 1856,
      "à®µà®ª": 1857,
      "à®ķà®ķà®¯à®¤": 1858,
      "à®ķà®°à®©": 1859,
      "Ġà®µà®´à®¯à®ķ": 1860,
      "Ġà®µà®°à®°à®ķà®³": 1861,
      "à®³à®µà®²": 1862,
      "à®®à®±à®±": 1863,
      "Ġà®Ĩà®ķà®ķà®µà®²": 1864,
      "Ġà®īà®³à®³à®Łà®Ł": 1865,
      "ec": 1866,
      "Ġà®µà®¤à®¯": 1867,
      "à®ªà®ªà®ķà®¤à®¯à®²": 1868,
      "Ġà®ķà®¤à®²": 1869,
      "Ġà®ĩà®¸": 1870,
      "Ġà®Īà®Łà®ªà®Łà®Ł": 1871,
      "à®Łà®ķ": 1872,
      "ud": 1873,
      "Ġà®Łà®Ł": 1874,
      "Ġà®®à®¯à®®": 1875,
      "Ġà®Ĩà®ĥà®ª": 1876,
      "Ġà®ĩà®ļà®ļ": 1877,
      "Ġà®ļà®°à®¯à®©": 1878,
      "à®ªà®Łà®¯": 1879,
      "Ġà®®à®©à®ª": 1880,
      "Ġà®īà®ļà®ļ": 1881,
      "Ġà®¤à®²à®µà®²": 1882,
      "Ġà®ªà®ķà®ķà®¤": 1883,
      "Ġà®ħà®¨": 1884,
      "Ġà®ļà®°à®¯": 1885,
      "Ġà®¤à®±à®®": 1886,
      "Ġà®®à®ķà®ķ": 1887,
      "Ġà®ªà®ŀà®ļ": 1888,
      "à®ķà®ķà®³à®®": 1889,
      "Ġà®ķà®©à®±": 1890,
      "ard": 1891,
      "à®ļà®ª": 1892,
      "Ġà®ħà®Łà®¯": 1893,
      "Ġà®ļà®²à®¤à®¤": 1894,
      "Ġà®®à®ķà®¤": 1895,
      "Ġà®¤à®Łà®°à®ª": 1896,
      "à®¤à®¤à®³": 1897,
      "Ġ2004": 1898,
      "ang": 1899,
      "ĠCh": 1900,
      "à®ªà®Ļà®ķà®³": 1901,
      "Ġà®ħà®®à®²": 1902,
      "Ġà®¨à®ķà®´à®µà®ķà®³": 1903,
      "à®ķà®Łà®°": 1904,
      "Ġ27": 1905,
      "Ġà®¤à®´à®±": 1906,
      "Ġà®İà®£à®£à®ķà®ķ": 1907,
      "Ġ&": 1908,
      "Ġà®®à®©à®©à®£": 1909,
      "ov": 1910,
      "à®©à®©à®²": 1911,
      "Ġà®ªà®¯à®°à®ķà®³": 1912,
      "Ġà®ªà®¯à®±à®ļ": 1913,
      "à®Ļà®ķà®ª": 1914,
      "Ġà®ĩà®¯à®ļ": 1915,
      "Ġà®¨à®³à®®": 1916,
      "à®ķà®®à®©": 1917,
      "Ġà®İà®¤à®°à®©": 1918,
      "Ġà®İà®©à®ªà®¤à®²": 1919,
      "Ġà®¤à®®à®´à®°": 1920,
      "Ġ2000": 1921,
      "à®ķà®·": 1922,
      "à®ķà®ķà®µà®²à®²": 1923,
      "Ġà®ķà®¤à®¤": 1924,
      "ev": 1925,
      "Ġà®µà®´à®µ": 1926,
      "Ġà®®à®´à®¯à®²": 1927,
      "Ġà®ªà®°à®£": 1928,
      "Ġà®ķà®°à®²": 1929,
      "192": 1930,
      "Ġà®Łà®ļà®®à®ªà®°": 1931,
      "à®ªà®ªà®Łà®µà®¤": 1932,
      "Ġà®ĩà®¯à®±à®±": 1933,
      "Ġà®ªà®±à®¯à®¯à®²": 1934,
      "Ġà®¹à®²": 1935,
      "Ġà®®à®ķà®ļ": 1936,
      "à®°à®¨à®¤à®©": 1937,
      "Ġà®ĩà®Łà®¯à®²": 1938,
      "à®µà®¤à®±à®ķà®ķ": 1939,
      "Ġà®Ĵà®°à®¨à®³": 1940,
      "Ġà®µà®Łà®Łà®®": 1941,
      "à®ķà®®à®ķ": 1942,
      "Ġà®ªà®²à®µ": 1943,
      "Ġà®ķà®Łà®Łà®°": 1944,
      "à®ħà®¤": 1945,
      "Ġà®ĩà®¯à®ķà®ķà®¤à®¤à®²": 1946,
      "Ġà®ĩà®°à®ķà®ķà®²à®®": 1947,
      "Ġà®ķà®±à®¯à®Ł": 1948,
      "eb": 1949,
      "Ġà®ħà®®à®ļà®ļ": 1950,
      "Ġà®ħà®µà®°à®ķà®³à®©": 1951,
      "Ġà®ħà®²à®²": 1952,
      "ex": 1953,
      "Ġà®®à®©à®ªà®°à®³": 1954,
      "Ġà®ķà®°à®¤à®ªà®ªà®Łà®ķà®±à®¤": 1955,
      "Ġà®ļà®©à®µà®°": 1956,
      "Ġà®ĩà®°à®¨à®¤à®©": 1957,
      "Ġà®¤à®°à®ªà®ªà®Łà®®à®ķà®®": 1958,
      "Ġ28": 1959,
      "Ġà®¨à®ļà®ļ": 1960,
      "Ġà®ħà®¤à®ķà®®à®ķ": 1961,
      "Ġà®¸à®Ł": 1962,
      "Ġà®İà®¤à®°à®ķ": 1963,
      "Ġà®¨à®Łà®¤à®¤à®°": 1964,
      "Ġà®ļà®°à®¤à®¤": 1965,
      "Ġà®ªà®²à®ķà®²à®ķà®ķà®´à®ķà®®": 1966,
      "Ġà®ªà®Łà®Łà®®": 1967,
      "Ġà®ĩà®°à®ķà®ķ": 1968,
      "Ġon": 1969,
      "=\"": 1970,
      "art": 1971,
      "Ġà®ĩà®²à®Ļà®ķà®¯à®©": 1972,
      "Ġà®¤à®µà®±": 1973,
      "Ġà®®à®©à®©à®©": 1974,
      "à®ªà®ªà®¤à®±à®ķ": 1975,
      "Ġà®µà®²à®®": 1976,
      "Ġà®Ĩà®ķ": 1977,
      "Ġà®¨à®°à®¤à®¤à®²": 1978,
      "à®¯à®°à®©": 1979,
      "Ġà®ĩà®¯à®ķà®ķà®¨": 1980,
      ".,": 1981,
      "Ġà®īà®±à®ªà®ªà®©à®°à®ķ": 1982,
      "à®ķà®°à®¤": 1983,
      "à®ļà®¯à®¤": 1984,
      "à®ªà®ªà®°à®µ": 1985,
      "Ġà®ķà®ªà®°": 1986,
      "à®ķà®ķà®ªà®": 1987,
      "Ġà®ĩà®®à®®": 1988,
      "Ġà®ħà®¤à®©à®²": 1989,
      "if": 1990,
      "Ġà®ĩà®°à®®": 1991,
      "ory": 1992,
      "ial": 1993,
      "à®±à®ķà®³": 1994,
      "à®£à®Łà®°": 1995,
      "Ġà®®à®°à®£": 1996,
      "Ġà®ªà®´à®¤": 1997,
      "Ġà®ķà®µà®°": 1998,
      "Ġà®¨à®¤à®®à®©à®±": 1999,
      "Ġà®µà®³à®¯": 2000,
      "à®¤à®¤à®µà®°": 2001,
      "à®¯à®Łà®®": 2002,
      "Ġ190": 2003,
      "ĠĠĠ": 2004,
      "à®µà®©à®°": 2005,
      "Ġà®¤à®ķà®µà®²à®ķà®³": 2006,
      "Ġà®Ĩà®¤": 2007,
      "Ġà®ĩà®©à®©à®®": 2008,
      "Ġà®ķà®©à®Ł": 2009,
      "Ġà®ħà®µà®°à®ķà®ķ": 2010,
      "ary": 2011,
      "Ġto": 2012,
      "Ġà®ªà®ķ": 2013,
      "Ġà®ļà®±à®±à®²": 2014,
      "'s": 2015,
      "Ġ2001": 2016,
      "Ġ189": 2017,
      "Ġà®ķà®´à®¨à®¤à®ķà®³": 2018,
      "Ġà®ªà®±à®¨à®¤à®°": 2019,
      "Ġà®ĩà®±à®¨à®¤": 2020,
      "à®Ļà®ķà®³à®³": 2021,
      "à®µà®¤à®²à®²": 2022,
      "à®¤à®±à®ķ": 2023,
      "Ġà®ªà®²à®®": 2024,
      "Ġà®¤à®°à®®à®£à®®": 2025,
      "Ġà®Ĵà®Łà®Ł": 2026,
      "à®¯à®°à®ķ": 2027,
      "Ġà®ªà®¤à®µà®©": 2028,
      "à®µà®¯à®®": 2029,
      "Ġà®ķà®£à®ªà®ªà®Łà®ķà®©à®±à®©": 2030,
      "ite": 2031,
      "Ġ[": 2032,
      "Ġà®µà®³à®¯à®±": 2033,
      "Ġà®¨à®±à®±à®£à®Łà®©": 2034,
      "Ġà®İà®©à®ªà®©": 2035,
      "Ġà®µà®ķà®¯à®©": 2036,
      "Ġà®ħà®®à®¤": 2037,
      "à®ķà®ªà®ªà®Łà®Ł": 2038,
      "Ġà®®à®¨à®¤à®¯": 2039,
      "Ġà®¨à®Łà®µà®Łà®ķà®ķà®ķà®³": 2040,
      "à®ķà®ķà®ķà®ķà®Ł": 2041,
      "Ġà®®à®ķà®ķà®³à®©": 2042,
      "à®µà®³à®¯à®£à®ªà®ªà®ķà®³": 2043,
      "Ġà®ķà®°à®·à®£": 2044,
      "à®µà®©à®®": 2045,
      "Ġà®ķà®®à®°": 2046,
      "à®ªà®ªà®¨à®²": 2047,
      "à®¨à®Łà®ķ": 2048,
      "à®±à®®": 2049,
      "Ġà®ķà®Łà®®à®ª": 2050,
      "Ġà®ĩà®¯à®ķà®ķà®®": 2051,
      "Ġà®®à®ķà®ª": 2052,
      "Ġà®µà®Ļà®ķ": 2053,
      "Ġà®ªà®²à®°": 2054,
      "Ġà®ªà®©à®©à®Łà®Łà®¤": 2055,
      "à®ķà®µà®©": 2056,
      "à®¸à®¤": 2057,
      "Ġà®ªà®£à®Łà®¯": 2058,
      "Ġ+": 2059,
      "Ġ50": 2060,
      "à®¯à®³à®³à®°": 2061,
      "à®¨à®¤à®®": 2062,
      "à®Ļà®ķà®³à®ª": 2063,
      "Ġà®ªà®°à®Łà®ļ": 2064,
      "Ġà®ªà®±à®®": 2065,
      "Ġà®®à®¤à®¤à®®": 2066,
      "à®¨à®¤à®°à®©": 2067,
      "Ġà®ħà®¤à®°": 2068,
      "à®£à®®à®ķ": 2069,
      "Ġ29": 2070,
      "à®Ļà®ķà®ªà®ªà®°": 2071,
      "à®µà®¤à®¤": 2072,
      "à®ĩà®±": 2073,
      "Ġà®ħà®¤à®¤": 2074,
      "Ġà®¤à®ķà®ķà®¤à®²": 2075,
      "est": 2076,
      "à®ļà®²à®®": 2077,
      "all": 2078,
      "Ġà®ªà®¤à®°": 2079,
      "à®¸à®²": 2080,
      "Ġà®Ĩà®µà®£": 2081,
      "Ġà®¨à®Łà®®à®±": 2082,
      "Ġà®ĩà®¨à®¤à®¤": 2083,
      "Ġà®īà®¤à®°": 2084,
      "Ġà®¨à®²à®¯": 2085,
      "Ġà®ķà®°à®µà®ķà®³": 2086,
      "à®ķà®ķà®°à®¯": 2087,
      "à®µà®ķà®®": 2088,
      "à®®à®ªà®Łà®Ł": 2089,
      "Ġà®ħà®®à®°à®ķà®ķà®µà®²": 2090,
      "Ġà®Ĩà®¸à®¤à®°": 2091,
      "à®ªà®ªà®Łà®Łà®©à®°": 2092,
      "Ġà®ªà®©à®ªà®±à®±": 2093,
      "Ġà®¤à®®à®´à®²": 2094,
      "www": 2095,
      "à®¤à®¤à®©à®²": 2096,
      "à®ķà®ķà®²à®¤à®¤à®²": 2097,
      "à®µà®¤à®©": 2098,
      "Ġà®ķà®±à®©à®°": 2099,
      "Ġà®ªà®¤à®ķà®ªà®ªà®": 2100,
      "Ġh": 2101,
      "Ġà®ħà®¤à®ķà®®à®©": 2102,
      "Ġà®Ĵà®ªà®ªà®¨à®¤à®Ļà®ķà®³": 2103,
      "ran": 2104,
      "ob": 2105,
      "µà®®": 2106,
      "Ġà®Ĵà®ªà®ªà®¨": 2107,
      "à®ļà®Ł": 2108,
      "Ġà®ħà®±à®¨à®¤": 2109,
      "Ġà®ªà®²à®µà®°": 2110,
      "Ġà®ħà®´à®ķà®ķà®ªà®ªà®Łà®ķà®±à®¤": 2111,
      "Ġà®İà®¤": 2112,
      "à®¯à®©à®²": 2113,
      "Ġà®ķà®©à®©": 2114,
      "Ġà®īà®±à®ªà®ªà®©à®°": 2115,
      "Ġà®Ĩà®ķà®ļ": 2116,
      "Ġà®µà®³à®®": 2117,
      "Ġà®Ĵà®©": 2118,
      "Ġ2003": 2119,
      "à®ķà®Ļà®ķà®³à®²": 2120,
      "Ġà®ķà®±à®ªà®ªà®Łà®ķà®±à®¤": 2121,
      "Ġà®ķà®Łà®Łà®°à®ķà®³": 2122,
      "à®¸à®Łà®©": 2123,
      "à®¯à®µà®²": 2124,
      "Ġfor": 2125,
      "21": 2126,
      "ok": 2127,
      "à®¤à®¤à®Łà®Ł": 2128,
      "Ġà®µà®³à®ķà®ķà®®": 2129,
      "à®ªà®³à®³": 2130,
      "à®ħà®°à®ļ": 2131,
      "Ġà®¤à®Ļà®ķ": 2132,
      "à®Ļà®ķà®¯à®©": 2133,
      "à®®à®ķà®ķà®³": 2134,
      "à®µà®£à®Ł": 2135,
      "Ġà®ķà®Łà®Łà®£": 2136,
      "Ġà®ķà®£à®Łà®°à®ķà®ķà®®": 2137,
      "Ġà®ļà®µà®ķà®³": 2138,
      "Ġà®µà®£à®ķ": 2139,
      "Ġà®ĩà®²à®²à®¤": 2140,
      "Ġà®µà®²à®Ļà®ķà®ķà®³": 2141,
      "à®ĩà®¤à®©": 2142,
      "Ġv": 2143,
      "Ġà®¨à®µà®©": 2144,
      "Ġà®ªà®ķà®ķà®®": 2145,
      "à®ķà®²à®¤à®¤à®²": 2146,
      "à®¯à®¯": 2147,
      "ign": 2148,
      "Ġà®¯à®°": 2149,
      "Ġà®®à®©à®®": 2150,
      "Ġà®ļà®Ļà®ķà®®": 2151,
      "ell": 2152,
      "ai": 2153,
      "30": 2154,
      "Ġà®®à®£à®µà®°à®ķà®³": 2155,
      "Ġà®¨à®Łà®ŀà®ļà®²": 2156,
      "Ġà®ļà®°à®µà®¤à®ļ": 2157,
      "à®ªà®ķà®ķ": 2158,
      "Ġà®®à®£à®Łà®²": 2159,
      "Ġà®ļà®ª": 2160,
      "à®¸à®©": 2161,
      "Ġà®ļà®µà®²": 2162,
      "ical": 2163,
      "ill": 2164,
      "Ġà®®à®¨à®ķà®°": 2165,
      "Ġà®ķà®Łà®Łà®ªà®ªà®Ł": 2166,
      "Ġà®ªà®©à®µà®°": 2167,
      "Ġà®®à®ķà®ªà®ªà®°à®¯": 2168,
      "Ġà®®à®´à®ķà®³": 2169,
      "22": 2170,
      "Ġà®ļà®ªà®ªà®°": 2171,
      "Ġà®¨à®±à®¤à®¤": 2172,
      "Ġà®®à®ķà®¨à®¤": 2173,
      "Ġà®ªà®¯à®©à®°": 2174,
      "Ġà®ķà®ªà®ª": 2175,
      "Ġà®µà®µà®µà®±": 2176,
      "Ġà®¨à®Łà®Łà®²": 2177,
      "à®ħà®°": 2178,
      ".\"": 2179,
      "Ġà®¤à®ķà®ªà®ª": 2180,
      "Ġà®īà®²à®ķà®®": 2181,
      "Ġà®µà®°à®¤à®ķà®³": 2182,
      "Ġà®ĩà®°à®ķà®®": 2183,
      "Ġà®ĩà®°à®ķà®ķà®©à®±à®©": 2184,
      "Ġà®®à®©à®µà®°": 2185,
      "Ġà®¨à®ķà®ķà®®": 2186,
      "Ġà®µà®ªà®ª": 2187,
      "Ġà®®à®ķà®²": 2188,
      "à®¨à®¤à®¤à®²": 2189,
      "Ġà®īà®Łà®ªà®Ł": 2190,
      "Ġà®¹à®°": 2191,
      "à®ķà®ķà®£à®®": 2192,
      "à®ķà®ķà®ķà®±à®¤": 2193,
      "à®Ļà®ķà®³à®¤": 2194,
      "Ġà®Ĵà®°à®Ļà®ķà®£": 2195,
      "Ġà®µà®±à®ªà®Łà®Ł": 2196,
      "Ġà®µà®¯à®¤à®²": 2197,
      "Ġà®¤à®Łà®°à®ļà®ļ": 2198,
      "Ġà®ľà®©à®µà®°": 2199,
      "Ġà®Ĵà®©à®±à®ķ": 2200,
      "à®İà®²": 2201,
      "Ġà®¤à®µà®¯à®©": 2202,
      "Ġà®Łà®®": 2203,
      "ive": 2204,
      "Ġà®¤à®©à®©à®Łà®¯": 2205,
      "à®ªà®ªà®¤à®®": 2206,
      "Ġà®ĩà®ļà®¯à®®à®¤à®¤": 2207,
      "à®¨à®ķà®´": 2208,
      "Ġà®ªà®¯à®©à®ªà®Łà®¤à®¤à®ªà®ªà®Łà®ķà®±à®¤": 2209,
      "Ġà®µà®£à®Łà®¯": 2210,
      "Ġà®īà®°à®µà®ķà®ķ": 2211,
      "à®ĩà®µ": 2212,
      "à®Ļà®ķà®ķ": 2213,
      "Ġà®ªà®ķà®®": 2214,
      "Ġà®īà®¯à®°à®¨à®¤": 2215,
      "ĠUn": 2216,
      "Ġà®ªà®Łà®Łà®ķà®³": 2217,
      "Ġà®¤à®µà®²": 2218,
      "Ġà®µà®¤à®¤à®°": 2219,
      "à®¨à®©": 2220,
      "à®Ļà®ķà®Ļ": 2221,
      "Ġà®ªà®²à®°à®®": 2222,
      "Ġà®¨à®£à®£": 2223,
      "our": 2224,
      "Ġà®ķà®£à®®": 2225,
      "à®¤à®°à®¤à®¤": 2226,
      "2011": 2227,
      "Ġà®ļà®²à®®": 2228,
      "Ġà®ķà®£à®¤": 2229,
      "Ġà®¤à®°à®¤à®²à®²": 2230,
      "à®µà®°à®Ł": 2231,
      "||": 2232,
      "Ġà®ĩà®ªà®ªà®°": 2233,
      "Ġà®ªà®°à®£à®®": 2234,
      "ib": 2235,
      "Ġà®ķà®¯à®²à®ķà®³": 2236,
      "Ġà®ķà®£à®ķ": 2237,
      "à®ķà®¤à®®": 2238,
      "ip": 2239,
      "à®ªà®°à®©": 2240,
      "\",": 2241,
      "ath": 2242,
      "Ġà®®à®ķà®µ": 2243,
      "ies": 2244,
      "Ġà®ļà®µà®®": 2245,
      "Ġà®ªà®°à®µà®ķà®³": 2246,
      "Ġà®Ĩà®µà®¤": 2247,
      "Ġà®ĩà®ªà®ªà®Ł": 2248,
      "Ġà®īà®°à®µà®ķà®ķà®ªà®ªà®Łà®Ł": 2249,
      "Ġhttp": 2250,
      "à®®à®©à®®": 2251,
      "Ġà®®à®¸à®²à®®": 2252,
      "Ġà®ķà®±à®µà®©": 2253,
      "Ġà®¨à®µà®²": 2254,
      "à®±à®±à®²": 2255,
      "à®ªà®£à®Ł": 2256,
      "Ġà®ĩà®¯à®±à®ªà®¯à®²": 2257,
      "Ġà®µà®ķà®©": 2258,
      "Ġà®µà®¯à®²": 2259,
      "Ġà®ĩà®¤à®¤à®°à®ªà®ªà®Łà®¤à®¤à®²": 2260,
      "Ġà®ħà®¤à®¤à®Łà®©": 2261,
      "25": 2262,
      "à®ķà®³à®ķà®ķà®®": 2263,
      "Ġà®µà®³à®ªà®ªà®Ł": 2264,
      "Ġà®ļà®µà®¯à®¤": 2265,
      "Ġà®īà®£à®°": 2266,
      "Ġà®µà®©à®°": 2267,
      "à®¯à®ķà®µà®®": 2268,
      "Ġà®ħà®±à®®à®ķà®®": 2269,
      "à®ļà®¯à®©": 2270,
      "Ġà®ħà®´à®ķà®ķà®ªà®ªà®Łà®®": 2271,
      "Ġà®īà®°à®µà®ķà®ķà®®": 2272,
      "ĠPr": 2273,
      "Ġà®ĩà®³à®®": 2274,
      "à®µà®¯à®ķ": 2275,
      "à®ķà®ķà®¤à®¤à®©": 2276,
      "Ġ188": 2277,
      "Ġà®®à®±à®ķà®³à®³": 2278,
      "Ġà®Ĵà®±à®±": 2279,
      "à®ķà®ķà®¯à®©": 2280,
      "Ġà®®à®¤à®ªà®ªà®Ł": 2281,
      "Ġà®ĩà®ļà®²à®®": 2282,
      "Ġà®ļà®¯à®¯à®ªà®ªà®Łà®Łà®¤": 2283,
      "à®ªà®°à®µ": 2284,
      "à®ķà®±à®ªà®ªà®ķà®³": 2285,
      "age": 2286,
      "Ġà®¤à®°à®¤à®¤à®¨à®¤": 2287,
      "Ġà®ļà®°à®ķà®ķà®®": 2288,
      "Ġà®µà®°à®°": 2289,
      "Ġà®ĩà®±à®¤à®¯à®²": 2290,
      "ep": 2291,
      "à®Łà®®à®°à®¨à®¤": 2292,
      "Ġà®®à®£à®®": 2293,
      "Ġà®ļà®¨à®¤à®¤": 2294,
      "Ġà®Ĵà®¤à®¤": 2295,
      "Ġà®İà®©à®±à®²": 2296,
      "Ġà®¸à®Łà®°": 2297,
      "à®¯à®³à®³": 2298,
      "à®ªà®°à®ķ": 2299,
      "qu": 2300,
      "Ġà®ķà®¸": 2301,
      "Ġà®ĩà®µà®°à®ķà®ķ": 2302,
      "Ġà®ªà®ķà®ķà®µà®°à®¤à®¤": 2303,
      "Ġà®ļà®µà®°": 2304,
      "Ġà®ļà®¤à®¨à®¤à®°": 2305,
      "à®®à®¤à®²": 2306,
      "Ġà®ķà®£à®ªà®ªà®Łà®ķà®±à®¤": 2307,
      "Ġà®ªà®ķà®¸": 2308,
      "Ġà®µà®±à®ªà®Ł": 2309,
      "Ġà®¤à®Łà®Ļà®ķà®©à®°": 2310,
      "Ġà®°à®·": 2311,
      "Ġà®µà®ļà®¤": 2312,
      "Ġ1990": 2313,
      "Ġà®ķà®±à®ªà®ª": 2314,
      "Ġà®Ĩà®ķà®¸à®Ł": 2315,
      "Ġà®ħà®®à®°à®ķà®ķà®µà®©": 2316,
      "Ġà®¨à®Łà®ķà®³à®©": 2317,
      "Ġà®¤à®±à®±à®®": 2318,
      "Ġà®®à®°à®®": 2319,
      "Ġà®īà®Łà®¯": 2320,
      "Ġà®¨à®±à®µà®©à®¤à®¤à®©": 2321,
      "Ġà®īà®²à®ķà®²": 2322,
      "à®ļà®¯à®²": 2323,
      "Ġà®ĩà®°à®Łà®Ł": 2324,
      "Ġà®ªà®Łà®¤à®¤à®²": 2325,
      "Ġà®ķà®¨": 2326,
      "Ġg": 2327,
      "à®µà®°à®¤": 2328,
      "ou": 2329,
      "Ġà®¤à®°à®µà®Ł": 2330,
      "à®ļà®°à®®": 2331,
      "Ġà®¤à®³à®®": 2332,
      "à®ķà®³à®¤": 2333,
      "Ġà®ķà®´à®®": 2334,
      "Ġà®īà®¯à®°à®©": 2335,
      "Ġà®ªà®ľ": 2336,
      "Ġ2002": 2337,
      "à®¤à®¤à®±à®ķà®©": 2338,
      "Ġà®ªà®Łà®¯à®Ł": 2339,
      "Ġà®µà®·": 2340,
      "Ġà®īà®°à®ļ": 2341,
      "Ġà®°à®¯à®²": 2342,
      "à®¤à®±à®©": 2343,
      "à®ªà®Ļ": 2344,
      "à®Łà®¤à®¤à®²": 2345,
      "Ġà®ªà®°à®¸": 2346,
      "à®Ļà®ķà®ªà®": 2347,
      "Ġà®¨à®©à®µ": 2348,
      "und": 2349,
      "Ġà®¤à®ķà®ķ": 2350,
      "Ġà®ħà®µà®°à®ķà®³à®¤": 2351,
      "Ġà®ļà®Łà®Łà®®à®©à®±à®¤": 2352,
      "à®ªà®ªà®¤à®¤": 2353,
      "ĠAn": 2354,
      "ational": 2355,
      "Ġà®µà®°à®ķà®©à®±à®©": 2356,
      "Ġà®ªà®°à®ķ": 2357,
      "Ġà®ļà®¯à®¤à®¤": 2358,
      "Ġà®ħà®°à®ļà®¯à®²à®µà®¤à®ķà®³": 2359,
      "Ġà®ħà®®à®¯à®®": 2360,
      "Ġà®Ĩà®¯à®µà®ķà®³": 2361,
      "Ġà®ķà®ª": 2362,
      "Ġà®ķà®ķ": 2363,
      "Ġà®ļà®Ļà®ķà®°": 2364,
      "Ġà®ªà®°à®©à®ļ": 2365,
      "à®ļà®¤à®¤à®°": 2366,
      "Ġà®µà®ªà®ªà®¨à®²": 2367,
      "Ġà®Ĩà®ķà®¤à®¤": 2368,
      "à®ħà®®": 2369,
      "Ġby": 2370,
      "Ġà®ªà®±à®¤à®¤": 2371,
      "Ġà®¤à®°à®¨à®²": 2372,
      "Ġà®ķà®´à®ķà®®": 2373,
      "Ġà®Ĩà®©à®¤": 2374,
      "Ġà®ļà®ķà®ķà®°": 2375,
      "Ġà®ĩà®°à®¤à®¤": 2376,
      "Ġà®ķà®²à®µà®Łà®Ł": 2377,
      "Ġà®ķà®¤à®¤à®²": 2378,
      "Ġà®ķà®Łà®Łà®ªà®ªà®Łà®¤à®¤": 2379,
      "Ġà®ļà®±à®¤": 2380,
      "à®ªà®°à®¯": 2381,
      "Ġà®µà®Łà®®": 2382,
      "ate": 2383,
      "Ġà®ĩà®µà®°à®©": 2384,
      "à®ªà®µà®°": 2385,
      "ant": 2386,
      "à®Ĩà®£à®Ł": 2387,
      "rom": 2388,
      "Ġà®ĵà®Łà®Łà®Ļà®ķà®³": 2389,
      "Ġà®®à®²à®£à®®": 2390,
      "Ġà®ĩà®¤à®¤à®ķà®¯": 2391,
      "Ġà®ªà®°à®ļà®ļ": 2392,
      "ction": 2393,
      "Ġà®®à®²à®ķà®ķà®±": 2394,
      "Ġ2012": 2395,
      "Ġà®ĵà®Ł": 2396,
      "Ġà®ĩà®¤à®µ": 2397,
      "à®ķà®®à®°": 2398,
      "âĢİ": 2399,
      "Ġà®ªà®³à®³à®ķà®³": 2400,
      "Ġà®ĩà®²à®²à®®à®²": 2401,
      "à®ķà®°à®¤à®¤": 2402,
      "Ġà®ķà®ķà®ķà®": 2403,
      "à®ĩà®²à®Ļà®ķ": 2404,
      "à®£à®¯": 2405,
      "Ġà®ħà®©à®©": 2406,
      "Ġà®ķà®°à®ķà®ķ": 2407,
      "Ġà®ļà®²à®°": 2408,
      "olog": 2409,
      "Ġà®ĩà®¨à®¨à®²": 2410,
      "ith": 2411,
      "Ġà®ªà®°à®µà®¯": 2412,
      "40": 2413,
      "Ġà®ļà®¤à®®": 2414,
      "Ġà®īà®¤à®¤à®°": 2415,
      "Ġst": 2416,
      "Ġà®µà®®à®°à®ļ": 2417,
      "Ġà®ĩà®µà®©": 2418,
      "Ġà®ĩà®£à®¯": 2419,
      "Ġà®®à®©à®±à®µà®¤": 2420,
      "60": 2421,
      "Ġà®µà®´à®Ļà®ķà®®": 2422,
      "Ġà®®à®²à®¯": 2423,
      "Ġà®ĩà®²à®Ļà®ķà®¯à®²": 2424,
      "ge": 2425,
      "ff": 2426,
      "Ġà®ªà®°à®µà®©": 2427,
      "à®ķà®ªà®ªà®¯": 2428,
      "Ġà®¤à®ķà®ķà®®": 2429,
      "à®īà®¯à®°": 2430,
      "Ġà®®à®ķà®´": 2431,
      "Ġà®ļà®Ļà®ķà®": 2432,
      "à®¯à®µà®²à®²": 2433,
      "Ġà®ķà®ķà®³": 2434,
      "Ġà®¤à®±à®¨à®¤": 2435,
      "Ġà®®à®´à®®": 2436,
      "Ġà®µà®°à®¨à®¤": 2437,
      "Ġà®¤à®Ļà®ķà®¯": 2438,
      "%)": 2439,
      "Ġà®ħà®®à®ªà®ªà®©": 2440,
      "Ġà®®à®¯à®²": 2441,
      "up": 2442,
      "Ġà®İà®²à®®": 2443,
      "Ġà®¨à®ķà®´à®µ": 2444,
      "Ġà®Ĩà®°à®®à®ª": 2445,
      "Ġà®Ĩà®¯à®°": 2446,
      "Ġ40": 2447,
      "Ġà®ªà®¯à®°à®Ł": 2448,
      "à®®à®¯à®²": 2449,
      "Ġà®ļà®Ļà®ķà®ªà®ªà®°": 2450,
      "à®ļà®®à®ķ": 2451,
      "à®ªà®ªà®©à®¯": 2452,
      "Ġà®®à®¤à®ªà®ª": 2453,
      "à®ªà®ķà®°": 2454,
      "ment": 2455,
      "Ġà®Ĩà®£à®Łà®ķà®³à®ķà®ķ": 2456,
      "Ġà®Ĵà®¤": 2457,
      "à®ķà®ķà®ķà®©à®±": 2458,
      "Ġà®ªà®ķà®´à®ªà®±à®±": 2459,
      "Ġà®İà®©à®±à®´": 2460,
      "à®ķà®µà®¤": 2461,
      "Ġà®ļà®±à®ķà®³": 2462,
      "ord": 2463,
      "Ġà®ķà®£à®Łà®µà®°": 2464,
      "à®ķà®£à®Łà®°": 2465,
      "Ġà®Īà®Łà®ªà®Ł": 2466,
      "Ġà®¤à®Łà®Ļà®ķà®¯à®¤": 2467,
      "Ġà®ªà®¯à®£à®®": 2468,
      "23": 2469,
      "à®¨à®Łà®Łà®©": 2470,
      "Ġà®ĩà®µà®µà®°": 2471,
      "Ġà®ħà®Łà®¯à®³à®®": 2472,
      "Ġà®ķà®Łà®ªà®Ł": 2473,
      "Ġà®ķà®Łà®Łà®®à®ªà®ª": 2474,
      "Ġà®ĩà®ªà®ªà®¤": 2475,
      "Ġà®ķà®µà®¤": 2476,
      "à®ķà®ķà®¯à®®": 2477,
      "Ġà®ķà®±à®ªà®ªà®ķà®³": 2478,
      "ªà®ªà®¯": 2479,
      "Ġà®µà®³à®µà®ķà®³": 2480,
      "à®ªà®µà®°à®ķà®³": 2481,
      "à®®à®Łà®Ł": 2482,
      "Ġà®®à®ļà®ļ": 2483,
      "Ġ1980": 2484,
      "Ġà®ªà®°à®ļà®°à®¯à®°": 2485,
      "Ġà®ĩà®¤à®´à®ķà®³": 2486,
      "ric": 2487,
      "à®ĥà®ªà®°": 2488,
      "Ġà®ĩà®©à®®": 2489,
      "Ġà®Ĩà®¯à®¤": 2490,
      "Ġà®ķà®±à®µ": 2491,
      "Ġà®ĩà®¨à®¤à®¯à®¤": 2492,
      "ĠY": 2493,
      "Ġà®ªà®£à®ªà®Łà®Ł": 2494,
      "Ġà®µà®ķà®¤à®®": 2495,
      "Ġà®İà®¤à®°à®ªà®°": 2496,
      "à®ħà®®à®°à®ķà®ķ": 2497,
      "Ġà®¤à®ļà®®à®ªà®°": 2498,
      "Ġà®ļà®®à®¯à®®": 2499,
      "à®Ĩà®Ļà®ķà®²": 2500,
      "à®ŀà®ļà®¯": 2501,
      "Ġà®ĩà®°à®¨à®¤à®²": 2502,
      "Ġà®ªà®°à®¤à®©": 2503,
      "Ġà®ħà®Łà®Ļà®ķà®®": 2504,
      "Ġà®ķà®³à®°": 2505,
      "Ġà®ħà®±à®®à®ķà®ªà®ªà®Łà®¤à®¤": 2506,
      "ry": 2507,
      "Ġà®Ĩà®ķà®µ": 2508,
      "Ġà®ªà®ķà®ķ": 2509,
      "Ġà®¨à®±à®µà®±à®±": 2510,
      "à®ħà®±": 2511,
      "Ġà®ħà®´à®ķà®ķà®ªà®ªà®Ł": 2512,
      "Ġà®ķà®ªà®²": 2513,
      "2006": 2514,
      "à®¸à®ķ": 2515,
      "Ġre": 2516,
      "Ġà®µà®³à®¯à®Łà®ªà®ªà®Łà®Łà®¤": 2517,
      "Ġà®ľà®¯": 2518,
      "à®ķà®¯à®®": 2519,
      "Ġà®µà®¤à®¯à®¯à®²": 2520,
      "à®®à®©à®¯": 2521,
      "Ġà®µà®Łà®¤à®²à®ª": 2522,
      "ind": 2523,
      "à®³à®ķà®³": 2524,
      "Ġà®ķà®³à®³à®®": 2525,
      "Ġà®ıà®©à®©à®²": 2526,
      "à®Łà®©à®©": 2527,
      "Ġà®²à®ķ": 2528,
      "à®ªà®ªà®Łà®Łà®³à®³à®©": 2529,
      "à®ŀà®©": 2530,
      "Ġà®Ĩà®ķà®¯à®µà®±à®±à®©": 2531,
      "Â°": 2532,
      "Ġà®ªà®Łà®ļà®²": 2533,
      "Ġà®ķà®±à®ķà®³": 2534,
      "Ġà®ĩà®¯à®±à®ķ": 2535,
      "à®Ļà®ķà®ļ": 2536,
      "190": 2537,
      "ure": 2538,
      "Ġà®ķà®°à®©": 2539,
      "Ġ187": 2540,
      "Ġà®īà®£à®°à®µ": 2541,
      "Ġà®µà®©à®®": 2542,
      "189": 2543,
      "Ġà®ķà®Łà®±à®ķà®°": 2544,
      "Ġà®¨à®®à®ªà®ķà®ķà®": 2545,
      "Ġà®®à®´à®ªà®¯à®°": 2546,
      "Ġà®µà®³à®ªà®ªà®Łà®¤à®¤": 2547,
      "à®ķà®ªà®Ł": 2548,
      "Ġà®Ĵà®©à®±à®©": 2549,
      "Ġà®Ĩà®ķà®¯à®µà®±à®±à®²": 2550,
      "Ġà®µà®´à®Ļà®ķà®ªà®ªà®Łà®Łà®¤": 2551,
      "Ġà®µà®¯à®¨à®¤": 2552,
      "Ġà®¨à®ªà®²": 2553,
      "Ġà®®à®±à®ªà®°": 2554,
      "Ġà®®à®±à®ķà®£à®Ł": 2555,
      "à®ļà®ķà®°": 2556,
      "Ġà®ķà®¤à®ķà®³": 2557,
      "Ġà®ķà®²à®ŀà®°": 2558,
      "à®ľà®°": 2559,
      "à®ķà®ķà®ªà®ªà®Łà®Łà®³à®³à®©": 2560,
      "Ġà®ķà®±à®ªà®ªà®Łà®¤à®¤à®ķà®ķ": 2561,
      "Ġà®Ĩà®¤à®¤à®°": 2562,
      "Ġà®ļà®¯à®¤à®ķà®³": 2563,
      "2008": 2564,
      "à®µà®¯à®©": 2565,
      "Ġà®İà®ķà®¸": 2566,
      "Ġà®ħà®£à®£": 2567,
      "ĠInd": 2568,
      "Ġà®ªà®©à®µà®°à®®à®±": 2569,
      "à®µà®±à®ķ": 2570,
      "Ġà®ķà®£à®ķà®ķà®Łà®ªà®ªà®©": 2571,
      "à®±à®ķà®ª": 2572,
      "Ġà®ķà®±à®¤à®¤à®µ": 2573,
      "Ġà®ļà®¯à®²à®³à®°": 2574,
      "à®®à®ªà®µ": 2575,
      "à®¸à®¤à®©": 2576,
      "Ġà®¤à®©à®ªà®ªà®Łà®Ł": 2577,
      "Ġà®ķà®Łà®Łà®¯": 2578,
      "Ġà®ıà®±à®ªà®Łà®Łà®¤": 2579,
      "Ġà®¤à®£à®£": 2580,
      "Ġà®ļà®±à®ķà®¤": 2581,
      "à®ªà®ªà®¤à®ķ": 2582,
      "The": 2583,
      "Ġà®ķà®³à®ķ": 2584,
      "Ġ1999": 2585,
      "à®ķà®©à®±à®°": 2586,
      ".)": 2587,
      "Ġà®ªà®ķà®µ": 2588,
      "Ġà®ĩà®¯à®ķà®ķà®©à®°": 2589,
      "Ġà®µà®ľà®¯": 2590,
      "Ġà®ķà®Łà®®à®ªà®¤à®¤": 2591,
      "Ġà®īà®³à®¨à®Łà®Ł": 2592,
      "Ġà®ħà®ķà®²": 2593,
      "Ġà®ķà®Łà®ļà®¯à®©": 2594,
      "ivers": 2595,
      "Ġà®ªà®°à®ªà®ªà®³": 2596,
      "Ġà®ªà®°à®°à®Łà®ļ": 2597,
      "Ġà®µà®Łà®µà®²": 2598,
      "à®¤à®¤à®°à®ķà®®": 2599,
      "Ġà®ħà®©à®¤à®¤à®®": 2600,
      "Ġà®ħà®Ļ": 2601,
      "à®µà®©à®©": 2602,
      "Ġà®ªà®£à®¯à®±à®±à®©à®°": 2603,
      "à®ªà®ªà®¯à®°": 2604,
      "Ġ/": 2605,
      "Ġà®®à®®à®ªà®Łà®¤à®¤": 2606,
      "à®¤à®¤à®±à®ķà®®": 2607,
      "oh": 2608,
      "à®ªà®©à®©": 2609,
      "ain": 2610,
      "Ġà®ħà®®à®¨à®¤à®°": 2611,
      "ort": 2612,
      "Ġà®ħà®®à®¨à®¤à®¤": 2613,
      "Ġà®Ĳà®°à®ªà®ªà®µ": 2614,
      "Ġà®µà®³à®¯à®±à®±": 2615,
      "à®ħà®©": 2616,
      "Ġà®®à®¨à®¤": 2617,
      "Ġà®İà®ķà®ª": 2618,
      "Ġà®ħà®Łà®¯à®³": 2619,
      "Ġà®ķà®°à®¨à®Łà®ķ": 2620,
      "Ġà®ĵà®µà®¯": 2621,
      "à®ĩà®©": 2622,
      "à®µà®¯à®ķà®®": 2623,
      "Ġà®ķà®Łà®¯à®°à®ļ": 2624,
      "Ġà®īà®´": 2625,
      "Ġà®ªà®£à®ªà®ķà®³": 2626,
      "Ġà®µà®ķà®ķà®ķà®³": 2627,
      "Ġà®¤à®°à®µà®´": 2628,
      "à®ķà®ķà®±à®°à®ķà®³": 2629,
      "Ġà®ĩà®°à®¨à®¤à®²à®®": 2630,
      "Ġà®µà®´à®Ļà®ķà®µ": 2631,
      "Ġà®ķà®£à®Łà®±à®¯": 2632,
      "Ġà®ªà®¯à®©à®ªà®Łà®®": 2633,
      "Ġà®ķà®Łà®ķà®³": 2634,
      "Ġà®īà®°à®µà®ķà®ķà®ªà®ªà®Łà®Łà®¤": 2635,
      "ĠAr": 2636,
      "Ġà®ªà®°à®ļà®²": 2637,
      "Ġà®µà®³à®°à®¨à®¤": 2638,
      "Ġà®ļà®¤à®°à®£": 2639,
      "Ġà®µà®³à®®à®ªà®°": 2640,
      "Ġà®ħà®±à®ķà®±": 2641,
      "Ġà®ªà®¯à®©à®ªà®Łà®¤à®¤à®ªà®ªà®Łà®®": 2642,
      "Ġà®¤à®ŀà®ļ": 2643,
      "Ġà®¨à®²à®©": 2644,
      "à®ķà®ļà®©": 2645,
      "à®µà®©à®²": 2646,
      "à®ļà®¨à®¤": 2647,
      "à®ķà®µà®¯à®²": 2648,
      "Ġà®ªà®²à®ķà®²à®ķà®ķà®´à®ķà®¤à®¤à®²": 2649,
      "à®£à®°": 2650,
      "Ġà®ķà®²à®ķà®Łà®Ł": 2651,
      "Ġà®ħà®©à®ªà®µ": 2652,
      "ast": 2653,
      "Ġà®İà®©à®ªà®°": 2654,
      "Ġà®ªà®°à®®à®ªà®©": 2655,
      "à®ķà®³à®²à®°à®¨à®¤": 2656,
      "à®Ĳà®ķà®ķà®¯": 2657,
      "2007": 2658,
      "ik": 2659,
      "à®Ļà®ķà®¯à®²": 2660,
      "à®ªà®ķà®¤à®¯à®²": 2661,
      "Ġà®Ĩà®ª": 2662,
      "à®¸à®°": 2663,
      "à®µà®°à®ķà®³à®©": 2664,
      "Ġà®®à®Ļà®ķà®²": 2665,
      "Ġà®īà®¯à®°à®£": 2666,
      "Ġà®Īà®´": 2667,
      "Ġ31": 2668,
      "Ġà®®à®¨à®²à®®": 2669,
      "à®¨à®²à®ª": 2670,
      "à®²à®¸": 2671,
      "à®¨à®²à®²": 2672,
      "Ġà®¤à®°à®µà®ķà®³": 2673,
      "à®ªà®ªà®³à®°à®ķà®³": 2674,
      "80": 2675,
      "à®ķà®±à®³": 2676,
      "Ġà®ªà®°à®Ļà®ķà®Ł": 2677,
      "Ġà®¤à®ķà®´": 2678,
      "Ġà®µà®´à®ªà®Łà®Ł": 2679,
      "Ġà®®à®±à®ªà®Ł": 2680,
      "In": 2681,
      "à®ªà®ªà®Łà®¤": 2682,
      "Ġà®īà®²à®ķà®³": 2683,
      "Ġà®ķà®£à®Łà®°à®¨à®¤": 2684,
      "Ġà®µà®²à®¯à®®": 2685,
      "Ġà®µà®³à®µà®ķ": 2686,
      "Ġà®ªà®Łà®¯": 2687,
      "Ġà®ĩà®¸à®²à®®": 2688,
      "à®Łà®©à®®": 2689,
      "Ġà®ĩà®©à®±à®¯": 2690,
      "Ġà®ªà®£à®ªà®°": 2691,
      "Ġà®ķà®Łà®¤à®¤à®¤": 2692,
      "Ġà®ªà®ª": 2693,
      "Ġà®µà®ªà®ªà®®": 2694,
      "Ġà®ªà®ļà®®": 2695,
      "Ġà®®à®ķà®ķà®²": 2696,
      "à®¤à®£": 2697,
      "Ġà®ļà®Ļà®ķ": 2698,
      "Ġà®ķà®°à®¯": 2699,
      "Ġà®ªà®ŀ": 2700,
      "Ġà®°à®Ł": 2701,
      "Ġà®ħà®®à®ļ": 2702,
      "à®ªà®ªà®ķà®³à®²": 2703,
      "Ġà®ķà®°à®³": 2704,
      "Ġà®ļà®¯à®®": 2705,
      "Ġà®ķà®ŀà®ļ": 2706,
      "Ġà®ĩà®°à®µ": 2707,
      "Ġà®ªà®©à®ª": 2708,
      "Ġà®ķà®Łà®¯à®±à®±": 2709,
      "Ġà®¤à®°à®®à®£": 2710,
      "à®µà®¯à®°": 2711,
      "Ġà®®à®ŀà®ļ": 2712,
      "à®ªà®Łà®²": 2713,
      "à®ķà®¯à®ķ": 2714,
      "Ġà®®à®°à®¤à®¤à®µà®®à®©": 2715,
      "Ġà®ĩà®¯à®¨à®¤à®°": 2716,
      "Ġà®¨à®³à®²": 2717,
      "Ġà®ħà®Łà®¨à®¤": 2718,
      "Ġà®ĩà®µà®±à®±à®²": 2719,
      "à®®à®³": 2720,
      "Ġà®ĩà®¯à®ķà®ķ": 2721,
      "Ġà®¤à®²à®µà®°à®ķ": 2722,
      "Ġà®ķà®Łà®Łà®²à®®": 2723,
      "Ġà®µà®ļà®°": 2724,
      "à®Łà®¤": 2725,
      "Ġà®¤à®Łà®Ļà®ķ": 2726,
      "Ġà®ĩà®Łà®Ļà®ķà®³": 2727,
      "Ġà®µà®£à®µà®³": 2728,
      "Ġà®¨à®©à®®": 2729,
      "Ġà®ªà®°à®®à®©": 2730,
      "à®ķà®ķà®ķà®ªà®ªà®Łà®Ł": 2731,
      "Ġà®ķà®±à®ªà®ªà®Łà®¤à®¤à®ķà®ķà®¤": 2732,
      "à®®à®ªà®ļ": 2733,
      "24": 2734,
      "Ġà®®à®°à®ªà®£": 2735,
      "Ġà®ħà®³à®µà®Ł": 2736,
      "Ġà®®à®©à®©à®±à®±": 2737,
      "Ġat": 2738,
      "Ġà®ķà®´à®ķà®ķà®³": 2739,
      "Ġà®ªà®ķà®¤à®¯à®ķ": 2740,
      "à®µà®³à®³": 2741,
      "Ġà®İà®Łà®¤à®¤à®ķà®ķà®Łà®Łà®ķ": 2742,
      "Ġà®µà®´à®Ļà®ķ": 2743,
      "Ġà®®à®©à®©à®±": 2744,
      "ence": 2745,
      "ĠEn": 2746,
      "tern": 2747,
      "Ġà®ĩà®°à®µà®°à®®": 2748,
      "Ġà®ķà®Łà®¯à®¤": 2749,
      "ĠĊĠ": 2750,
      "Ġà®®à®±à®±à®Ļà®ķà®³": 2751,
      "Ġà®ªà®´à®Ļà®ķà®Ł": 2752,
      "Ġà®ĩà®¯à®ķà®ķà®¨à®°": 2753,
      "Ġà®µà®µà®ļà®¯": 2754,
      "Ġà®ªà®©à®©à®£": 2755,
      "ah": 2756,
      "à®¤à®°à®ķà®³": 2757,
      "Ġà®īà®°à®µà®ķà®ķà®¯": 2758,
      "à®µà®Łà®Łà®¤": 2759,
      "à®¤à®¤à®±à®ķà®ķ": 2760,
      "amil": 2761,
      "Ġà®ĩà®²à®ķà®ķà®¯à®®": 2762,
      "Ġà®īà®³à®³à®Łà®ķà®ķà®¯": 2763,
      "à®²à®Ł": 2764,
      "Ġà®¤à®©à®¯à®°": 2765,
      "à®Ĩà®Ļà®ķà®²à®®": 2766,
      "Ġà®µà®³à®¯à®²": 2767,
      "Ġà®ļà®¯à®µà®¤": 2768,
      "Ġà®¤à®´à®²à®¨à®Łà®ª": 2769,
      "à®İà®ļ": 2770,
      "ear": 2771,
      "Ġà®ļà®¤à®µ": 2772,
      "Ġà®µà®¸": 2773,
      "à®¤à®°à®Ļà®ķà®³": 2774,
      "Ġà®ħà®®à®®à®©": 2775,
      "à®£à®®à®²": 2776,
      "Ġà®ªà®¤à®²à®ķ": 2777,
      "à®ļà®¯à®¯": 2778,
      "Ġà®ıà®±à®¤à®¤à®´": 2779,
      "Ġà®®à®±à®¯à®ķ": 2780,
      "Ġà®īà®Łà®ªà®Łà®Ł": 2781,
      "Ġà®īà®¯à®°à®´": 2782,
      "Ġà®®à®¤à®¤à®°": 2783,
      "Ġà®¤à®¤à®¤": 2784,
      "Ġà®®à®¨à®²à®¤à®¤à®©": 2785,
      "à®ķà®ķà®±à®±": 2786,
      "Ġà®Ĭà®°à®Łà®ļ": 2787,
      "Ġà®¨à®ķà®°à®Ļà®ķà®³": 2788,
      "Ġà®¤à®Łà®Łà®Ļà®ķà®³": 2789,
      "Ġà®¤à®±à®ªà®¤à®¯": 2790,
      "à®īà®²": 2791,
      "Ġà®µà®ķà®ªà®ªà®": 2792,
      "Ġà®µà®´à®ªà®Ł": 2793,
      "Ġ1998": 2794,
      "...": 2795,
      "Ġà®¤à®¯à®²": 2796,
      "Ġà®īà®¤à®µà®¯": 2797,
      "Ġà®¤à®²à®µà®°à®ķà®³": 2798,
      "eg": 2799,
      "Ġà®¤à®°à®ªà®ªà®Łà®¤à®¤à®²": 2800,
      "Ġà®¤à®¯à®®": 2801,
      "à®ħà®²": 2802,
      "Ġà®ķà®±à®ķà®ķà®±à®¤": 2803,
      "à®¤à®®à®´à®¨à®Ł": 2804,
      "Ġà®Ĩà®£à®ķà®³": 2805,
      "Ġà®µà®´à®¯": 2806,
      "ack": 2807,
      "Ġà®ħà®°à®³": 2808,
      "raph": 2809,
      "ubl": 2810,
      "Ġ$": 2811,
      "Ġà®ĩà®°à®ļ": 2812,
      "à®ķà®ķà®ķà®®": 2813,
      "2009": 2814,
      "Ġà®®à®©à®©à®²": 2815,
      "à®µà®ķà®ķà®®": 2816,
      "Ġà®ľà®©à®©": 2817,
      "à®ªà®±à®ªà®ª": 2818,
      "Ġà®¨à®ķà®ļà®ļ": 2819,
      "Ġà®ķà®°à®Ł": 2820,
      "Ġà®ªà®°à®¤à®®à®°": 2821,
      "Ġà®ıà®©à®¯": 2822,
      "Ġà®ķà®²à®²à®°à®¯à®²": 2823,
      "à®µà®²à®®": 2824,
      "Ġà®İà®¤à®°à®ªà®ª": 2825,
      "à®¨à®®": 2826,
      "Ġà®Ĩà®¸à®¤à®°à®²à®¯": 2827,
      "Ġà®Ĵà®ªà®ªà®Ł": 2828,
      "à®¯à®®à®²": 2829,
      "ont": 2830,
      "enter": 2831,
      "à®°à®¨à®¤à®¤": 2832,
      "Ġà®µà®©à®°à®¤": 2833,
      "Ġà®ħà®ª": 2834,
      "Ġà®®à®¨à®¤à®°": 2835,
      "Ġà®ħà®°à®µ": 2836,
      "Ġà®¤à®Łà®ķà®ķà®®": 2837,
      "Ġ60": 2838,
      "Ġà®µà®¤à®¤à®¯": 2839,
      "à®µà®³à®°": 2840,
      "Ġâ": 2841,
      "à®ĩà®²à®Ļà®ķà®¯à®©": 2842,
      "à®¹à®°": 2843,
      "Ġà®¤à®¤à®¤à®µ": 2844,
      "Ġà®ĩà®°à®£": 2845,
      "à®¯à®¸": 2846,
      "Ġà®ķà®Łà®®à®ªà®®": 2847,
      "Ġà®ķà®£à®ªà®ªà®Ł": 2848,
      "Ġà®ªà®Ļà®ķà®±à®±": 2849,
      "Ġà®İà®µà®µà®±": 2850,
      "à®ķà®ķà®®à®©": 2851,
      "Ġà®ĩà®Łà®µà®³": 2852,
      "ass": 2853,
      "ics": 2854,
      "ect": 2855,
      "Ġà®Ĩà®¤à®°à®µ": 2856,
      "Ġà®Ĩà®Łà®ļà®¯": 2857,
      "Ġà®µà®´à®Ļà®ķà®ªà®ªà®Łà®Ł": 2858,
      "à®Łà®Łà®¤": 2859,
      "Ġà®ļà®©à®±à®°": 2860,
      "Ġà®µà®¨à®¯": 2861,
      "Ġà®Ĩà®ªà®°": 2862,
      "à®¯à®©à®©": 2863,
      "Ġà®ħà®®à®ļà®ļà®°": 2864,
      "à®¤à®®à®´à®ķ": 2865,
      "Ġà®Ĩà®ķà®¯à®©": 2866,
      "à®ķà®´à®ķà®ķ": 2867,
      "à®©à®°à®ķà®³": 2868,
      "Ġ1996": 2869,
      "à®ļà®©à®±": 2870,
      "Ġà®¤à®Łà®ķà®ķ": 2871,
      "Ġà®Ĵà®©à®±à®¯à®®": 2872,
      "à®µà®°à®¤à®¤": 2873,
      "Ġà®ªà®¯à®©à®±": 2874,
      "à®¤à®°à®©": 2875,
      "Ġà®ķà®Łà®Łà®Łà®ķà®ķà®²": 2876,
      "Ġà®¨à®ķà®°à®©": 2877,
      "Ġ1970": 2878,
      "Ġà®®à®¤à®²à®¯": 2879,
      "Ġà®ķà®±à®®": 2880,
      "Ġà®µà®Łà®Łà®°": 2881,
      "Ġà®¤à®Ļà®ķà®®": 2882,
      "Ġà®īà®ªà®¯": 2883,
      "à®®à®ªà®³": 2884,
      "Ġà®ªà®°à®°à®ļà®©": 2885,
      "à®ªà®¤à®¯": 2886,
      "Ġà®ķà®£à®Łà®³à®³à®©": 2887,
      "Ġà®ļà®²à®¤à®©": 2888,
      "Ġà®ªà®°à®µà®²à®ķ": 2889,
      "à®ªà®ķà®²": 2890,
      "Ġ186": 2891,
      "à®ķà®ķà®Łà®®": 2892,
      "Ġà®®à®©à®¤à®©": 2893,
      "align": 2894,
      "à®ķà®²à®©": 2895,
      "Ġà®µà®ķà®ªà®ªà®Ł": 2896,
      "à®ªà®ªà®ªà®ªà®Łà®Ł": 2897,
      "Ġà®µà®³à®¯à®©": 2898,
      "Ġà®®à®Łà®µà®Ł": 2899,
      "Ġà®ªà®ķà®¤à®¯": 2900,
      "Ġà®ªà®£à®®": 2901,
      "Ġà®ªà®²à®²à®¯à®©": 2902,
      "Ġà®¤à®Łà®Ļà®ķà®ªà®ªà®": 2903,
      "Ġà®ļà®¯à®²à®ªà®Łà®¤à®¤": 2904,
      "à®®à®ªà®©à®°": 2905,
      "à®ķà®°à®¯": 2906,
      "à®µà®³à®µ": 2907,
      "Ġà®µà®©à®¯à®²": 2908,
      "Ġà®Ĩà®°à®®à®ªà®®": 2909,
      "Ġà®ļà®±à®ªà®ªà®ķ": 2910,
      "):": 2911,
      "Ġà®ļà®¨à®¤à®©": 2912,
      "Ġà®µà®³à®¯à®Łà®Łà®°": 2913,
      "Ġà®ļà®´à®¨à®²": 2914,
      "Ġà®ļà®¯à®¤à®²": 2915,
      "à®ķà®®à®®": 2916,
      "ert": 2917,
      "Ġà®µà®°à®µà®¯": 2918,
      "Ġà®®à®°à®ª": 2919,
      "Ġà®ļà®µà®¯": 2920,
      "Ġà®ªà®Łà®Ļà®ķà®³": 2921,
      "Ġà®ħà®£à®®": 2922,
      "Ġà®¨à®²à®ķà®³à®²": 2923,
      "à®°à®ķà®³à®ķà®ķ": 2924,
      "ust": 2925,
      "Ġà®ķà®£à®²à®®": 2926,
      "Ġà®®à®¤à®¤à®¤à®²": 2927,
      "ld": 2928,
      "Ġà®µà®ķà®¤à®¤": 2929,
      "Ġà®ªà®¯à®©à®ªà®Łà®¤à®¤à®®": 2930,
      "à®ķà®¤à®°": 2931,
      "Ġà®Ĳà®¤à®°": 2932,
      "70": 2933,
      "org": 2934,
      "Ġà®®à®°à®ķà®©": 2935,
      "Ġ1960": 2936,
      "Ġà®¤à®±à®¯à®²": 2937,
      "2005": 2938,
      "Ġà®®à®ķà®ķà®¯à®¤à®¤à®µà®®": 2939,
      "ĠX": 2940,
      "Ġà®ªà®±à®µà®ķà®³": 2941,
      "à®µà®©à®±": 2942,
      "Ġà®ļà®Ļà®ķà®²": 2943,
      "Ġà®ħà®Łà®®": 2944,
      "Ġà®®à®¯à®¯à®¯à®²": 2945,
      "Ġà®ªà®°à®ļà®ļà®©": 2946,
      "Ġà®ªà®ķà®ªà®ªà®¯": 2947,
      "Ġà®ļà®®à®®": 2948,
      "ork": 2949,
      "Ġà®ªà®°à®ķà®ķà®®": 2950,
      "à®®à®¤à®°": 2951,
      "Ġà®ħà®Łà®Ļà®ķà®¯": 2952,
      "man": 2953,
      "à®¯à®°à®²": 2954,
      "Ġà®ķà®²à®¤à®¤": 2955,
      "Ġà®°à®µ": 2956,
      "Ġà®ķà®°à®ªà®©": 2957,
      "Ġà®ķà®£à®Łà®°à®¨à®¤à®¤": 2958,
      "Ġà®ħà®Łà®ªà®ªà®Łà®¯à®ķà®ķ": 2959,
      "ight": 2960,
      "188": 2961,
      "Ġà®®à®®à®ªà®Łà®Ł": 2962,
      "à®µà®°à®ķà®³à®²": 2963,
      "Ġà®ªà®±à®±à®µà®°à®ķà®³": 2964,
      "Ġà®Ĵà®©à®ªà®¤": 2965,
      "Ġà®¨à®ķà®°à®Łà®ļ": 2966,
      "à®ķà®ķà®¤à®²": 2967,
      "à®ªà®ªà®¤à®±à®ķà®ķ": 2968,
      "Ġà®İà®´à®¤à®©à®°": 2969,
      "Ġà®¨à®Łà®ªà®±à®®": 2970,
      "iversity": 2971,
      "Ġà®®à®Łà®µà®ķà®³": 2972,
      "Ġà®µà®°à®²à®±à®±à®²": 2973,
      "Ġà®ªà®¤à®¤à®ķ": 2974,
      "Ġà®İà®´à®¤à®ªà®ªà®Łà®Ł": 2975,
      "Ġà®ħà®°à®Ļà®ķà®Ł": 2976,
      "Ġà®İà®©à®±à®²à®®": 2977,
      "Ġà®µà®´à®Ļà®ķà®¯": 2978,
      "Ġà®ħà®µà®µà®±": 2979,
      "Ġà®Ĩà®°à®®à®ªà®ķà®ķà®": 2980,
      "à®²à®ļ": 2981,
      "Ġà®ķà®®à®ªà®©": 2982,
      "Ġà®ªà®¯à®©à®ªà®Łà®ķà®±à®¤": 2983,
      "Ġà®İà®£à®£à®¯": 2984,
      "Ġà®®à®µà®Łà®Łà®¤à®¤à®²à®³à®³": 2985,
      "Ġà®®à®ķà®ķà®³à®¤": 2986,
      "Ġà®®à®ķà®ķà®³à®¤à®ķ": 2987,
      "Ġà®īà®°à®®à®ķà®³": 2988,
      "ey": 2989,
      "Ġà®İà®Łà®¤à®¤à®ķ": 2990,
      "Ġà®ļà®´à®±à®ļ": 2991,
      "Ġà®ħà®ŀà®ļà®²": 2992,
      "Ġà®ħà®³à®¤à®¤": 2993,
      "à®ķà®ķà®ķà®ķ": 2994,
      "à®ķà®ķà®³à®ķ": 2995,
      "Ġà®¤à®©à®¯": 2996,
      "Ġà®¤à®³à®³": 2997,
      "Ġà®ķà®Łà®ļà®ķà®³": 2998,
      "Ġà®ªà®°à®³à®ķà®³": 2999,
      "Ġà®īà®¯à®°à®®": 3000,
      "Ġà®¤à®¯à®µ": 3001,
      "à®ķà®°à®·à®£": 3002,
      "Ġà®¨à®ķà®ķà®²": 3003,
      "ĠâĢĶ": 3004,
      "Ġà®ħà®µà®±à®±à®²": 3005,
      "Ġà®¤à®®à®´à®ª": 3006,
      "Ġà®µà®²à®²à®¯à®®": 3007,
      "28": 3008,
      "Ġà®Ĵà®µ": 3009,
      "Ġà®Ĩà®©à®®": 3010,
      "à®Łà®Łà®ķ": 3011,
      "2004": 3012,
      "Ġr": 3013,
      "à®²à®®à®©": 3014,
      "à®ªà®ªà®¤à®¤à®°": 3015,
      "Ġà®ĩà®µà®°à®Łà®¯": 3016,
      "Ġà®°à®ķ": 3017,
      "39": 3018,
      "Ġà®®à®²à®ķ": 3019,
      "Ġà®ªà®·": 3020,
      "à®µà®±à®±à®²": 3021,
      "Ġà®ķà®³à®®": 3022,
      "Ġà®ķà®£à®ķà®ķà®Łà®ªà®ªà®©à®ªà®Ł": 3023,
      "ong": 3024,
      "Ġà®ĩà®°à®ªà®ª": 3025,
      "Ġà®ļà®®à®¤à®¯": 3026,
      "Ġà®īà®±à®µ": 3027,
      "Ġà®ķà®´à®µ": 3028,
      "uc": 3029,
      "Ġà®ıà®©": 3030,
      "Ġà®¤à®ķà®¤à®ķà®³": 3031,
      "Ġ1997": 3032,
      "à®ªà®ªà®ªà®Ł": 3033,
      "à®µà®®à®ķ": 3034,
      "ĠNew": 3035,
      "Ġà®¨à®£à®ªà®°": 3036,
      "à®¤à®¤à®Łà®°": 3037,
      "ond": 3038,
      "à®ªà®·": 3039,
      "Ġà®ķà®±à®ķà®±à®¤": 3040,
      "à®ĥà®ªà®Ł": 3041,
      "Ġà®¨à®°à®µà®ķ": 3042,
      "ĠCom": 3043,
      "Ġà®ļà®¯à®¯à®ªà®ªà®Łà®®": 3044,
      "Ġà®ħà®£à®ķà®ķ": 3045,
      "Ġà®ªà®¤à®ªà®ªà®ķà®®": 3046,
      "Ġà®ªà®Łà®ªà®ªà®Ł": 3047,
      "Ġà®®à®ķà®ķà®£": 3048,
      "Ġà®ĩà®°à®¨à®¤à®©à®°": 3049,
      "à®ķà®Łà®©": 3050,
      "à®Ļà®ķà®°à®¨à®¤": 3051,
      "sp": 3052,
      "Ġà®İà®©à®ķà®±": 3053,
      "Ġà®īà®°à®¯": 3054,
      "ook": 3055,
      "Ġà®ĩà®¯à®Ļà®ķà®®": 3056,
      "Ġà®¤à®±à®ķà®Ł": 3057,
      "2000": 3058,
      "Ġà®ħà®°à®Ļà®ķà®Łà®ļà®¯": 3059,
      "Ġà®ļà®©à®®": 3060,
      "à®µà®°à®ķà®³à®ķà®ķ": 3061,
      "Ġà®µà®£à®®à®©": 3062,
      "à®¨à®¤à®²": 3063,
      "Ġà®ĩà®µà®±à®±à®©": 3064,
      "Ġà®¤à®²à®®à®¯à®²": 3065,
      "Ġà®ļà®Ļà®ķà®³": 3066,
      "Ġà®¨à®±à®®": 3067,
      "ĠĠĠĠĠĠĠĠĠĠĠĠĠĠĠĠĠĠĠĠĠĠĠĠĠĠĠĠĠĠĠĠ": 3068,
      "à®ļà®Ļ": 3069,
      "Ġà®ļà®ķ": 3070,
      "Ġà®ľà®°à®ľ": 3071,
      "à®ķà®©à®©": 3072,
      "à®ŀà®ļà®°": 3073,
      "ly": 3074,
      "Ġà®¨à®²à®¯à®©": 3075,
      "Ġà®®à®°à®ļà®ļ": 3076,
      "Ġà®ªà®ķà®ķà®¤à®¤à®©": 3077,
      "Ġà®Ĵà®©à®±à®²": 3078,
      "à®¤à®¯à®®": 3079,
      "à®ªà®ķà®©": 3080,
      "Ġà®īà®°à®µà®ķà®ķà®µ": 3081,
      "à®µà®°à®ķà®ķà®®": 3082,
      "à®Łà®Łà®ķà®³": 3083,
      "99": 3084,
      "ism": 3085,
      "à®¤à®´à®²": 3086,
      "Ġà®ħà®Łà®Łà®µà®£": 3087,
      "Ġà®¨à®Łà®ķà®Łà®Ł": 3088,
      "Ġà®ªà®¤à®ķà®ķà®ªà®ªà®Łà®Ł": 3089,
      "à®ļà®®à®©": 3090,
      "Ġà®µà®¨à®¤à®©": 3091,
      "à®ªà®ªà®Łà®ķà®±à®°": 3092,
      "end": 3093,
      "ide": 3094,
      "Ġà®īà®£à®®à®¯à®©": 3095,
      "à®¤à®ķà®ķ": 3096,
      "Ġà®¤à®³à®ªà®¤": 3097,
      "Ġà®ªà®°à®®à®±à®±": 3098,
      "Ġà®ķà®Ļà®ķà®°à®¸": 3099,
      "Ġà®ªà®±à®±à®ķ": 3100,
      "ology": 3101,
      "ug": 3102,
      "Ġà®¤à®®à®°": 3103,
      "Ġà®ĩà®ķà®ķà®²": 3104,
      "Ġ185": 3105,
      "Ġà®ªà®ķà®²": 3106,
      "Ġà®¨à®²à®µ": 3107,
      "Ġà®ķà®³à®²": 3108,
      "ich": 3109,
      "Ġà®®à®µà®Łà®Łà®¤à®¤à®©": 3110,
      "Ġà®¤à®°à®ķà®±à®¤": 3111,
      "ograph": 3112,
      "26": 3113,
      "Ġà®ĩà®£à®¯à®¤": 3114,
      "Ġà®ħà®®à®¨à®¤à®³à®³à®©": 3115,
      "Ġà®ħà®ķà®¤à®®": 3116,
      "à®ªà®°à®ļ": 3117,
      "ern": 3118,
      "Ġà®ļà®¯à®²à®®à®±": 3119,
      "à®¤à®¤à®¤à®©": 3120,
      "à®ªà®Łà®Łà®©": 3121,
      "Ġà®µà®ľ": 3122,
      "Ġà®ªà®Łà®ªà®ªà®ķà®³": 3123,
      "à®¤à®±à®ķà®ķ": 3124,
      "Ġà®®à®±à®±à®ķ": 3125,
      "Ġà®ıà®µ": 3126,
      "ci": 3127,
      "Ġà®ķà®±à®ķà®ķ": 3128,
      "Ġà®µà®²à®¤": 3129,
      "Ġà®ķà®µà®ŀà®°": 3130,
      "Ġà®¨à®Łà®ķà®ķà®®": 3131,
      "Ġà®ªà®©à®µà®°à®®": 3132,
      "Ġ1994": 3133,
      "--": 3134,
      "Ġà®ĩà®±à®µà®©": 3135,
      "Ġ1995": 3136,
      "Ġà®ªà®°à®ªà®²à®®à®©": 3137,
      "Ġà®ªà®´à®®": 3138,
      "à®ķà®ķà®Ļ": 3139,
      "Ġà®ħà®®à®®": 3140,
      "ens": 3141,
      "Ġà®¤à®Łà®Ļà®ķà®¯": 3142,
      "Ġà®ķà®¯à®³": 3143,
      "ĠÎ": 3144,
      "à®£à®ķà®³": 3145,
      "Ġà®¨à®¯à®ķà®³": 3146,
      "à®ķà®ªà®²": 3147,
      "Ġà®¨à®µ": 3148,
      "Ġà®ķà®Łà®Łà®¤à®¤à®Łà®Ł": 3149,
      "Ġà®ķà®Łà®Łà®ķ": 3150,
      "ie": 3151,
      "à®ķà®ķà®±à®©": 3152,
      "Ġà®ªà®¯à®©à®ªà®Łà®¤à®¤à®ªà®ªà®Łà®ķà®©à®±à®©": 3153,
      "Ġà®ħà®Łà®ķà®ķà®Ł": 3154,
      "Ġà®īà®£à®®à®¯à®²": 3155,
      "Ġà®ķà®·": 3156,
      "Ġà®¨à®Łà®ķà®°à®ķà®³": 3157,
      "Ġà®ķà®µà®©à®®": 3158,
      "Ġà®¨à®Łà®¤à®¤à®³à®³à®©à®°": 3159,
      "Ġà®ķà®±à®±à®®": 3160,
      "Ġà®®à®°à®¤à®¤à®µà®®": 3161,
      "Ġx": 3162,
      "Ġà®ħà®¨à®¤à®ª": 3163,
      "Ġà®µà®°à®Łà®®": 3164,
      "Ġà®ķà®´à®µà®©": 3165,
      "Ġà®ĩà®Łà®¤": 3166,
      "Ġà®¤à®Łà®°à®ªà®Łà®¯": 3167,
      "Ġà®İà®Łà®¤à®¤à®°": 3168,
      "à®ªà®ªà®¯à®²": 3169,
      "Ġfrom": 3170,
      "à®ªà®ªà®±à®ķ": 3171,
      "iz": 3172,
      "à®¤à®°à®µ": 3173,
      "Ġà®Łà®°à®©": 3174,
      "Ġà®¤à®²à®µà®©": 3175,
      "Ġà®ªà®³à®³à®¯à®²": 3176,
      "à®ļà®´": 3177,
      "Ġà®ĩà®ļà®ķà®ķà®´": 3178,
      "à®ªà®°à®¤": 3179,
      "à®ķà®ķà®±à®³": 3180,
      "Ġà®¤à®µà®©": 3181,
      "à®µà®Łà®Łà®°": 3182,
      "2001": 3183,
      "Ġà®ķà®²à®²à®ªà®ªà®Łà®Łà®©à®°": 3184,
      "à®£à®©": 3185,
      "Ġà®ķà®²à®Ļà®ķà®³à®²": 3186,
      "Ġ1991": 3187,
      "Ġà®İà®¤à®µà®®": 3188,
      "Ġà®¨à®ķà®´à®¨à®¤": 3189,
      "Ġà®ķà®Ļà®ķ": 3190,
      "Ġà®ķà®Łà®±à®ªà®Ł": 3191,
      "Ġà®īà®¤à®¤": 3192,
      "à®ªà®ªà®Ļ": 3193,
      "Ġà®¨à®°à®ļ": 3194,
      "Ġà®µà®°à®µà®²": 3195,
      "Ġà®ķà®±à®¯à®Łà®Ł": 3196,
      "à®¹à®®": 3197,
      "Ġà®¸à®Łà®Ł": 3198,
      "à®µà®¯à®±à®±": 3199,
      "ĠAl": 3200,
      "Ġà®ªà®ķà®ªà®": 3201,
      "Ġà®µà®Ļà®ķà®³": 3202,
      "Ġà®ĩà®°à®ªà®ªà®¤à®²": 3203,
      "Ġà®µà®°à®ķà®±à®°": 3204,
      "Ġà®ªà®ķà®¤à®¯à®©": 3205,
      "Ġà®ĩà®¨à®¨à®ķà®°": 3206,
      "à®ħà®²à®²à®¤": 3207,
      "Ġà®Ĵà®³à®ªà®°": 3208,
      "à®ļà®ļà®¤à®¤": 3209,
      "à®ªà®ªà®°à®®": 3210,
      "Ġà®ĩà®¯à®ķà®ķà®¯": 3211,
      "Ġà®ĥà®ªà®²": 3212,
      "istory": 3213,
      "II": 3214,
      "Ġà®µà®ļà®¯": 3215,
      "Ġà®ªà®Łà®ķà®°": 3216,
      "Ġà®ļà®°à®¤": 3217,
      "Ġ35": 3218,
      "Ġà®ħà®ªà®ªà®Ł": 3219,
      "Ġà®ķà®°à®ªà®ª": 3220,
      "à®µà®³à®°à®ķà®³": 3221,
      "Ġà®ªà®°à®®à®°": 3222,
      "Ġà®īà®Łà®©à®ªà®Ł": 3223,
      "Ġà®¤à®´à®±à®ļà®²": 3224,
      "Ġà®µà®°à®¯à®²": 3225,
      "Ġà®ķà®Łà®¤": 3226,
      "Ġà®ªà®Łà®ķà®²": 3227,
      "Ġà®ķà®²à®ª": 3228,
      "Ġà®ķà®²à®ļà®ļà®°": 3229,
      "Ġà®ķà®´à®¯": 3230,
      "Ġà®ªà®ķà®ķà®Ļà®ķà®³": 3231,
      "Ġà®ĩà®¨à®¤à®¯à®ª": 3232,
      "Ġà®Ĵà®Ł": 3233,
      "à®¯à®°à®ķà®³à®©": 3234,
      "Ġà®ļà®°à®¨à®¤à®¤": 3235,
      "Ġà®¨à®Łà®¤à®¤à®¯": 3236,
      "Ġà®¨à®®à®ªà®ķà®ķ": 3237,
      "Ġà®¨à®¯à®¯à®°à®ķ": 3238,
      "Ġà®µà®¤à®ķà®³": 3239,
      "27": 3240,
      "à®ļà®°à®¯": 3241,
      "à®ķà®Łà®²": 3242,
      "à®ķà®Ļà®ķà®³à®©": 3243,
      "à®Łà®¯à®¤": 3244,
      "à®®à®ķà®ķ": 3245,
      "Ġà®®à®£à®£": 3246,
      "Ġà®µà®Łà®¯": 3247,
      "à®¯à®ķà®®à®°": 3248,
      "Ġà®¨à®Łà®ªà®±à®±à®¤": 3249,
      "à®¤à®Łà®°": 3250,
      "Ġà®ħà®°à®ķ": 3251,
      "Ġà®¤à®Łà®ķà®ķà®¤à®¤à®²": 3252,
      "Ġà®ķà®£à®ķà®£": 3253,
      "à®²à®¤": 3254,
      "Ġà®ħà®ķà®±à®±": 3255,
      "Ġà®Ĩà®²à®¯à®®": 3256,
      "à®¨à®¯à®ķ": 3257,
      "Ġà®ķà®²à®ŀà®°à®ķà®³": 3258,
      "Ġà®ĩà®©à®©à®°": 3259,
      "Ġ80": 3260,
      "Ġà®ħà®³à®µà®²à®©": 3261,
      "Ġà®µà®´à®¯à®²": 3262,
      "Ġà®ķà®´à®®à®ª": 3263,
      "à®Ļà®ķà®±": 3264,
      "à®¤à®¤à®²à®µà®°": 3265,
      "Ġà®ķà®¤à®¤à®²à®ķà®ķ": 3266,
      "à®Ĩà®¤à®°à®Ļà®ķà®³": 3267,
      "Ġà®ħà®°à®ª": 3268,
      "Ġà®ĩà®µà®µ": 3269,
      "Ġà®ķà®ľ": 3270,
      "Ġà®²à®µ": 3271,
      "Ġà®īà®°à®µà®ķà®ķà®©à®°": 3272,
      "Ġà®¤à®¤à®°": 3273,
      "Ġà®ªà®°à®®à®³": 3274,
      "Ġà®İà®©à®¤": 3275,
      "Ġà®İà®£à®ķà®³": 3276,
      "Ġà®ħà®Ļà®ķà®ķà®°": 3277,
      "Ġà®µà®ķà®®": 3278,
      "à®ķà®µà®°": 3279,
      "à®ľà®¤": 3280,
      "à®±à®¯": 3281,
      "à®Łà®Łà®Ł": 3282,
      "orld": 3283,
      "Ġà®¨à®°à®Ļà®ķà®³à®²": 3284,
      "à®®à®ªà®¯à®©": 3285,
      "Ġà®İà®ªà®ªà®Ł": 3286,
      "Ġà®ħà®®à®¤à®¤": 3287,
      "Ġà®ķà®²à®ªà®¨à®¤": 3288,
      "Ġà®¨à®²à®¯à®Ļà®ķà®³": 3289,
      "à®µà®£à®Łà®®": 3290,
      "Ġà®Ĩà®°à®®à®ªà®¤à®¤à®²": 3291,
      "à®ªà®ªà®ķà®ķà®®": 3292,
      "Ġà®īà®¯à®°à®¯à®²": 3293,
      "35": 3294,
      "Ġà®¤à®®à®®": 3295,
      "Ġà®µà®£à®£à®®": 3296,
      "à®ªà®ªà®Łà®µà®²à®²": 3297,
      "Ġà®®à®©à®©à®Ł": 3298,
      "Ġà®¨à®¯à®ķà®ķà®°": 3299,
      "à®¤à®µà®°": 3300,
      "Ġà®®à®°à®¯": 3301,
      "Ġà®ļà®ŀà®ļ": 3302,
      "à®Ļà®ķà®ķà®©à®±à®©": 3303,
      "Ġà®ĩà®°à®ªà®¤": 3304,
      "Ġà®ħà®´à®ķà®ķà®ªà®ªà®Łà®Ł": 3305,
      "à®®à®ªà®ķ": 3306,
      "Ġà®¨à®ķà®´à®ļà®ļà®ķà®³": 3307,
      "Ġà®¤à®®à®´à®¨à®Łà®Łà®²": 3308,
      "Ġà®Ĩà®°à®µà®®": 3309,
      "Ġà®Ĵà®ªà®ªà®¨à®¤à®®": 3310,
      "Ġà®ļà®µà®Ł": 3311,
      "à®ķà®¯à®¤": 3312,
      "Ġà®¤à®®à®´à®°à®ķà®³": 3313,
      "à®¯à®°à®ľ": 3314,
      "Ġà®Ĭà®°à®²": 3315,
      "à®¤à®®à®´à®°": 3316,
      "187": 3317,
      "Ġà®ļà®¤à®¤à®¯à®®": 3318,
      "Ġà®µà®ļà®²": 3319,
      "Ġà®İà®©à®ªà®¤à®©": 3320,
      "Ġà®µà®°à®¯": 3321,
      "Ġà®°à®ªà®¯": 3322,
      "Ġà®ľà®°": 3323,
      "orm": 3324,
      "ĠTh": 3325,
      "Ġà®®à®ŀà®ļà®³": 3326,
      "Ġà®µà®ļà®ļ": 3327,
      "à®İà®Łà®¤à®¤": 3328,
      "Ġà®ħà®µà®ļà®¯à®®": 3329,
      "à®ªà®ªà®Łà®©": 3330,
      "Ġà®ķà®²à®©": 3331,
      "à®Łà®¯à®®": 3332,
      "Ġà®ħà®¯à®©": 3333,
      "Ġà®ľà®ªà®ªà®©": 3334,
      "Ġà®İà®´à®¤à®¤à®ķà®ķà®³": 3335,
      "à®ļà®²à®²": 3336,
      "Ġà®¨à®Łà®ķà®®": 3337,
      "Ġà®Łà®µà®Ł": 3338,
      "Ġ1989": 3339,
      "ations": 3340,
      "à®ķà®ļà®¯": 3341,
      "à®¨à®°à®®": 3342,
      "à®¸à®ķà®°": 3343,
      "Ġà®ķà®²à®ķà®³": 3344,
      "Ġà®µà®Łà®ķà®ķà®¯": 3345,
      "Ġà®µà®Łà®Łà®²": 3346,
      "Ġà®İà®´à®¤à®¯à®³à®³à®°": 3347,
      "Ġà®µà®ķà®ķ": 3348,
      "Ġà®ļà®µà®¤": 3349,
      "Ġà®¤à®Łà®°à®²": 3350,
      "cl": 3351,
      "Ġà®ķà®¤à®¤à®°": 3352,
      "Ġà®īà®°à®µà®©à®¤": 3353,
      "à®¨à®¤à®ķà®³": 3354,
      "Ġà®¤à®©à®©à®ªà®ªà®°à®ķà®ķ": 3355,
      "29": 3356,
      "à®ķà®Łà®ļ": 3357,
      "Ġà®®à®ķà®ķà®³à®µà®¤": 3358,
      "Ġà®ħà®µà®°à®ķà®³à®ķà®ķ": 3359,
      "Ġà®°à®¸": 3360,
      "io": 3361,
      "Ġà®¨à®¤à®¯": 3362,
      "Ġà®ķà®²à®Ł": 3363,
      "Ġà®ķà®£à®Łà®µ": 3364,
      "à®ªà®ªà®©à®¤": 3365,
      "Ġà®ħà®Łà®°à®¤à®¤": 3366,
      "Ġà®İà®©à®ªà®µà®°à®²": 3367,
      "Ġà®®à®²à®°": 3368,
      "2010": 3369,
      "à®ªà®°à®¸": 3370,
      "Ġà®¨à®¯à®³": 3371,
      "Ġ1992": 3372,
      "pl": 3373,
      "à®ªà®©à®±": 3374,
      "Ġà®ªà®°à®µà®®": 3375,
      "à®ªà®ªà®©à®°": 3376,
      "Ġà®ķà®´à®¤à®¤": 3377,
      "Ġà®Ĩà®©à®²à®®": 3378,
      "Ġà®¤à®°à®¤à®¤à®²": 3379,
      "à®Ļà®ķà®¨": 3380,
      "à®ªà®Łà®©": 3381,
      "Ġà®ªà®Łà®Łà®¯à®Łà®Ł": 3382,
      "à®ªà®ªà®¯à®®": 3383,
      "Ġà®Ĩà®ļ": 3384,
      "Ġà®°à®£": 3385,
      "Ġà®ľà®©à®©à®¯": 3386,
      "Ġà®µà®°à®µà®©": 3387,
      "Ġà®®à®ķà®ķà®³à®²": 3388,
      "à®ľà®®": 3389,
      "Ġà®ķà®³à®ķà®ķà®³": 3390,
      "48": 3391,
      "à®ªà®°à®®à®©": 3392,
      "45": 3393,
      "pt": 3394,
      "Ġà®ķà®±à®¸": 3395,
      "Ġà®ķà®Łà®Łà®¤à®¤à®²": 3396,
      "Ġà®ļà®¯à®±à®ªà®Łà®Ł": 3397,
      "Ġà®ļà®ļ": 3398,
      "Ġà®ĩà®©à®±à®®": 3399,
      "Ġà®ĩà®²à®ķà®ķà®£": 3400,
      "Ġà®ıà®±à®±à®ķà®ķà®³à®³": 3401,
      "Ġà®¤à®¯à®°à®ªà®ª": 3402,
      "à®¤à®¤à®²à®ķ": 3403,
      "Ġà®¨à®Łà®©": 3404,
      "Ġà®µà®´à®ļà®ļ": 3405,
      "Ġà®µà®³à®¯à®Łà®Łà®¤": 3406,
      "186": 3407,
      "Ġà®ħà®¤à®ķà®°à®¤à®¤": 3408,
      "à®Ļà®ķà®Łà®Ł": 3409,
      "rit": 3410,
      "Ġà®¤à®°à®ªà®ª": 3411,
      "à®ķà®²à®µ": 3412,
      "Ġà®®à®Łà®µà®²": 3413,
      "ult": 3414,
      "Ġà®ķà®³à®µ": 3415,
      "Ġà®®à®´à®®à®¯à®©": 3416,
      "ĠPro": 3417,
      "à®µà®¤à®±à®ķà®®": 3418,
      "Ġà®ķà®ªà®ªà®°": 3419,
      "Ġà®ļà®®à®¯à®¤à®¤à®²": 3420,
      "Ġà®µà®Łà®µà®®à®ªà®ª": 3421,
      "Ġà®¤à®°à®®à®ª": 3422,
      "à®ļà®±à®¨à®¤": 3423,
      "Ġà®ķà®ļà®ļ": 3424,
      "ĠUniversity": 3425,
      "Ġà®ĩà®¨à®¤à®ļ": 3426,
      "à®¤à®±à®ķà®©": 3427,
      "à®ķà®ķà®ķà®ķà®Łà®¯": 3428,
      "Ġà®®à®©à®ļ": 3429,
      "Ġà®ħà®±à®¯à®ªà®ªà®Łà®Ł": 3430,
      "Ġà®ħà®©à®µà®°à®®": 3431,
      "à®¤à®ª": 3432,
      "Ġà®¨à®°à®Łà®¯à®ķ": 3433,
      "Ġà®ªà®°à®µà®°": 3434,
      "Ġà®µà®°à®µà®¤": 3435,
      "36": 3436,
      "Ġà®²à®©": 3437,
      "à®ªà®ªà®Łà®¤à®¤à®ªà®ªà®Łà®Ł": 3438,
      "Ġà®ªà®µà®²": 3439,
      "Ġà®µà®´à®¤à®¤": 3440,
      "Ġà®µà®¯à®ªà®ª": 3441,
      "à®ªà®©à®©à®°": 3442,
      "Ġà®Ĩà®Ļà®ķà®²à®®": 3443,
      "Ġà®¤à®Ļà®ķà®³à®¤": 3444,
      "Ġà®¨à®Łà®µà®Łà®ķà®ķ": 3445,
      "2003": 3446,
      "ber": 3447,
      "Ġà®ķà®Łà®Łà®³": 3448,
      "Ġà®ħà®³à®µà®ķà®³": 3449,
      "Ġà®ħà®±à®µà®¤à®¤à®¤": 3450,
      "à®ĩà®°à®£à®Łà®®": 3451,
      "à¶": 3452,
      "Ġà®īà®°à®µà®ķà®®": 3453,
      "Ġà®µà®³à®¯à®Łà®ªà®ªà®Łà®Ł": 3454,
      "Ġà®ľà®©à®¤": 3455,
      "Ġà®Ĭà®Łà®Ł": 3456,
      "Ġà®Ĩà®ªà®ªà®°": 3457,
      "à®ªà®ªà®¤à®©": 3458,
      "Ġà®ħà®®à®ķà®ķà®ªà®ªà®Łà®Ł": 3459,
      "Ġà®ķà®Łà®®à®¯à®©": 3460,
      "32": 3461,
      "à®¯à®Łà®¯": 3462,
      "Ġà®µà®¨à®¤à®©à®°": 3463,
      "Ġà®ļà®¯à®¤à®©à®°": 3464,
      "Ġà®ªà®µà®¯à®¯à®²": 3465,
      "à®³à®²": 3466,
      "Ġà®Ĩà®²à®¯": 3467,
      "à®ħà®£": 3468,
      "Ġà®ħà®²à®ķà®ļ": 3469,
      "per": 3470,
      "à®®à®©à®°": 3471,
      "Ġà®ħà®®à®ªà®ªà®²": 3472,
      "à®ķà®©à®µ": 3473,
      "ss": 3474,
      "à®İà®Łà®¤à®¤à®ķà®ķà®Łà®Ł": 3475,
      "Ġà®ķà®±à®¯": 3476,
      "Ġà®®à®±à®¨à®¤": 3477,
      "à®ªà®±à®®": 3478,
      "Ġ1984": 3479,
      "à®īà®ļà®¤à®¤à®£à®ķà®³": 3480,
      "Ġà®ªà®Łà®¤à®¤à®°": 3481,
      "Ġà®¯à®µà®©": 3482,
      "Ġà®ħà®ķà®°": 3483,
      "Ġà®®à®¹": 3484,
      "Ġ()": 3485,
      "Ġà®ķà®±à®µà®ķ": 3486,
      "Ġà®®à®¤à®±": 3487,
      "Ġà®īà®¤à®µà®®": 3488,
      "Ġà®¤à®Łà®°à®ªà®ķà®³": 3489,
      "à®®à®ªà®ķà®ķà®": 3490,
      "Ġà®ªà®ķà®Ł": 3491,
      "Ġà®ħà®µà®°à®©": 3492,
      "Ġà®®à®¤à®¤à®¤": 3493,
      "Ġà®ĩà®¤à®°": 3494,
      "Ġà®Ĩà®ķà®µà®®": 3495,
      "à®¯à®®à®®": 3496,
      "Ġà®ªà®Łà®ķà®ķ": 3497,
      "Ġà®ªà®±à®ªà®ªà®Łà®®": 3498,
      "hy": 3499,
      "Ġà®ıà®¤": 3500,
      "Ġà®¤à®£à®Łà®©": 3501,
      "Ġà®Ĭà®´": 3502,
      "Ġà®ªà®±à®±à®µà®°": 3503,
      "Ġà®ķà®µà®¤à®ķà®³": 3504,
      "Ġà®ķà®£à®Łà®©": 3505,
      "Ġà®ļà®¯à®²à®ªà®Łà®ķà®³": 3506,
      "Ġà®¨à®Łà®ļà®¤à®¤à®°": 3507,
      "Ġà®¨à®±à®¨à®¤": 3508,
      "Ġà®µà®²à®¯": 3509,
      "à®µà®¤à®²à®®": 3510,
      "à®ķà®³à®ļ": 3511,
      "à®ªà®¤à®¤à®©": 3512,
      "Ġà®ĩà®ķ": 3513,
      "à®ªà®°à®Łà®ķà®³": 3514,
      "Ġà®µà®°à®¤à®¤à®ķ": 3515,
      "à®©à®ļà®¯": 3516,
      "Ġà®ĩà®Łà®¤à®¤": 3517,
      "Ġà®ªà®°à®®à®®": 3518,
      "à®ªà®°à®£": 3519,
      "oun": 3520,
      "à®¯à®°à®ķà®ķ": 3521,
      "Ġà®ħà®®à®²à®®": 3522,
      "à®ķà®ķà®ķà®Ł": 3523,
      "à®ķà®ķà®ķà®µà®®": 3524,
      "Ġà®İà®£à®£à®ķà®ķà®¯": 3525,
      "Ġà®¨à®Łà®ķà®ķà®³": 3526,
      "Ġà®®à®©à®ļà®°": 3527,
      "Ġ1993": 3528,
      "Ġà®ķà®£à®£à®Ł": 3529,
      "à®ļà®ļà®´à®²": 3530,
      "Ġà®ĩà®±à®ķà®ķà®®": 3531,
      "ef": 3532,
      "Ġà®ķà®°à®¤à®¤à®°": 3533,
      "à®ĩà®Ļà®ķ": 3534,
      "Ġà®ļà®¯à®ķà®±à®¤": 3535,
      "Ġà®¤à®²à®Ļà®ķ": 3536,
      "Ġà®µà®µà®²": 3537,
      "à®®à®ªà®¤à®¤à®°": 3538,
      "Ġà®īà®¯à®°à®´à®¨à®¤à®©à®°": 3539,
      "ĊĠĊ": 3540,
      "à®ķà®°à®µ": 3541,
      "ele": 3542,
      "Ġà®Ĩà®¨à®¤à®°": 3543,
      "à®İà®´": 3544,
      "Ġà®ªà®°à®ļà®ļà®©à®ķà®³": 3545,
      "Ġà®īà®£à®£": 3546,
      "Ġà®µà®³à®£à®®": 3547,
      "Ġà®¤à®´à®²à®¨à®Łà®ªà®®": 3548,
      "Ġà®Łà®ķà®Łà®°": 3549,
      "Ġà®İà®©à®ªà®¤à®ķ": 3550,
      "Ġà®ķà®®à®²": 3551,
      "Ġà®µà®³à®¯à®Łà®Łà®ķà®³": 3552,
      "Ġà®¤à®³à®¤à®¤à®²": 3553,
      "Ġà®ħà®Łà®ķà®ķ": 3554,
      "2002": 3555,
      "37": 3556,
      "Ġà®ªà®°à®ªà®ª": 3557,
      "Ġà®¨à®¨à®¤": 3558,
      "à®Ļà®ķà®³à®Łà®©": 3559,
      "Ġà®ķà®°à®¸": 3560,
      "center": 3561,
      "ame": 3562,
      "Ġà®ĩà®°à®ľ": 3563,
      "Ġà®µà®´à®ķà®Łà®Ł": 3564,
      "ank": 3565,
      "à®Łà®ªà®ªà®Łà®Ł": 3566,
      "Ġà®ªà®Łà®Łà®¯à®²à®²": 3567,
      "à®µà®¨à®¤à®©": 3568,
      "Ġà®µà®ķà®ķà®®": 3569,
      "Ġà®ħà®°à®ļà®¯à®²à®®": 3570,
      "90": 3571,
      "Ġà®µà®³à®ķà®ķ": 3572,
      "Ġà®µà®³à®Ļà®ķà®ķà®±à®¤": 3573,
      "à®ļà®¨à®¤à®°": 3574,
      "Ġà®®à®´à®ķà®³à®²": 3575,
      "Ġà®ķà®ªà®ªà®¯": 3576,
      "Ġà®µà®²à®¯à®±": 3577,
      "Ġà®¤à®©à®©à®¨à®¤à®¯": 3578,
      "Ġà®ķà®°à®£à®Ļà®ķà®³": 3579,
      "aw": 3580,
      "Ġà®¨à®²à®ķà®®": 3581,
      "Ġà®®à®¤à®²à®Łà®Ł": 3582,
      "\")": 3583,
      "à®ªà®ľ": 3584,
      "Ġà®ļà®°à®ķà®ķ": 3585,
      "à®ĥà®ªà®²": 3586,
      "Ġ2013": 3587,
      "Ġà®µà®°à®ķà®©à®±à®©à®°": 3588,
      "Ġà®ķà®±à®ªà®ªà®Łà®®": 3589,
      "Ġà®ķà®°à®¤à®¤à®ķà®ķà®³": 3590,
      "Ġor": 3591,
      "Ġà®¨à®¤à®°": 3592,
      "Ġà®®à®±à®¤à®¤": 3593,
      "Ġà®Ĩà®¯à®©à®®": 3594,
      "Ġà®ķà®²à®®à®Łà®Łà®°": 3595,
      "ae": 3596,
      "Ġà®®à®ķà®ķà®³à®ķà®ķ": 3597,
      "à®µà®°à®ķà®ķ": 3598,
      "Ġà®¤à®°à®®à®²": 3599,
      "Ġà®¤à®²à®ªà®ļ": 3600,
      "Ġà®ĵà®¯à®µ": 3601,
      "à®¤à®Łà®Ł": 3602,
      "Ġà®¤à®©à®¤à®¤": 3603,
      "erv": 3604,
      "Ġà®®à®¤à®Ļà®ķà®³": 3605,
      "à®®à®¤à®¤": 3606,
      "iss": 3607,
      "Ġà®ªà®¤à®¤à®®": 3608,
      "Ġà®ªà®Łà®ªà®ª": 3609,
      "à®ķà®©à®°": 3610,
      "Ġ45": 3611,
      "à®ªà®³à®¯": 3612,
      "Ġà®ĩà®°à®ªà®ªà®¤à®ķ": 3613,
      "Ġà®¤à®²à®²à®¯à®²": 3614,
      "à®¤à®²à®ķ": 3615,
      "Ġà®ķà®£à®ļà®©": 3616,
      "Ġà®ªà®Łà®ķ": 3617,
      "Ġà®ħà®´à®¤à®¤à®®": 3618,
      "à®ªà®İ": 3619,
      "Ġà®®à®±à®¯à®©": 3620,
      "\".": 3621,
      "Ġà®īà®Łà®±": 3622,
      "à®ķà®¤à®¤à®¯": 3623,
      "Ġà®ļà®©à®©à®®": 3624,
      "à®¤à®®à®´à®¨à®Łà®Ł": 3625,
      "ĪĴ": 3626,
      "Ġà®µà®Łà®ªà®³": 3627,
      "ĠSh": 3628,
      "Ġ2014": 3629,
      "47": 3630,
      "à®³à®°à®®": 3631,
      "Ġà®µà®Ļà®ķà®Ł": 3632,
      "à®ĩà®¯": 3633,
      "Ġà®ļà®±à®ªà®ªà®©": 3634,
      "Ġà®µà®¤à®¤à®¤": 3635,
      "à®ļà®¸": 3636,
      "Ġà®¤à®²à®ķà®ªà®ªà®¯": 3637,
      "à®®à®©à®±à®®": 3638,
      "1980": 3639,
      "Ġà®İà®©à®±à®°": 3640,
      "Ġà®¨à®©à®ķà®µà®¤": 3641,
      "''": 3642,
      "Ġà®¤à®°à®Łà®Ł": 3643,
      "Ġà®ļà®°à®¨à®¤à®°": 3644,
      "Ġà®ķà®£à®Łà®®": 3645,
      "Ġà®ªà®Łà®Łà®°": 3646,
      "Ġà®µà®®à®°à®ļà®©": 3647,
      "ilm": 3648,
      "Ġà®¨à®²à®ªà®ªà®°": 3649,
      "Ġà®ĩà®²à®Ļà®ķà®¤": 3650,
      "ĠĊĠĊĠĊĠĊ": 3651,
      "Ġà®ļà®¯à®©": 3652,
      "Ġ70": 3653,
      "à®ķà®°à®Ł": 3654,
      "Ġà®ķà®£à®Łà®ªà®Łà®¤à®¤": 3655,
      "Ġà®ªà®ªà®ªà®": 3656,
      "Ġà®ªà®ķà®¯": 3657,
      "à®ķà®ļà®°": 3658,
      "à®·à®Ł": 3659,
      "ach": 3660,
      "Ġà®İà®°à®®": 3661,
      "Ġà®Ĵà®²à®®": 3662,
      "Ġà®ķà®£à®Łà®³à®³": 3663,
      "Ġà®ļà®¯à®¯à®ªà®ªà®Łà®Łà®°": 3664,
      "38": 3665,
      "Ġà®ªà®£à®ªà®Ł": 3666,
      "Ġà®ıà®±à®±à®®": 3667,
      "Ġà®µà®´à®ķà®ķà®®à®ķ": 3668,
      "Ġà®ļà®¤à®¤à®¯": 3669,
      "Ġà®ĩà®¤à®µà®°": 3670,
      "Ġà®ªà®±à®±à®¯à®®": 3671,
      "ore": 3672,
      "Ġà®İà®¤à®°à®¤à®¤": 3673,
      "à®ªà®ķà®ķà®®": 3674,
      "Ġà®ķà®²à®ķà®Łà®Łà®¤à®¤à®²": 3675,
      "à®ļà®µà®®": 3676,
      "Ġà®ķà®¤à®ªà®¤à®¤à®°": 3677,
      "sh": 3678,
      "Ġà®ħà®±à®ŀà®°à®ķà®³": 3679,
      "Ġà®®à®ķà®³à®°": 3680,
      "à®ļà®Ļà®ķ": 3681,
      "Ġà®ªà®±à®±à®¨à®¯": 3682,
      "Ġà®ĩà®£à®¯à®¤à®¤": 3683,
      "Ġà®ķà®Łà®¯à®±": 3684,
      "46": 3685,
      "Ġà®ķà®²à®ķ": 3686,
      "Ġà®ªà®°à®®à®ªà®°à®¯": 3687,
      "à®¤à®¤à®³à®®": 3688,
      "Ġà®µà®´à®µà®²": 3689,
      "à®©à®±à®²": 3690,
      "à®ªà®µà®©": 3691,
      "à®¤à®±à®®": 3692,
      "à®ĩà®¨à®¤à®¯à®µà®²": 3693,
      "Ġà®ķà®£à®Łà®©à®°": 3694,
      "Ġà®¯à®¤": 3695,
      "Ġà®ĩà®¯à®²à®®": 3696,
      "Ġà®µà®³à®¨à®Łà®Ł": 3697,
      "Ġà®ķà®Łà®Łà®²": 3698,
      "Ġà®µà®±à®±à®ķà®°": 3699,
      "Ġà®®à®¤à®©à®®à®¯à®©": 3700,
      "Ġà®¤à®£à®£à®°": 3701,
      "à®ªà®ªà®¤à®±à®ķà®©": 3702,
      "Ġ1000": 3703,
      "Ġà®ħà®µà®°à®ķà®³à®²": 3704,
      "cy": 3705,
      "à®ªà®²à®²": 3706,
      "pr": 3707,
      "Ġà®®à®±à®±à®²à®®": 3708,
      "Ġà®ªà®°à®¤à®ļà®®": 3709,
      "Ġà®ĩà®ªà®ªà®ķà®¤": 3710,
      "Ġà®¹à®°à®Ł": 3711,
      "Ġà®ĩà®©à®Ļà®ķà®³": 3712,
      "Ġà®ļà®ªà®ªà®©": 3713,
      "Ġà®µà®´à®Ļà®ķà®¯à®¤": 3714,
      "Ġà®İà®©à®ªà®¤à®ķà®®": 3715,
      "Ġà®¨à®ķà®´à®®": 3716,
      "Ġà®®à®¤à®¤à®¯à®²": 3717,
      "à®ªà®®à®©": 3718,
      "Ġà®İà®°à®ļ": 3719,
      "à®°à®ķà®³à®ķ": 3720,
      "Ġà®¤à®©à®¤à®¤à®©": 3721,
      "Ġà®ķà®ķà®®": 3722,
      "Ġà®ŀà®©": 3723,
      "Ġà®İà®ªà®ªà®¤à®®": 3724,
      "Ġà®¤à®©à®±à®¯": 3725,
      "Ġà®¨à®°à®¯à®£": 3726,
      "Ġà®īà®¯à®°à®¤à®¤": 3727,
      "Ġ1977": 3728,
      "Ġà®¤à®°à®¯": 3729,
      "Ġà®¤à®°à®ķà®ķà®¤": 3730,
      "ĠPress": 3731,
      "Ġà®Ĩà®¯à®°à®®": 3732,
      "mer": 3733,
      "Ġà®ĥà®ªà®³": 3734,
      "Ġ1950": 3735,
      "£à®Ł": 3736,
      "¨à®¤à®°": 3737,
      "Ġà®İà®³à®®": 3738,
      "à®ªà®ķà®®": 3739,
      "Ġà®Ĩà®°à®®à®ªà®¤à®¤": 3740,
      "1990": 3741,
      "Ġà®®à®©à®¤à®°à®ķà®³": 3742,
      "Ġà®ªà®¯à®®": 3743,
      "Ġà®İà®©à®ªà®µà®±à®±": 3744,
      "à®ªà®ªà®Łà®¤à®¤à®®": 3745,
      "à®ķà®ķà®®à®²": 3746,
      "à®¯à®Łà®²": 3747,
      "Ġ1986": 3748,
      "ech": 3749,
      "ile": 3750,
      "Ġà®²à®Ł": 3751,
      "Ġà®¹à®Ł": 3752,
      "Ġà®®à®°à®¤à®¤à®µà®°": 3753,
      "à®±à®ļà®¯": 3754,
      "Ġà®¨à®Ļà®ķà®³": 3755,
      "Ġà®ķà®³à®°à®ļà®ļ": 3756,
      "à®®à®ªà®ķà®³": 3757,
      "Ġà®ªà®¤à®®à®©": 3758,
      "Ġà®¤à®Łà®°à®©": 3759,
      "Ġà®¨à®°à®¤à®¤": 3760,
      "à®ªà®ªà®Łà®²à®®": 3761,
      "Ġà®ļà®²à®ķà®³": 3762,
      "Ġà®ªà®¯à®©à®ªà®Łà®¤à®¤à®ªà®ªà®Łà®Ł": 3763,
      "ru": 3764,
      "à®Łà®°à®ķ": 3765,
      "Ġà®ªà®²à®µà®©": 3766,
      "Ġà®ĩà®°à®¯à®²": 3767,
      "Ġà®µà®°à®¯à®²à®©": 3768,
      "Ġà®īà®°à®µà®©": 3769,
      "Ġà®ĩà®¯à®²à®¤": 3770,
      "à®ķà®ķà®ķà®©à®±à®©": 3771,
      "Ġà®®à®´à®®à®¯à®ķ": 3772,
      "Ch": 3773,
      "à®®à®ķà®³": 3774,
      "Ġà®ħà®Łà®ķà®ķà®®": 3775,
      "à®®à®ªà®¯à®°": 3776,
      "Ġà®®à®±à®¯à®¤": 3777,
      "Ġà®ķà®³à®©": 3778,
      "Ġ1987": 3779,
      "Ġà®ķà®²à®µà®¯à®±à®µ": 3780,
      "à®ķà®ķà®³à®³à®®": 3781,
      "à®ķà®ķà®°à®ķà®³": 3782,
      "Ġà®ıà®±à®ķà®©à®µ": 3783,
      "à®ķà®ķà®£à®ķà®ķà®©": 3784,
      "31": 3785,
      "Ġk": 3786,
      "à®µà®¯à®²à®²": 3787,
      "Ġà®¨à®±à®µà®©à®¤à®¤à®²": 3788,
      "Ġà®¨à®®à®ªà®ķà®ķà®¯": 3789,
      "ition": 3790,
      "Ġà®ħà®¨à®¤à®ķ": 3791,
      "Ġà®ķà®±à®¸à®¤": 3792,
      "Ġà®¨à®¤à®ªà®¤": 3793,
      "à®Ļà®Łà®©": 3794,
      "à®ķà®ķà®ķà®ªà®ªà®Ł": 3795,
      "Ġà®µà®Łà®Łà®¤": 3796,
      "à®ªà®ªà®Łà®ķà®³": 3797,
      "Ġà®¨à®²à®¤à®¤": 3798,
      "Ġà®®à®ķà®ķà®³à®µ": 3799,
      "à®±à®¯à®²": 3800,
      "Ġà®ķà®±à®ķà®¯": 3801,
      "à®ķà®²à®ª": 3802,
      "Ġà®Ĩà®Ļà®ķà®²à®¯": 3803,
      "à®ļà®ļà®®": 3804,
      "à®Ĩà®°à®®": 3805,
      "Ġà®®à®´à®¯": 3806,
      "Ġà®īà®Łà®²à®²": 3807,
      "ice": 3808,
      "Ġà®ħà®°à®ļà®Ļà®ķà®¤": 3809,
      "Ġ1979": 3810,
      "Ġà®µà®°à®ļà®¯à®²": 3811,
      "Ġà®¤à®Łà®ªà®ª": 3812,
      "Ġà®ħà®°à®ļà®Ļà®ķà®®": 3813,
      "Ġ90": 3814,
      "ons": 3815,
      "act": 3816,
      "à®¤à®ķà®®": 3817,
      "Ġà®Ĩà®ªà®ªà®°à®ķà®ķ": 3818,
      "Ġà®ªà®¤à®µà®¯à®²": 3819,
      "Ġà®®à®Łà®¯": 3820,
      "Ġà®²à®Łà®ļà®®": 3821,
      "Ġà®ķà®Łà®¤à®²à®ķ": 3822,
      "à®¤à®³": 3823,
      "Ġà®ªà®Ļà®ķà®±": 3824,
      "Ġà®īà®²à®ķà®³à®µà®¯": 3825,
      "49": 3826,
      "Ġà®ļà®°à®ª": 3827,
      "ark": 3828,
      "Ġà®ķà®°à®®à®Ļà®ķà®³": 3829,
      "Ġà®¨à®±à®µà®ªà®ªà®Łà®Łà®¤": 3830,
      "ohn": 3831,
      "à®ķà®Łà®Łà®®": 3832,
      "à®µà®£à®£": 3833,
      "à®ªà®°à®¨à®¤": 3834,
      "Ġà®¤à®³à®µ": 3835,
      "Ġà®īà®°à®ļà®¯": 3836,
      "Ġà®ªà®¤à®¤à®¤": 3837,
      "à®¤à®¤à®²à®¯": 3838,
      "Ġà®ªà®°à®ļà®¤à®©": 3839,
      "à®ªà®´à®¤": 3840,
      "à®ļà®ļà®±": 3841,
      "Ġà®°à®®à®©": 3842,
      "Ġà®ļà®ķà®ļ": 3843,
      "Ġà®ħà®®à®°à®ķà®ķà®µ": 3844,
      "Ġà®µà®ķà®ªà®ªà®Łà®¤à®¤": 3845,
      "Ġà®ķà®Łà®®à®ªà®": 3846,
      "Ġà®¤à®©à®¨": 3847,
      "Ġwith": 3848,
      "ost": 3849,
      "Ġà®®à®¯à®©à®±": 3850,
      "int": 3851,
      "ace": 3852,
      "à®µà®Łà®µ": 3853,
      "Ġ1971": 3854,
      "Ġà®ľà®µ": 3855,
      "are": 3856,
      "Ġà®¨à®±à®µà®©à®°": 3857,
      "Ġà®ĩà®ļà®°": 3858,
      "Ġà®µà®ŀ": 3859,
      "à®£à®Ļà®ķà®³": 3860,
      "Ġ(\"": 3861,
      "à®ĩà®²à®Ļà®ķà®¤": 3862,
      "Ġà®ķà®Łà®¯à®°à®ļà®¤": 3863,
      "Ġà®ĩà®£à®ķà®ķà®®": 3864,
      "Ġà®µà®Łà®Łà®¤à®¤à®²": 3865,
      "Ġà®ļà®´à®©": 3866,
      "Ġà®İà®²à®²à®®": 3867,
      "à®ħà®Łà®ķà®ķà®±à®ªà®ª": 3868,
      "Ġà®¨à®Łà®ķà®ķ": 3869,
      "à®ªà®ķà®ķà®¤": 3870,
      "Ġà®ªà®£à®Łà®¯à®©": 3871,
      "ann": 3872,
      "à®ªà®ªà®´à®¤": 3873,
      "Ġà®µà®³à®¯à®©à®¤": 3874,
      "à®µà®Łà®Łà®²": 3875,
      "à®ªà®¤à®¤à®¯": 3876,
      "%,": 3877,
      "Ġà®İà®±": 3878,
      "Ġà®ªà®±à®µ": 3879,
      "Ġà®ķà®Łà®ķà®ķ": 3880,
      "à®ļà®®à®®": 3881,
      "Ġà®¤à®´à®²à®³à®°à®ķà®³": 3882,
      "Ġà®ļà®©à®©à®¯à®²": 3883,
      "Ġ1981": 3884,
      ");": 3885,
      "Ġà®µà®°à®¯à®©": 3886,
      "à®µà®²à®°à®¨à®¤": 3887,
      "Ġà®ķà®°à®®à®®": 3888,
      "Ġà®ĩà®´à®¨à®¤": 3889,
      "Ġà®ķà®Łà®Łà®Łà®Ļà®ķà®³": 3890,
      "Ġà®®à®ķà®¨": 3891,
      "Ġà®ħà®°à®®": 3892,
      "Ġà®ĩà®²à®ķà®ķà®ķà®³": 3893,
      "Ġà®¨à®Łà®¤à®¤à®°à®¨à®¤à®©à®°": 3894,
      "Ġà®ħà®¤à®ªà®°": 3895,
      "Ġà®¨à®±à®®à®±": 3896,
      "Ġà®ªà®µà®©": 3897,
      "Ġ1985": 3898,
      "Ġà®ķà®±à®¨à®¤à®¤": 3899,
      "Ġà®ķà®£à®ķà®ķà®²": 3900,
      "Ġà®ħà®³à®µà®ķà®ķ": 3901,
      "Ġà®ªà®²à®ķà®²à®ķà®ķà®´à®ķ": 3902,
      "Ġ1988": 3903,
      "Ġà®Ĩà®ķà®ķà®°à®®": 3904,
      "Ġà®ªà®£à®¯à®²": 3905,
      "Ġà®ħà®±à®µà®¤à®¤à®°": 3906,
      "ography": 3907,
      "Ġà®Ĩà®³à®®": 3908,
      "à®ªà®²à®©": 3909,
      "à®ķà®³à®ķà®ķà®©": 3910,
      "à®¤à®¤à®±à®©": 3911,
      "33": 3912,
      "Ġà®ķà®Łà®²à®²": 3913,
      "Ġà®ķà®°à®ķ": 3914,
      "Ġà®ķà®±à®ķà®±à®°": 3915,
      "Ġà®ķà®®à®¯à®©": 3916,
      "Ġà®ªà®¨à®¤à®¯": 3917,
      "44": 3918,
      "à®ªà®ªà®ªà®ªà®Ł": 3919,
      "Ġà®¤à®°à®ķà®ķ": 3920,
      "à®µà®ļà®©": 3921,
      "Ġà®®à®Łà®¨à®¤": 3922,
      "Ġ1983": 3923,
      "Ġà®¤à®µà®¯": 3924,
      "Ġà®ļà®Łà®©": 3925,
      "Ġà®®à®±à®ķà®²": 3926,
      "Ġà®ħà®±à®ķà®ķ": 3927,
      "Ġ500": 3928,
      "Ġà®¨à®ķà®°à®Ļà®ķà®³à®®": 3929,
      "Ġà®ļà®¯à®¯à®ªà®ªà®Łà®ķà®±à®¤": 3930,
      "185": 3931,
      "Ġà®Ĩà®±à®±à®©": 3932,
      "Ġà®µà®°à®ķ": 3933,
      "Ġà®ªà®²à®ķà®³": 3934,
      "à®ļà®°à®¤": 3935,
      "à®ªà®ªà®°à®ķà®³": 3936,
      "Ġà®¤à®©à®±à®®": 3937,
      "Ġà®ļà®°à®¯à®ķ": 3938,
      "Ġà®¨à®Łà®¤à®¤à®©à®°": 3939,
      "Ġà®ªà®°à®Łà®Łà®®": 3940,
      "à®¯à®°à®¨à®¤": 3941,
      "Ġà®ĩà®Łà®®à®ªà®±": 3942,
      "Ġà®µà®°à®¯à®®": 3943,
      "Ġà®µà®°à®µà®ķ": 3944,
      "Ġà®ĩà®²à®¤à®¤à®©": 3945,
      "Ġà®µà®ļà®¤à®¤": 3946,
      "à®Łà®¯à®ķ": 3947,
      "Ġà®ķà®¤à®®": 3948,
      "sl": 3949,
      "Ġà®ħà®Ļà®ķà®¤": 3950,
      "Ġà®ķà®Łà®Łà®ªà®ªà®Łà®Łà®¤": 3951,
      "75": 3952,
      "Ġà®ħà®®à®©": 3953,
      "Ġà®ķà®²à®ļ": 3954,
      "Ġà®Łà®²à®°": 3955,
      "ĠPubl": 3956,
      "Ġ1978": 3957,
      "oci": 3958,
      "Ġà®ļà®¯à®²à®¤à®±à®©": 3959,
      "Ġà®ªà®¤à®®à®ķà®ķà®³": 3960,
      "Ġà®ħà®¨à®¤à®¤": 3961,
      "Ġà®µà®°à®µà®±": 3962,
      "à®ļà®²à®©": 3963,
      "Ġà®¤à®µà®°à®Ļà®ķà®³": 3964,
      "row": 3965,
      "Ġà": 3966,
      "Ġà®ĩà®Łà®ªà®ªà®Łà®Ł": 3967,
      "Ġà®¤à®®à®´à®ķà®ķà®®": 3968,
      "ķà®ķà®": 3969,
      "Ġà®ħà®²à®ķ": 3970,
      "Ġà®ıà®±à®±à®ķ": 3971,
      "ous": 3972,
      "Ġà®µà®´à®ķà®ķà®²": 3973,
      "Ġà®ªà®ķà®ķà®³": 3974,
      "Ġà®¤à®°à®¨à®²à®µà®²": 3975,
      "à®£à®Łà®ķà®³": 3976,
      "Ġà®¨à®²à®ķà®ķ": 3977,
      "Ġà®ķà®ªà®ªà®±à®±à®©à®°": 3978,
      "Ġà®ªà®Łà®Łà®©": 3979,
      "à®ªà®¤à®©": 3980,
      "Ġà®ªà®²à®µà®°à®ķà®³": 3981,
      "à®ķà®Łà®°à®©": 3982,
      "à®Łà®°à®©": 3983,
      "Ġà®®à®¨à®²à®Ļà®ķà®³": 3984,
      "à®ļà®¤à®°": 3985,
      "Ġà®ķà®´à®ķ": 3986,
      "Ġà®ħà®°à®ļà®°à®ķà®³": 3987,
      "Ġà®İà®©à®ªà®¤à®Łà®©": 3988,
      "Ġà®ķà®Ļà®ķà®°à®ļ": 3989,
      "à®¤à®¤à®±à®¯à®²": 3990,
      "Ġà®ĩà®²à®²à®®": 3991,
      "Ġà®ªà®²à®ļ": 3992,
      "Ġà®ªà®¯à®²": 3993,
      "Ġà®ķà®Łà®Łà®®à®©": 3994,
      "à®ķà®ķà®°à®°": 3995,
      "Ġà®®à®²à®ķà®³": 3996,
      "Ġà®ªà®¯à®©à®ªà®Łà®¤à®¤à®ªà®ªà®Łà®Łà®¤": 3997,
      "Ġà®¤à®ķà®¤à®¯à®²": 3998,
      "aj": 3999,
      "Ġà®¨à®ŀà®ļ": 4000,
      "Ġà®ļà®°à®ªà®²": 4001,
      "Ġà®īà®±à®ªà®ªà®ķà®³": 4002,
      "Ġà®ķà®£à®¤à®µà®¯à®²": 4003,
      "Ġà®ļà®¯à®±à®ªà®Ł": 4004,
      "à®ĩà®£": 4005,
      "Ġà®¤à®®à®´à®ķà®¤à®¤à®²": 4006,
      "Ġà®µà®±à®®": 4007,
      "Ġà®®à®£à®µà®°": 4008,
      "Ġà®°à®¤à®¯à®ķ": 4009,
      "Ġalign": 4010,
      "Ġà®µà®³à®°à®®": 4011,
      "Ġà®¤à®®à®´à®ļ": 4012,
      "à®ķà®ļà®¯à®°": 4013,
      "à®³à®®à®©": 4014,
      "Ġà®Ĩà®ķà®ļà®ļà®©": 4015,
      "Ġà®ĩà®¨à®¤à®°": 4016,
      "Ġà®Łà®¸": 4017,
      "Ġà®¤à®®à®´à®¨à®Łà®Łà®©": 4018,
      "à®ķà®ķà®µà®¯à®²": 4019,
      "à®ķà®¤à®¤à®±à®ķ": 4020,
      "1989": 4021,
      "out": 4022,
      "Ġà®ĩà®²à®°à®¨à®¤": 4023,
      "à®ĩà®ļ": 4024,
      "à®ŀà®ļà®©": 4025,
      "Ġà®īà®³à®µà®¯à®²": 4026,
      "Ġà®ļà®ªà®ªà®°à®®à®£": 4027,
      "à®ļà®©à®®": 4028,
      "Ġà®ķà®Łà®ªà®Łà®Ł": 4029,
      "Ġ1982": 4030,
      "Ġà®İà®³à®¯": 4031,
      "Ġà®ªà®Łà®Łà®¤": 4032,
      "Ġà®ħà®£à®ķà®ķà®°": 4033,
      "Ġà®¤à®²à®®à®±": 4034,
      "à®ķà®Ļà®ķ": 4035,
      "Ġà®ħà®°à®£à®®à®©": 4036,
      "Ġpro": 4037,
      "site": 4038,
      "98": 4039,
      "Ġà®İà®°à®ªà®°à®³": 4040,
      "à®µà®°à®ķà®³à®ķ": 4041,
      "Ġà®ªà®´à®®à®¯à®©": 4042,
      "Ġà®µà®´à®Ļà®ķà®ªà®ªà®Łà®®": 4043,
      "ĉĉ": 4044,
      "Ġà®ħà®£à®ķà®®": 4045,
      "Ġà®ªà®ķà®ªà®ªà®Ł": 4046,
      "Ġà®ħà®¤à®ķà®°à®ªà®ªà®°à®µ": 4047,
      "à®Ĳà®°": 4048,
      "Ġà®µà®ķà®ªà®ª": 4049,
      "à®¨à®¤à®ªà®°à®®": 4050,
      "à®ļà®ļà®¯": 4051,
      "Ġà®Ĩà®Ļà®ķà®²à®¤à®¤à®²": 4052,
      "Ġà®®à®¨à®Ł": 4053,
      "Ġà®µà®ļà®©": 4054,
      "Ġà®®à®Łà®¨à®¤à®¤": 4055,
      "à®ªà®ķà®ķà®³": 4056,
      "Ġà®¨à®°à®µà®ķà®®": 4057,
      "à®µà®ķà®ķà®³": 4058,
      "Ġ2016": 4059,
      "Ġà®ħà®µà®©à®¤": 4060,
      "à®Łà®¯à®©": 4061,
      "Ġà®¤à®¯à®©": 4062,
      "Ġà®ªà®°à®°": 4063,
      "Ġà®ĩà®ļà®ķ": 4064,
      "Ġà®µà®ļà®°à®£": 4065,
      "à®³à®°à®©": 4066,
      "Ġà®ľà®®": 4067,
      "Ġà®®à®´à®¯à®©": 4068,
      "Ġà®¨à®ķà®°à®¤à®¤à®²": 4069,
      "Ġà®ıà®±à®ª": 4070,
      "à®ļà®©à®±à®ķà®³": 4071,
      "Ġà®µà®°à®ķà®³": 4072,
      "Ġà®¤à®±à®¯à®©": 4073,
      "Ġà®Ĭà®°à®ķà®³à®®": 4074,
      "Ġà®µà®ļà®¤à®ķà®³": 4075,
      "son": 4076,
      "Ġà®ªà®°à®¯à®°": 4077,
      "Ġà®ĩà®°à®¨à®¤à®®": 4078,
      "à®¤à®¤à®±à®ķà®ª": 4079,
      "à®¨à®±à®µà®©": 4080,
      "à®²à®¯à®©": 4081,
      "1999": 4082,
      "Ġà®ªà®°à®°à®ļà®°": 4083,
      "à®¤à®ķà®µ": 4084,
      "à®ªà®ªà®°à®®à®£": 4085,
      "Ġà®ķà®©à®®": 4086,
      "Ġà®ķà®³à®³à®²à®®": 4087,
      "Ġà®Ĵà®²à®ªà®°": 4088,
      "Ġà®®à®°à®£à®®": 4089,
      "à®¨à®²à®¯à®²": 4090,
      "Ġ36": 4091,
      "Ġà®ķà®Łà®ķà®ķà®±à®¤": 4092,
      "Ġà®¤à®°à®ªà®ªà®Łà®Ļà®ķà®³à®²": 4093,
      "Ġà®µà®±à®ªà®Łà®ķà®³": 4094,
      "ram": 4095,
      "Ġà®°à®¯": 4096,
      "Ġà®īà®±à®ªà®ª": 4097,
      "à®²à®£à®Ł": 4098,
      "Ġà®¤à®°à®¯à®²": 4099,
      "att": 4100,
      "outh": 4101,
      "Ġà®ļà®ķà®ķà®¯": 4102,
      "à®ªà®ªà®¤à®µ": 4103,
      "Ġà®®à®°à®¨à®¤à®ķà®³": 4104,
      "Ġà®µà®´à®®à®±": 4105,
      "ĊĊĠ": 4106,
      "Ġà®ķà®±à®ªà®©": 4107,
      "Ġà®ħà®®à®ķà®ķà®ªà®ªà®Łà®Łà®¤": 4108,
      "Ġà®ľà®®à®¸": 4109,
      "Ġà®ĩà®Łà®¯à®²à®©": 4110,
      "à®ªà®¯à®®": 4111,
      "Ġ1965": 4112,
      "Ġà®ķà®²à®¤à®¤à®©": 4113,
      "Ġà®²à®¯": 4114,
      "Ġ2015": 4115,
      "Ġà®ªà®°à®Łà®Łà®©": 4116,
      "ªà®ªà®Łà®Łà®¤": 4117,
      "à®´à®µ": 4118,
      "à®¨à®¤à®ķ": 4119,
      "Ġà®ħà®£à®ķà®³": 4120,
      "à®ķà®ŀ": 4121,
      "Ġà®ªà®°à®Łà®Łà®·": 4122,
      "ebsite": 4123,
      "Ġà®®à®¨à®ķà®°à®Łà®ļ": 4124,
      "yst": 4125,
      "à®¯à®´à®ªà®ªà®£": 4126,
      "Ġà®ĩà®Łà®Ł": 4127,
      "à®ļà®ļà®°à®®": 4128,
      "Ġà®®à®¤à®²à®©": 4129,
      "Ġà®®à®Łà®µà®ķà®ķ": 4130,
      "à®ķà®ķà®Łà®ªà®Łà®Ł": 4131,
      "à®ħà®µà®°": 4132,
      "à®¨à®²à®ķà®³": 4133,
      "Ġà®Ĭà®ķà®ķà®µ": 4134,
      "az": 4135,
      "à®¯à®Łà®¨à®¤": 4136,
      "Ġà®¤à®´à®²à®³à®°": 4137,
      "Ġà®ķà®°à®¨à®¤": 4138,
      "Ġà®ħà®®à®°à®ķà®ķà®ª": 4139,
      "Ġà®ļà®®à®ªà®¯à®©": 4140,
      "Ġà®ķà®Łà®Łà®Łà®®": 4141,
      "Ġà®ļà®°à®µ": 4142,
      "Ġà®ħà®±à®ŀà®°": 4143,
      "Ġà®ĩà®±à®¨à®¤à®°": 4144,
      "à®īà®³à®³": 4145,
      "Ġ1947": 4146,
      "à®Łà®Ļà®ķà®³": 4147,
      "Ġà®¨à®·": 4148,
      "Ġà®ķà®²à®ķà®¤à®¤": 4149,
      "à®µà®¤à®ķà®³": 4150,
      "42": 4151,
      "à®Łà®µ": 4152,
      "ple": 4153,
      "à®ªà®ªà®µà®°": 4154,
      "Ġà®®à®³à®®": 4155,
      "Ġà®¤à®Łà®¤à®¤": 4156,
      "Ġà®µà®²à®ķà®³": 4157,
      "Ġ32": 4158,
      "Ġà®ĩà®°à®ļà®ļà®¯à®®": 4159,
      "ext": 4160,
      "Ġà®ĩà®ªà®ªà®°à®°à®Łà®ļ": 4161,
      "à®ļà®±à®±": 4162,
      "Ġà®ķà®®à®ª": 4163,
      "Ġde": 4164,
      "Ġà®¤à®°à®¯à®®": 4165,
      "Ġà®®à®²à®©": 4166,
      "Ġà®¤à®°à®¨à®¤à®Łà®ķà®ķà®ªà®ªà®Łà®Ł": 4167,
      "Ġà®ħà®ªà®ªà®²": 4168,
      "Ġà®ªà®±à®ķà®³": 4169,
      "Ġà®®à®©à®ķà®³": 4170,
      "Ġà®µà®´à®Ļà®ķà®ķà®±à®¤": 4171,
      "Ġ1975": 4172,
      "Ġ1967": 4173,
      "Ġà®ıà®±à®ªà®Łà®ķà®±à®¤": 4174,
      "Ġà®Ĵà®ªà®ªà®Łà®Ł": 4175,
      "Ġà®Ĵà®°à®µà®©": 4176,
      "Ġà®ªà®ķà®¸à®¤à®©": 4177,
      "gi": 4178,
      "à®Łà®¨à®¤": 4179,
      "Ġà®¨à®µà®°": 4180,
      "à®µà®°à®ķà®³à®®": 4181,
      "ĠHistory": 4182,
      "Ġà®ªà®°à®³à®¯à®²": 4183,
      "Ġ1972": 4184,
      "Ġà®¨à®Łà®ķà®Ļà®ķà®³": 4185,
      "Ġà®ªà®Łà®¤à®¤à®©": 4186,
      "Ġà®ķà®£à®ªà®¤": 4187,
      "à®ªà®°à®¤à®¤à®©": 4188,
      "à®ĩà®³": 4189,
      "Ġà®ªà®¤à®µà®ķà®³": 4190,
      "Ġà®µà®Łà®µà®Ļà®ķà®³": 4191,
      "Ġà®ļà®ļà®²": 4192,
      "95": 4193,
      "ĠZ": 4194,
      "Ġà®ħà®°à®ļà®°": 4195,
      "Ġà®İà®©à®ªà®¤à®®": 4196,
      "Ġà®¨à®ķà®´à®¤à®¤": 4197,
      "Ġà®¤à®°à®µà®¤à®¤à®°": 4198,
      "à®®à®ªà®¤": 4199,
      "Ġà®ļà®²à®µà®¤": 4200,
      "à®¤à®®à®´à®¤": 4201,
      "Ġ),": 4202,
      "Ġà®µà®Ļà®ķà®¯": 4203,
      "Ġà®Ĩà®Łà®ķà®³": 4204,
      "à®Łà®ļà®©": 4205,
      "Ġà®İà®£à®£à®®": 4206,
      "Ġà®ķà®°à®Łà®Ł": 4207,
      "les": 4208,
      "ue": 4209,
      "Ġà®ªà®°à®Ļà®ķà®Łà®²": 4210,
      "à®ªà®¤à®µà®ķ": 4211,
      "Ġà®ħà®´à®ķà®ķà®ªà®ªà®Łà®Łà®¤": 4212,
      "Ġà®ªà®°à®ªà®ªà®³à®µ": 4213,
      "Ġà®Łà®ļà®ļ": 4214,
      "à®®à®²à®²": 4215,
      "Ġà®ļà®¨à®¤à®°à®®": 4216,
      "Ġà®µà®®à®ļ": 4217,
      "à®°à®ľà®©": 4218,
      "Ġà®ļà®³": 4219,
      "Ġà®®à®Łà®¤à®¤": 4220,
      "à®ªà®³à®¯à®®": 4221,
      "Ġà®¯à®´à®ªà®ªà®£à®®": 4222,
      "Ġà®ħà®ķà®®": 4223,
      "Ġà®ķà®Łà®²à®°": 4224,
      "Ġà®¤à®ķà®¤à®¤": 4225,
      "Ġà®ħà®°à®ªà®¯": 4226,
      "Ġà®ļà®£": 4227,
      "Ġà®¨à®ķà®²": 4228,
      "Ġà®ĩà®¨à®¤à®¯à®ķ": 4229,
      "Ġà®®à®±à®¯à®Ł": 4230,
      "Ġà®¤à®²à®ªà®ªà®²": 4231,
      "à®ĩà®¯à®±": 4232,
      "à®µà®³à®¯à®Łà®Ł": 4233,
      "Ġà®²à®¸": 4234,
      "à®¤à®¤à®¤à®ķ": 4235,
      "Ġà®İà®©à®²": 4236,
      "à®ķà®ķà®±à®¯": 4237,
      "2012": 4238,
      "Ġà®ħà®®à®ļà®Ļà®ķà®³": 4239,
      "Ġà®¤à®ķà®¯": 4240,
      "à®¯à®²à®³à®³": 4241,
      "Ġà®¹à®Ļà®ķà®Ļ": 4242,
      "Ġà®ļà®°à®¨à®¤à®µà®°": 4243,
      "Ġ1940": 4244,
      "Ġà®ļà®ķà®ķà®²à®©": 4245,
      "à®ĩà®°à®®": 4246,
      "Ġà®ªà®¤à®ķà®ķà®®": 4247,
      "Ġà®°à®©": 4248,
      "Ġà®ªà®ķà®ªà®ªà®¯à®µ": 4249,
      "à®±à®ķà®Ł": 4250,
      "Ġà®ħà®²à®Ļà®ķà®°": 4251,
      "à®³à®©": 4252,
      "An": 4253,
      "à®¯à®´": 4254,
      "Ġà®ļà®µà®ªà®ª": 4255,
      "Ġà®ķà®±à®ªà®ªà®Łà®ķà®±à®°": 4256,
      "BC": 4257,
      "à®ĩà®Ł": 4258,
      "à®¤à®¤à®°à®©": 4259,
      "Ġà®ĩà®¤à®¯": 4260,
      "Ġà®µà®¤à®¤à®¤à®²": 4261,
      "Ġà®®à®ķà®°à®ļ": 4262,
      "à®ªà®°à®ķà®ķà®¤": 4263,
      "Ġà®°à®Łà®Ł": 4264,
      "Ġà®¨à®Łà®Łà®ª": 4265,
      "Ġà®¤à®©à®ķà®ķ": 4266,
      "Ġà®¤à®±à®ķà®³à®²": 4267,
      "Ġà®ħà®µà®µ": 4268,
      "Ġà®Ĩà®²à®ļà®©": 4269,
      "Ġà®Ĩà®±à®®": 4270,
      "à®Łà®ķà®ķà®®": 4271,
      "à®ķà®ķà®¨à®¤": 4272,
      "Ġà®µà®´à®Ļà®ķà®©à®°": 4273,
      "à®ķà®ķà®ķà®±": 4274,
      "Ġà®ļà®Łà®Łà®ķ": 4275,
      "Ġà®ļà®¤à®¨à®¤à®°à®®": 4276,
      "Ġà®¨à®ķà®ļà®ļà®µ": 4277,
      "Ġà®ªà®°à®ª": 4278,
      "Ġà®¤à®°à®µà®©": 4279,
      "Ġà®¨à®©à®ķà®®": 4280,
      "Ġà®®à®©à®©à®Łà®Ł": 4281,
      "à®ªà®ªà®µà®°à®ķà®³": 4282,
      "43": 4283,
      "Ġà®ħà®Ļà®ķà®°à®¨à®¤": 4284,
      "Ġà®İà®©à®ªà®ªà®Łà®ķà®±à®¤": 4285,
      "Ġà®¨à®Łà®ķà®³à®ķà®ķ": 4286,
      "Ġà®ħà®±à®¯à®ªà®ªà®Łà®ķà®±à®¤": 4287,
      "à®¨à®ķà®´à®µà®ķà®³": 4288,
      "à®ľà®²": 4289,
      "stit": 4290,
      "Ġà®ļà®®à®ªà®¨à®¤": 4291,
      "ternational": 4292,
      "te": 4293,
      "Ġà®µà®Ļà®ķà®ķà®³": 4294,
      "à®µà®©à®¯": 4295,
      "Ġà®µà®£à®Łà®¸": 4296,
      "Ġà®ķà®Łà®®à®ªà®¤à®¤à®²": 4297,
      "Ġà®İà®©à®±à®´à®ķà®ķà®ªà®ªà®Łà®®": 4298,
      "Ġà®ĩà®ª": 4299,
      "à®¸à®µà®°": 4300,
      "à®¯à®°à®ķà®ķà®®": 4301,
      "à®ķà®²à®²": 4302,
      "Ġà®¤à®µà®°à®®": 4303,
      "1994": 4304,
      "1998": 4305,
      "Ġà®µà®³à®µà®¨à®¤à®¤": 4306,
      "à®¯à®®à®®à®©": 4307,
      "Ġà®¤à®°à®µà®¤à®¤": 4308,
      "Ġà®ķà®²à®²à®®": 4309,
      "Ġà®ķà®±à®¯à®¤": 4310,
      "à®ļà®ļà®²à®²": 4311,
      "Ġà®ĩà®ļà®¯à®²": 4312,
      "Ġà®µà®£à®ķà®®": 4313,
      "ire": 4314,
      "Ġà®¨à®¯à®©": 4315,
      "Ġà®¤à®¯à®°à®¤à®¤": 4316,
      "à®ļà®±à®ªà®ª": 4317,
      "à®ªà®ŀà®ļ": 4318,
      "Ġà®ĩà®°à®®à®©": 4319,
      "Ġ1969": 4320,
      "Ġà®ªà®ķà®ļ": 4321,
      "à®¨à®¤à®¤à®ķ": 4322,
      "Ġà®¨à®¯à®ļà®²": 4323,
      "à®ļà®ļà®¨à®¤à®°à®©": 4324,
      "Ġà®ħà®°à®ļà®¤à®¤à®²à®µà®°": 4325,
      "icial": 4326,
      "Ġà®ªà®¯à®£à®ķà®³": 4327,
      "Ġà®īà®¤à®°à®£à®®à®ķ": 4328,
      "Ġà®ħà®±à®ķà®±à®ķà®³": 4329,
      "Ġà®ªà®±à®ķà®ķà®®": 4330,
      "à®ħà®°à®ļà®¯à®²": 4331,
      "Th": 4332,
      "à®ªà®Łà®²à®ķà®³": 4333,
      "Ġà®ªà®¤à®ªà®ªà®ķà®³": 4334,
      "Ġà®ķà®£à®Łà®¤à®ķ": 4335,
      "à®ļà®ļà®¯à®²": 4336,
      "Ġà®°à®ªà®°à®Ł": 4337,
      "Ġà®µà®´à®ķà®ķà®±": 4338,
      "ron": 4339,
      "Ġà®®à®²à®¯à®³": 4340,
      "htm": 4341,
      "Ġà®ĩà®Ļà®ķà®³à®³": 4342,
      "ĠâĢĿ": 4343,
      "à®ªà®µà®²": 4344,
      "uk": 4345,
      "Ġà®Ĩà®µ": 4346,
      "Ġà®ķà®±à®ªà®ªà®¤": 4347,
      "Ġà®µà®´à®¨à®³": 4348,
      "Ġà®ĩà®¤à®¤à®²à®¯": 4349,
      "Ġà¤": 4350,
      "Ġà®ķà®´à®ªà®ª": 4351,
      "Ġà®¨à®²à®ķ": 4352,
      "Ġà®ĩà®ļà®²à®®à®¯": 4353,
      "Ġà®Ĩà®©à®°": 4354,
      "Ġà®µà®°à®®à®©": 4355,
      "à®³à®®à®ķ": 4356,
      "Ġà®ĩà®£à®¤à®¤": 4357,
      "Ġà®ļà®¯à®²à®ªà®Łà®®": 4358,
      "Ġà®İà®©à®²à®®": 4359,
      "Ġà®ļà®¯à®¯à®ªà®ªà®Ł": 4360,
      "ase": 4361,
      "Ġà®ļà®²à®µà®°": 4362,
      "Ġ1976": 4363,
      "Ġà®µà®Łà®Łà®¤à®¤à®©": 4364,
      "ĠSp": 4365,
      "à®µà®¤à®¯à®®": 4366,
      "Ġ1974": 4367,
      "Ġà®¨à®ķà®ķà®¯": 4368,
      "Ġà®¨à®ªà®£": 4369,
      "1970": 4370,
      "à®ķà®ķà®¤à®¤à®±à®ķ": 4371,
      "ft": 4372,
      "Ġà®ħà®¯à®°": 4373,
      "Ġà®®à®°à®¤": 4374,
      "Ġà®ĩà®µà®°à®ķà®³à®²": 4375,
      "Ġà®ĩà®¤à®¤à®°à®ªà®ªà®Łà®®": 4376,
      "Ġà®ĩà®©à®ªà®ªà®°": 4377,
      "Ġcom": 4378,
      "Ġà®®à®ķà®µà®°": 4379,
      "Ġà®¯à®´": 4380,
      "Ġà®ªà®°à®®à®³à®µà®²": 4381,
      "Ġà®Ĵà®°à®µà®°à®©": 4382,
      "Ġà®ļà®°à®©": 4383,
      "Ġà®®à®¯à®°": 4384,
      "à®°à®®à®ķ": 4385,
      "Ġà®¨à®±à®µà®ªà®ªà®Łà®Ł": 4386,
      "Ġà®Ĩà®ªà®ķà®©": 4387,
      "à®¸à®µà®°à®°": 4388,
      "à®ªà®ķà®¸": 4389,
      "Ġà®ķà®µà®²à®¤à®±": 4390,
      "à®ªà®°à®¤à®¤": 4391,
      "Ġà®µà®³à®ªà®ªà®±": 4392,
      "à®ķà®ķà®ªà®ªà®Łà®ķà®©à®±à®¤": 4393,
      "Ġà®ħà®¤à®ķà®°à®®": 4394,
      "Ġà®ªà®°à®©à®¸": 4395,
      "Ġà®ķà®°à®¯à®²": 4396,
      "96": 4397,
      "à®īà®±": 4398,
      "Ġà®ķà®Łà®µà®³à®©": 4399,
      "à®®à®±à®±à®®": 4400,
      "à®µà®ªà®ª": 4401,
      "Ġà®®à®©à®Ł": 4402,
      "Ġà®ļà®®à®ªà®²": 4403,
      "Ġà®µà®°à®£": 4404,
      "yle": 4405,
      "Ġà®®à®ķà®ļà®ļ": 4406,
      "à®ķà®¯à®°": 4407,
      "Ġà®¤à®Łà®°à®ªà®Ł": 4408,
      "à®ªà®ªà®²à®®": 4409,
      "Ġan": 4410,
      "Ġà®ļà®°à®ļà®ļ": 4411,
      "Ġà®µà®¯à®Ł": 4412,
      "Ġà®Ĩà®Łà®Łà®®": 4413,
      "Ġà®īà®©": 4414,
      "Ġà®ķà®°à®ķà®°": 4415,
      "Ġà®¨à®Łà®µà®°": 4416,
      "Ġà®ļà®°à®ķà®ķà®°": 4417,
      "à®ļà®ļà®°à®Ł": 4418,
      "Ġà®ķà®£à®Łà®°à®ķà®ķà®±à®¤": 4419,
      "Ġà®¨à®®à®ªà®ªà®ªà®Ł": 4420,
      "Ġà®ķà®Łà®¤à®¤à®°": 4421,
      "Ġà®ªà®¤à®¤à®ķà®Ļà®ķà®³": 4422,
      "Ġà®ªà®¨": 4423,
      "à®ķà®©à®Ł": 4424,
      "à®µà®´à®ķà®ķ": 4425,
      "Ġà®®à®¯à®±à®ļà®ķà®³": 4426,
      "Ġà®ħà®²à®µà®²à®ķà®®": 4427,
      "à®ķà®ķà®µà®¤": 4428,
      "à®®à®ªà®ķà®ķ": 4429,
      "Ġà®®à®¯à®©": 4430,
      "Ġà®µà®°à®ķà®©à®±à®¤": 4431,
      "à®ķà®ķà®®à®ķ": 4432,
      "Ġà®ķà®Łà®®à®ªà®Ļà®ķà®³": 4433,
      "ĠQ": 4434,
      "à®ķà®ķà®³à®ķà®ķ": 4435,
      "Ġà®ķà®Łà®Łà®©à®°": 4436,
      "Ġà®ķà®´à®ķà®ķà®²": 4437,
      "1960": 4438,
      "Ġà®µà®¤à®®à®ķ": 4439,
      "Ġà®ªà®£à®ķà®³à®©": 4440,
      "Ġà®Ĳà®°à®ªà®ªà®µà®²": 4441,
      "Ġà®±": 4442,
      "à®ķà®ľ": 4443,
      "Ġà®ķà®²à®¨à®²": 4444,
      "Ġà®®à®±à®ķà®ķ": 4445,
      "Ġà®®à®Łà®²": 4446,
      "Ġà®īà®¯à®°à®¤à®¤à®²": 4447,
      "Ġà®Ĩà®Łà®ļà®¯à®©": 4448,
      "Ġ1930": 4449,
      "à®Ļà®ķà®Ļà®ķà®³": 4450,
      "Ġà®Ĵà®©à®±à®¯": 4451,
      "ĠII": 4452,
      "Ġà®¤à®²à®µà®²à®®": 4453,
      "ĠIndia": 4454,
      "à®ĩà®¨": 4455,
      "à®Ĩà®©": 4456,
      "à®ķà®Łà®®": 4457,
      "Ġà®ķà®¤à®°à®µ": 4458,
      "Ġà®¨à®Łà®ŀà®ļà®²à®ķà®³": 4459,
      "Ġà®¤à®ķà®³": 4460,
      "Ġà®ļà®¸": 4461,
      "Ġà®ķà®±à®ªà®Ł": 4462,
      "Ġà®Łà®°à®®": 4463,
      "à®ħà®´": 4464,
      "Ġ38": 4465,
      "Ġà®¤à®µà®ªà®ªà®Łà®®": 4466,
      "Ġ150": 4467,
      "Ġà®ĩà®³à®µà®°": 4468,
      "34": 4469,
      "à®µà®ļà®ļ": 4470,
      "Ġà®ªà®°à®ķà®ķà®²": 4471,
      "Ġà®¤à®°à®ķà®ķà®¯à®²": 4472,
      "Ġà®ĩà®£à®¯à®®": 4473,
      "ĠCol": 4474,
      "Ġà®ķà®°à®¤à®ªà®ªà®Łà®®": 4475,
      "à®ļà®ķà®³": 4476,
      "à®ªà®°à®ķà®ķ": 4477,
      "Ġà®īà®£à®°à®ļà®ļ": 4478,
      "Ġà®ļà®Ļà®ķà®ķà®²": 4479,
      "Ġà®¤à®Ļà®ķà®µ": 4480,
      "Ġà®ĩà®©à®©": 4481,
      "à®ªà®°à®©à®¯": 4482,
      "Ġà®ķà®³à®ķà®¯": 4483,
      "Ġà®ªà®³à®³à®¤à®¤": 4484,
      "Ġ1962": 4485,
      "Ġà®ĩà®±à®¤à®¯à®ķ": 4486,
      "Ġà®µà®´à®Ļà®ķà®ªà®ªà®Łà®ķà®±à®¤": 4487,
      "78": 4488,
      "Ġà®ħà®ķà®ķà®²": 4489,
      "Ġà®ªà®¤à®²à®®": 4490,
      "Ġà®µà®´à®ķà®ķà®¯": 4491,
      "ĠĠĠĠĠĠ": 4492,
      "Ġà®®à®ļà®°": 4493,
      "à®ªà®Łà®ļ": 4494,
      "Ġà®ªà®ķà®Ļà®ķà®³": 4495,
      "Ġà®ªà®±à®±à®³à®³à®¤": 4496,
      "Ġà®¤à®²à®Ļà®ķà®³": 4497,
      "à®ķà®³à®©à®²": 4498,
      "Ġà®¤à®²à®®à®¯à®²à®©": 4499,
      "Ġà®ķà®ķà®ķ": 4500,
      "Ġà®¤à®±à®±à®µ": 4501,
      "Ġà®ķà®°à®¤à®¤à®²": 4502,
      "à®¨à®²à®ķ": 4503,
      "Ġà®ªà®ķà®¤à®¯à®ķà®®": 4504,
      "Ġà®ıà®°à®³à®®à®©": 4505,
      "Ġà®µà®¨à®¯à®ķà®°": 4506,
      "Ġà®¤à®°à®µà®°": 4507,
      "Ġà®ķà®´à®µà®²": 4508,
      "Ġà®ħà®Łà®ķà®³": 4509,
      "ines": 4510,
      "à®µà®Łà®Łà®©": 4511,
      "Ġà®ĩà®®à®®à®´": 4512,
      "à®ªà®²à®®": 4513,
      "Ġà®¤à®´à®µ": 4514,
      "Ġà®Īà®Łà®Ł": 4515,
      "à®¤à®¯à®©": 4516,
      "Ġà®ķà®Łà®Łà®ķà®±à®¤": 4517,
      "Ġà®Ĭà®Łà®ķ": 4518,
      "ne": 4519,
      "Ġà®ļà®¨": 4520,
      "Ġà®¨à®®à®®": 4521,
      "Ġà®Ĩà®ªà®¤à®¤": 4522,
      "à®µà®Łà®Łà®¤à®¤à®©": 4523,
      "Ġà®®à®¤à®²à®Ł": 4524,
      "à®īà®Ł": 4525,
      "Ġà®Īà®´à®¤à®¤": 4526,
      "Ġà®®à®Łà®Łà®ķà®ķà®³": 4527,
      "Ġà®µà®µà®¤": 4528,
      "à®¨à®µ": 4529,
      "Ġà®µà®²à®ķà®ķ": 4530,
      "Ġà®¨à®©à®µà®ķ": 4531,
      "Ġ1973": 4532,
      "Ġà®ªà®¯à®©à®ªà®Łà®¤à®¤à®©à®°": 4533,
      "Ġà®¤à®°à®¨à®¤à®Łà®ķà®ķà®ªà®ªà®Łà®Łà®°": 4534,
      "Ġà®Łà®®à®©": 4535,
      "Ġà®¹à®®": 4536,
      "Ġà®µà®³à®Ļà®ķà®¯à®¤": 4537,
      "à®ªà®ķà®µ": 4538,
      "à®ªà®ªà®¯à®©": 4539,
      "Ġà®ªà®±à®¨à®¤à®µà®°": 4540,
      "à®ķà®°à®£": 4541,
      "Ġà®ªà®©à®®": 4542,
      "Ġà®ħà®£à®¯à®²": 4543,
      "Ġà®ķà®Łà®ļà®¯à®²": 4544,
      "Ġ1968": 4545,
      "1996": 4546,
      "Ġà®¤à®ŀà®ļà®µà®°": 4547,
      "film": 4548,
      "Ġà®ħà®©à®¤à®¤à®²à®ķ": 4549,
      "à®īà®°": 4550,
      "SA": 4551,
      "à®µà®°à®®à®©": 4552,
      "à®Ĩà®²": 4553,
      "Ġà®ĩà®®à®®à®±": 4554,
      "Ġà®İà®³à®¤à®²": 4555,
      "à®¤à®²à®©": 4556,
      "à®°à®¨à®¤à®®": 4557,
      "à®ĥà®ªà®©": 4558,
      "1991": 4559,
      "à®µà®°à®¯à®®": 4560,
      "Ġà®¨à®Łà®¨à®¤à®¤": 4561,
      "à®¯à®Łà®ķà®³": 4562,
      "Ġà®ªà®¯à®©à®ªà®Łà®ķà®³": 4563,
      "Ġ1948": 4564,
      "Ġà®¨à®Łà®ªà®ª": 4565,
      "Ġà®ħà®Łà®¨à®¤à®¤": 4566,
      "Ġà®ħà®°à®ļà®²": 4567,
      "Ġà®¤à®ªà®ª": 4568,
      "Ġà®ĩà®°à®¤à®¤à®²": 4569,
      "à®ķà®°à®ļ": 4570,
      "Ġà®ªà®±à®ªà®ªà®Łà®Ł": 4571,
      "Ġà®ļà®°à®£": 4572,
      "Ġà®¤à®µà®°à®¤à®¤": 4573,
      "Ġà®İà®²à®ķà®Łà®°à®©": 4574,
      "ium": 4575,
      "Ġà®Ĩà®Łà®ļà®¯à®²": 4576,
      "76": 4577,
      "NA": 4578,
      "ood": 4579,
      "Ġà®ķà®ŀ": 4580,
      "à®ĩà®©à®±": 4581,
      "Ġ180": 4582,
      "ĠWorld": 4583,
      "Ġ300": 4584,
      "Ġà®µà®°à®µà®°": 4585,
      "Ġà®ħà®¤à®ķà®ªà®Ł": 4586,
      "Ġà®ļà®®à®ķà®®": 4587,
      "1984": 4588,
      "Ġà®Łà®²à®²": 4589,
      "Ġà®µà®²à®¤à®¤à®³": 4590,
      "à®¤à®£à®Ł": 4591,
      "à®¤à®ķà®¤": 4592,
      "Ġà®ªà®Łà®Ļà®ķà®³à®²": 4593,
      "Ġà®ªà®£à®¯": 4594,
      "à®ķà®ķà®°à®°à®ķà®³": 4595,
      "Ġà®ļà®±à®±à®ļà®ļà®´à®²": 4596,
      "Ġà®īà®£à®°à®¨à®¤": 4597,
      "Ġà®ļà®°à®®à®©à®¯": 4598,
      "à®ħà®¨à®¤": 4599,
      "cgi": 4600,
      "à®¤à®ªà®¤": 4601,
      "Ġà®ļà®°à®³": 4602,
      "Ġà®¨à®±à®ļà®¯à®¤": 4603,
      "Ġà®ķà®±à®±à®²": 4604,
      "Ġà®Ĩà®¤à®¤à®°à®²à®¯": 4605,
      "Ġà®ļà®ķà®®": 4606,
      "à®®à®°à®²": 4607,
      "1977": 4608,
      "Ġà®¤à®©à®±à®¯à®¤": 4609,
      "41": 4610,
      "se": 4611,
      "à®ķà®ķà®°à®©": 4612,
      "Ġà®ļà®®à®ķà®¤à®¤à®©": 4613,
      "Ġà®ªà®°à®³à®©": 4614,
      "rad": 4615,
      "Ġà®¤à®Łà®Ļà®ķà®ªà®ªà®Łà®Łà®¤": 4616,
      "Ġà®µà®³à®Ļà®ķà®¯": 4617,
      "Ġà®µà®²à®ķ": 4618,
      "à®ªà®±à®ķ": 4619,
      "à®ķà®ķà®ķà®ª": 4620,
      "Ġà®µà®´à®ķà®ķà®®à®©": 4621,
      "à®¤à®©à®©à®ªà®°à®ķà®ķà®¤": 4622,
      "Ġà®¨à®¯à®Ł": 4623,
      "Ġà®¨à®²à®¯à®¤à®¤à®²": 4624,
      "1979": 4625,
      "Ġà®ªà®°à®µà®¯à®³à®°à®ķà®³": 4626,
      "Ġà®ĩà®¯à®Ļà®ķ": 4627,
      "à®®à®²à®ļà®¯": 4628,
      "Ġà®µà®©à®±à®°": 4629,
      "à®İà®©à®±": 4630,
      "à®ĩà®µà®°à®¤": 4631,
      "à®¤à®¤à®ªà®ªà®Łà®Ł": 4632,
      "à®¯à®²à®°": 4633,
      "Ġà®ķà®²à®Ļà®ķà®³": 4634,
      "à®İà®¤à®°": 4635,
      "à®³à®°à®ķ": 4636,
      "Ġà®īà®¯à®°à®©à®Ļà®ķà®³": 4637,
      "Ġà®©": 4638,
      "à®ªà®©à®¤": 4639,
      "Ġà®Ĩà®ķà®¯à®°à®©": 4640,
      "1997": 4641,
      "à®ĩà®°à®£à®Ł": 4642,
      "à®®à®©à®ķà®³": 4643,
      "Ġà®¯à®ķ": 4644,
      "Ġà®Ĩà®²à®ªà®®": 4645,
      "à®Īà®´à®¤à®¤": 4646,
      "à®¯à®²à®¯": 4647,
      "Ġà®Ĵà®Łà®Łà®®": 4648,
      "Ġà®ħà®³à®ķà®ķà®®": 4649,
      "Ġà®®à®Łà®Łà®®à®©à®±": 4650,
      "Ġà®Ĩà®±à®ķà®³": 4651,
      "Ġà®ªà®¯à®©à®ªà®Łà®Łà®²": 4652,
      "Ġà®®à®¤à®ķà®²": 4653,
      "à®©à®²à®Ł": 4654,
      "Ġà®ĩà®¤à®´à®²": 4655,
      "ope": 4656,
      "à®ªà®°à®®à®ªà®²": 4657,
      "Ġà®ļà®²à®ķà®±à®¤": 4658,
      "Ġà®ĩà®ļà®¤à®¤": 4659,
      "à®£à®¯à®®": 4660,
      "Ġà®ħà®¤à®ķà®°à®ķà®³": 4661,
      "Ġà®ļà®±à®ķà®¤à®ķà®³": 4662,
      "à®¤à®©à®¤": 4663,
      "Ġà®ķà®Łà®Łà®ª": 4664,
      "Ġà®¨à®°à®©": 4665,
      "Ġà®Ĩà®©à®¨à®¤": 4666,
      "Ġà®ķà®Łà®Łà®©": 4667,
      "Ġà®ªà®±à®±à®©": 4668,
      "à®ªà®ķà®Ł": 4669,
      "Ġà®®à®©à®©à®°à®ķà®³": 4670,
      "Ġà®Ĩà®ķà®ķà®Ļà®ķà®³": 4671,
      "Ġà®ļà®±à®¨à®°": 4672,
      "à®Ĩà®©à®²": 4673,
      "à®¤à®±à®ªà®¤": 4674,
      "à®ķà®¤à®¤à®¤": 4675,
      "Ġà®Łà®µ": 4676,
      "Ġà®ķà®¯à®´à®¤à®¤": 4677,
      "Ġà®ķà®²à®²à®°à®ķà®³": 4678,
      "Ġà®īà®¤à®µà®ķà®±à®¤": 4679,
      "Ġà®ªà®¤à®ļ": 4680,
      "58": 4681,
      "Ġe": 4682,
      "à®³à®¤à®¤à®²": 4683,
      "à®µà®Łà®ķà®ķ": 4684,
      "à®ķà®ķà®ªà®ªà®Łà®µà®²à®²": 4685,
      "Ġà®®à®ķà®ķà®¯à®®à®ķ": 4686,
      "Ġà®µà®®à®©à®®": 4687,
      "Ġà®ļà®®à®¯à®Ļà®ķà®³à®²": 4688,
      "St": 4689,
      "à®¯à®¤à®®": 4690,
      "yn": 4691,
      "Ġà®İà®Łà®ķà®ķà®ªà®ªà®Łà®Ł": 4692,
      "Ġà®¤à®Łà®Łà®¤à®¤à®²": 4693,
      "Ġà®ªà®ŀà®ļà®ª": 4694,
      "Ġà®ķà®£à®ªà®ªà®Łà®Ł": 4695,
      "Ġà®®à®´à®ķ": 4696,
      "Ġà®²à®£à®Łà®©": 4697,
      "à®ķà®ķà®µà®£à®Łà®®": 4698,
      "Ġà®ļà®¯à®²à®ķà®³": 4699,
      "Ġà®ªà®°à®ķà®³": 4700,
      "Ġà®ķà®±à®¸à®¤à®µ": 4701,
      "Ġà®Ĩà®Łà®®": 4702,
      "Ġà®ªà®£à®¯à®³à®°à®ķà®³": 4703,
      "Ġà®ļà®Łà®Łà®Ļà®ķà®³": 4704,
      "Ġà®ħà®³à®µà®±à®ķ": 4705,
      "Ġà®®à®®à®ª": 4706,
      "Ġà®ªà®©à®©à®²": 4707,
      "Ġà®Łà®©à®©": 4708,
      "Ġà®µà®²à®¤à®¤à®³à®®": 4709,
      "Ġà®µà®ķà®¤à®¤à®²": 4710,
      "Ġà®ķà®Łà®¤à®¤à®²": 4711,
      "Ġà®ķà®Łà®Łà®ķà®³": 4712,
      "Ġà®ĩà®°à®ķà®Ļà®ķà®³": 4713,
      "Ġà®¨à®Łà®ª": 4714,
      "Ġà®ļà®°à®£à®Ł": 4715,
      "iew": 4716,
      "oth": 4717,
      "Ġis": 4718,
      "Ġà®ĩà®ķà®ķà®Łà®Ł": 4719,
      "Ġà®ªà®°à®³à®¤à®°à®®": 4720,
      "Ġà®ļà®Ļà®ķà®¤à®¤à®©": 4721,
      "à®¤à®¯à®²": 4722,
      "à®Łà®ķà®ķ": 4723,
      "Ġà®¤à®°à®¯à®µà®²à®²": 4724,
      "Ġà®®à®²à®¯à®²": 4725,
      "Ġà®ħà®´à®±à®ļ": 4726,
      "à®®à®°à®¤à®¤": 4727,
      "Ġà®¤à®ķà®ķà®²": 4728,
      "Ġà®ħà®´à®ķà®ķà®ªà®ªà®Łà®ķà®©à®±à®©": 4729,
      "à®¯à®ķà®ª": 4730,
      "Ġà®¤à®°à®ªà®ªà®°": 4731,
      "Ġà®ªà®£à®Łà®°": 4732,
      "Ġà®ħà®©à®ªà®ª": 4733,
      "à®¨à®¯à®ķà®ķ": 4734,
      "Ġy": 4735,
      "à®ªà®°à®Łà®Ł": 4736,
      "à®¤à®®à®ķ": 4737,
      "Ġà®µà®³à®¯à®Łà®®": 4738,
      "Ġ1945": 4739,
      "à®ķà®ķà®ªà®ªà®Łà®Łà®°à®ķà®ķà®®": 4740,
      "Ġà®¨à®¤à®®à®©à®±à®®": 4741,
      "à®Łà®ª": 4742,
      "Ġà®ħà®Ļà®ķà®®": 4743,
      "à®©à®°à®²": 4744,
      "Ġà®¨à®²à®¨à®Ł": 4745,
      "à®¨à®²à®ªà®ªà®³à®³": 4746,
      "Ġà®µà®³à®¯à®Łà®©à®°": 4747,
      "Ġà®¤à®Łà®°à®ļà®ļà®¯à®ķ": 4748,
      "97": 4749,
      "Ġà®ļà®ļà®©": 4750,
      "à®ķà®ķà®ªà®ªà®Łà®Łà®©à®°": 4751,
      "Ġà®ħà®´à®ķ": 4752,
      "ict": 4753,
      "Ġà®Ĩà®£à®¯à®®": 4754,
      "ystem": 4755,
      "Ġà®¤à®©à®®à®®": 4756,
      "Ġà®¨à®±à®¯": 4757,
      "à®ļà®°à®©": 4758,
      "à®ªà®ªà®°à®Łà®ķà®³": 4759,
      "Ġà®ķà®µà®²à®ķà®³": 4760,
      "Ġà®ªà®°à®®à®³à®µ": 4761,
      "Ġà®¤à®ķà®ªà®ªà®ķà®³": 4762,
      "Ġà®¤à®®à®ª": 4763,
      "à®ķà®°à®ķ": 4764,
      "Ġà®®à®µà®Łà®Łà®Ļà®ķà®³": 4765,
      "stitut": 4766,
      "Ġà®īà®Łà®®": 4767,
      "Ġà®ķà®Łà®ªà®Łà®ķà®³": 4768,
      "Ġà®²à®²": 4769,
      "à®ļà®ķà®ķ": 4770,
      "Ġà®ĩà®£à®ªà®ªà®ķà®ķà®³": 4771,
      "ated": 4772,
      "à®ķà®£à®®": 4773,
      "55": 4774,
      "à®¨à®°à®²": 4775,
      "Ġà®ħà®ķà®ķà®²à®¤à®¤à®²": 4776,
      "Ġà®µà®´à®ķà®©à®±à®©à®°": 4777,
      "Ġà®®à®¤à®²à®ķ": 4778,
      "Ġà®ļà®µà®ľ": 4779,
      "1995": 4780,
      "gl": 4781,
      "oy": 4782,
      "Ġà®ħà®²à®ķà®³": 4783,
      "à®µà®°à®¤à®ķà®³": 4784,
      "à®Ĩà®µà®¤": 4785,
      "à®ªà®ķà®ļ": 4786,
      "Ġà®ħà®±à®®à®ķà®ªà®ªà®Ł": 4787,
      "à®ķà®±à®ķà®³": 4788,
      "Ġà®¨à®°à®ķà®ķà®Ł": 4789,
      "à®īà®²à®ķ": 4790,
      "Ġà®®à®°à®Ļà®ķà®³": 4791,
      "à®ķà®£à®®à®²": 4792,
      "à®¨à®Łà®ķà®°à®ķà®³": 4793,
      "à®ªà®£à®Łà®¯": 4794,
      "Ġà®ĩà®¯à®ļà®µà®©": 4795,
      "à´": 4796,
      "Ġà®ªà®¤à®ª": 4797,
      "Ġà®¨à®°à®Ļà®ķà®¯": 4798,
      "ĠTamil": 4799,
      "Ġ1956": 4800,
      "Ġà®®à®£à®Łà®²à®®": 4801,
      "Ġà®ªà®ķà®Łà®°à®¯": 4802,
      "à®£à®°à®µ": 4803,
      "Ġà®¨à®°à®¨à®¤": 4804,
      "Ġà®¤à®¯à®°à®ªà®ªà®³à®°": 4805,
      "1981": 4806,
      "Ġà®µà®©à®±à®¤": 4807,
      "1987": 4808,
      "Ġà®¨à®¯à®®à®ķà®ķà®ªà®ªà®Łà®Łà®°": 4809,
      "Ġà®ķà®Łà®ķ": 4810,
      "Ġà®¤à®Łà®°à®ªà®ķ": 4811,
      "Ġà®ļà®µà®ªà®°à®®à®©": 4812,
      "Ġà®ªà®°à®¤à®¨à®¤à®¤": 4813,
      "à®¤à®ªà®°": 4814,
      "Ġà®ļà®¤à®¯": 4815,
      "Ġ1964": 4816,
      "77": 4817,
      "Ġà®¤à®ķà®ķà®µ": 4818,
      "Ġà®ĩà®°à®ķà®ķà®©à®±à®¤": 4819,
      "Ġà®ªà®©à®µ": 4820,
      "ica": 4821,
      "Ġà®ķà®°à®£à®ķà®³": 4822,
      "à®¨à®©à®±": 4823,
      "à®ªà®ªà®Łà®²": 4824,
      "amb": 4825,
      "Ġà®ħà®±à®µà®ķà®ķà®ªà®ªà®Łà®Łà®¤": 4826,
      "1992": 4827,
      "Ġà®ľà®°à®®à®©à®¯": 4828,
      "à®µà®³à®¯à®£à®ªà®ªà®ķà®ķà®³": 4829,
      "Ġà®İà®ķà®ªà®¤": 4830,
      "à®µà®µ": 4831,
      "Ġà®ıà®±à®ªà®Łà®¤à®¤à®®": 4832,
      "Ġà®ªà®°à®®à®ªà®©à®®à®¯à®©": 4833,
      "à®ªà®ªà®ķà®³à®©": 4834,
      "Ġà®®à®Łà®¯à®µà®²à®²": 4835,
      "Ġà®ķà®ªà®ªà®²à®ķà®³": 4836,
      "Ġà®ļà®°à®ļà®°à®¯à®ķ": 4837,
      "Ġà®ªà®ķà®°à®¨à®¤": 4838,
      "Ġà®ªà®±à®±à®©à®°": 4839,
      "Ġ1963": 4840,
      "Ġ;": 4841,
      "Ġà®ļà®±à®¯à®²": 4842,
      "à®µà®Łà®¯": 4843,
      "Ġ1959": 4844,
      "à®¯à®²à®²à®¤": 4845,
      "Ġà®µà®ļà®®": 4846,
      "Ġà®µà®ķà®®à®ķ": 4847,
      "Ġà®ªà®Łà®¯à®©à®°": 4848,
      "Ġà®ĩà®£à®ķà®ķà®ªà®ªà®Łà®Ł": 4849,
      "Ġà®İà®´à®¨à®¤": 4850,
      "Ġà®Ĵà®©à®±à®£": 4851,
      "Ġà®ļà®²à®¯à®²": 4852,
      "Ġà®ĩà®²à®ķà®ķ": 4853,
      "à®²à®ª": 4854,
      "Ġà®®à®±à®±à®ªà®ªà®Łà®Łà®¤": 4855,
      "Ġà®¨à®Łà®©à®®": 4856,
      "à®ªà®ķà®£": 4857,
      "à®ķà®ķà®ķà®³à®²": 4858,
      "Ġà®°à®®à®ļà®®": 4859,
      "Ġà®ªà®°à®®à®ªà®©à®®": 4860,
      "line": 4861,
      "à®¨à®°à®µ": 4862,
      "Ġà®µà®Łà®®à®±": 4863,
      "Ġ75": 4864,
      "Ġà®ķà®°à®·à®£à®©": 4865,
      "ces": 4866,
      "à®¤à®¤à®²à®³à®³": 4867,
      "Ġà®ħà®°à®ļà®ļ": 4868,
      "1988": 4869,
      "Ġà®¤à®ļà®®": 4870,
      "Ġà®ļà®ªà®°": 4871,
      "Ġà®ĩà®°à®ķà®¤à®¤à®²": 4872,
      "Ġà®ªà®¯à®°à®©": 4873,
      "à®°à®ļà®°": 4874,
      "Ġà®ªà®°à®®à®£": 4875,
      "Ġà®¤à®¨à®¤à®¯à®©": 4876,
      "à®¤à®ļà®¯": 4877,
      "Ġà®°à®ľà®©": 4878,
      "Ġà®¤à®®à®´à®¨à®Łà®Ł": 4879,
      "Ġà®ķà®ªà®ªà®ķà®³": 4880,
      "Ġ1958": 4881,
      "65": 4882,
      "Ġà®µà®°à®¤à®©": 4883,
      "Ġà®Ĵà®°à®®à®±": 4884,
      "à®ªà®©à®®": 4885,
      "Ġà®ļà®´à®²à®²": 4886,
      "à®ķà®ķà®¸": 4887,
      "Ġà®¤à®®à®´à®±": 4888,
      "Ġà®ªà®ķà®¤à®ķà®³à®²à®®": 4889,
      "Ġà®Ĵà®©à®±à®ķà®ķ": 4890,
      "à®ļà®ļà®ª": 4891,
      "à®ķà®ķà®¯à®°": 4892,
      "Ġà®µà®²à®²à®®": 4893,
      "Ġà®ķà®¯à®®à®ªà®¤à®¤à®°": 4894,
      "Ġà®¨à®Łà®¤à®¤à®ªà®ªà®Łà®Ł": 4895,
      "1985": 4896,
      "à®±à®±à®¤": 4897,
      "à®µà®ķà®³à®®": 4898,
      "Ġà®®à®µ": 4899,
      "à®ªà®°à®°à®Łà®ļ": 4900,
      "Ġà®®à®©à®®à®´": 4901,
      "Ġà®Łà®®à®¸": 4902,
      "ĠEd": 4903,
      "Ġà®Ĩà®¤à®°à®µà®³": 4904,
      "à®®à®±à®ķ": 4905,
      "\"|": 4906,
      "Ġà®µà®´à®®à®±à®ķà®³": 4907,
      "à®®à®ªà®±": 4908,
      "Ġà®ħà®£à®¨à®¤": 4909,
      "Ġà®ħà®£à®ķà®ķà®ķ": 4910,
      "Ġà®¨à®Łà®¤à®¤à®³à®³": 4911,
      "à®ķà®ķà®Łà®Łà®³": 4912,
      "Ġà®®à®±à®ķà®¤à®¤à®¯": 4913,
      "Ġà®µà®¯à®ªà®°": 4914,
      "Ġ1961": 4915,
      "1982": 4916,
      "able": 4917,
      "à®¨à®ķà®ķ": 4918,
      "Ġà®ªà®±à®°": 4919,
      "Ġà®īà®¯à®°à®®à®©": 4920,
      "Ġà®ªà®¯à®©à®ªà®Łà®ķà®©à®±à®©": 4921,
      "ail": 4922,
      "Ġà®īà®®à®´": 4923,
      "Ġà®ķà®µà®Ł": 4924,
      "Ġà®ĩà®¸à®²à®®à®¯": 4925,
      "Ġà®¤à®©à®¨à®ªà®°": 4926,
      "Ġà®µà®µà®ļ": 4927,
      "Ġà®ħà®´à®ķà®¯": 4928,
      "Ġà®īà®±à®¤à®ªà®ªà®Łà®¤à®¤": 4929,
      "à®ħà®®à®µà®Łà®®": 4930,
      "Ġà®ĩà®°à®®à®ª": 4931,
      "à®ªà®ªà®Łà®Łà®¯à®²": 4932,
      "à®ļà®®à®¯à®®": 4933,
      "Ġà®īà®Łà®²à®©": 4934,
      "Ġà®µà®ķà®ķà®ªà®ªà®Ł": 4935,
      "Ġà®ªà®¤à®¯à®²": 4936,
      "Ġà®ļà®°à®¸": 4937,
      "à®Ļà®ķà®¤à®²": 4938,
      "Ġ1952": 4939,
      "Ġà®ªà®ªà®²": 4940,
      "Ġà®Ĵà®°à®Ļà®ķà®£à®¨à®¤": 4941,
      "form": 4942,
      "à®Łà®Łà®°à®ķà®³": 4943,
      "à®ĩà®¤à®²": 4944,
      "Ġà®®à®°à®ķ": 4945,
      "Ġà®¨à®Łà®¤à®¤à®³à®³à®°": 4946,
      "li": 4947,
      "Ġà®ķà®Łà®Łà®¤à®¤": 4948,
      "Ġà®®à®Łà®Ļà®ķ": 4949,
      "à®ķà®Łà®ķà®³": 4950,
      "Ġà®°à®¤à®¯à®©": 4951,
      "à®¨à®¯à®ķà®®": 4952,
      "à®Ļà®ķà®´": 4953,
      "Ġà®İà®¤à®°à®®à®±": 4954,
      "Ġà®ªà®¤à®¤à®ķà®®": 4955,
      "Ġà®¤à®°à®¤": 4956,
      "Ġà®µà®°à®ªà®ªà®®": 4957,
      "Ġà®®à®±à®±à®¯à®®": 4958,
      "à®ķà®©à®²": 4959,
      "à®¤à®°à®¤à®¤à®¨à®¤": 4960,
      "Ġà®ķà®£à®Łà®°à®¨à®¤à®°": 4961,
      "Ġà®ļà®¤à®¤à®°à®®": 4962,
      "Ġà®ħà®ķà®´": 4963,
      "à®ķà®²à®ķ": 4964,
      "âĢĭ": 4965,
      "Ġà®µà®Łà®®à®´": 4966,
      "ata": 4967,
      "Ġà®ļà®¤à®©à®ķà®³": 4968,
      "Ġà®ªà®²à®ªà®ªà®©": 4969,
      "100": 4970,
      "à®£à®ª": 4971,
      "Ġà®ķà®£à®ªà®ªà®Łà®ķà®©à®±à®¤": 4972,
      "Ġà®ķà®®à®ªà®¯": 4973,
      "Ġà®ļà®¨à®¤à®¯à®²": 4974,
      "à®¹à®©": 4975,
      "1978": 4976,
      "Ġà®µà®©à®®à®±": 4977,
      "Ġà®ķà®©à®©à®Ł": 4978,
      "Ġà®ªà®Ļà®ķà®ķà®³": 4979,
      "ĠRes": 4980,
      "Ġà®ķà®°à®®à®¤à®¤à®²": 4981,
      "Ġà®ĩà®°à®¨à®¤à®µà®°": 4982,
      "à®®à®©à®±à®¤": 4983,
      "ĠEx": 4984,
      "Ġà®ĩà®µà®±à®±à®³": 4985,
      "Ġ<": 4986,
      "à®¤à®²à®ķà®³": 4987,
      "à®ļà®ļà®Łà®Ł": 4988,
      "Ġà®®à®±à®®à®²": 4989,
      "Ġà®īà®²à®ķà®ķ": 4990,
      "Ġ1954": 4991,
      "Ġà®¤à®²à®¨à®ķà®°à®®": 4992,
      "à®¤à®¤à®²à®©": 4993,
      "Ġà®ĩà®¨à®¤à®©à®ļà®¯": 4994,
      "à®Łà®ļà®¯": 4995,
      "Ġà®²à®£à®Ł": 4996,
      "Ġ48": 4997,
      "Ġà®ªà®²à®ķà®²à®ķ": 4998,
      "Ġà®¨à®ķà®´à®ļà®ļà®¯à®²": 4999,
      "Ġà®®à®©à®°": 5000,
      "Ġà®¤à®ķà®°": 5001,
      "Ġà®ĩà®¤à®±à®ķà®©": 5002,
      "Ġà®Ĵà®²à®®à®ªà®ķ": 5003,
      "Ġà®µà®´à®ķà®ķà®Ł": 5004,
      "Ġà®ĩà®µà®µà®²": 5005,
      "à®®à®²à®¯": 5006,
      "Ġà®ħà®±à®µà®¤à®¤": 5007,
      "à®ħà®¤à®µà®¤": 5008,
      "Ġà®ļà®²à®µà®©": 5009,
      "Ġà®ĩà®Ļà®ķà®²à®¨à®¤à®©": 5010,
      "Ġà®īà®³à®µ": 5011,
      "Ġà®ļà®ķà®ķà®²à®ķà®³": 5012,
      "à®ķà®ķà®ķà®©": 5013,
      "Ġ1966": 5014,
      "Ġà®ħà®ªà®¤à®²": 5015,
      "Ġà®ĩà®¤à®±à®ķà®ķ": 5016,
      "à®µà®ķà®³à®ķ": 5017,
      "ĠPh": 5018,
      "Ġà®ħà®µà®°à®ķà®³à®Łà®¯": 5019,
      "à¯": 5020,
      "Ġà®ªà®°à®µà®¤": 5021,
      "Ġà®µà®°à®ªà®ª": 5022,
      "Ġà®ķà®±à®µà®¤": 5023,
      "ick": 5024,
      "ash": 5025,
      "500": 5026,
      "Ġà®ĩà®¯à®Ļà®ķà®¤": 5027,
      "Ġà®Ĳà®¯à®°": 5028,
      "Ġ37": 5029,
      "à®ĩà®²à®Ļà®ķà®¯à®²": 5030,
      "Ġà®Ĵà®´à®Ļà®ķà®®": 5031,
      "Ġà®¤à®±à®®à®ķà®®": 5032,
      "Ġà®ķà®ķà®²": 5033,
      "Ġà®ħà®±à®¯à®ªà®ªà®Łà®®": 5034,
      "66": 5035,
      "Ġà®¯à®²": 5036,
      "Ġà®ªà®¤à®¤à®°à®®": 5037,
      "Ġà®Ĩà®¤à®°à®Ļà®ķà®³": 5038,
      "ee": 5039,
      "à®µà®´à®ķà®ķà®ķ": 5040,
      "à®®à®²à®°": 5041,
      "Ġà®ħà®ªà®¯": 5042,
      "Ġà®ļà®®à®¤": 5043,
      "Ġà®Ĩà®¯à®µà®³à®°à®ķà®³": 5044,
      "Ġà®®à®ķà®£à®®": 5045,
      "à®®à®ļ": 5046,
      "à®ķà®®à®²": 5047,
      "Ġà®¨à®Łà®µà®²": 5048,
      "Ġà®ħà®¤à®ķà®ªà®ªà®Ł": 5049,
      "Ġà®µà®²à®Ļà®ķ": 5050,
      "ĠMar": 5051,
      "2013": 5052,
      "ual": 5053,
      "Ġed": 5054,
      "Ġà®ªà®¤à®¤à®©": 5055,
      "à®µà®¤à®®à®©": 5056,
      "Ġà®¤à®°à®ªà®ªà®Łà®¤": 5057,
      "Ġà®¤à®´à®²à®®": 5058,
      "Ġà®¤à®ļà®¯à®ķ": 5059,
      "Ġà®ªà®¯à®©à®±à®°": 5060,
      "Ġà®¤à®Łà®Ļà®ķà®©": 5061,
      "à®ķà®£à®©": 5062,
      "Ġà®ļà®µà®ļ": 5063,
      "Ġà®Īà®°à®Ł": 5064,
      "à®°à®¨à®¤à®²à®®": 5065,
      "Ġà®ħà®°à®¯": 5066,
      "Ġ33": 5067,
      "à®ªà®¤à®²": 5068,
      "à®±à®±à®ª": 5069,
      "Ġà®ľà®Ł": 5070,
      "à®ķà®ķà®Łà®¯à®¤": 5071,
      "',": 5072,
      "Ġà®ħà®¤à®¤à®¯": 5073,
      "Ġà®Ĩà®°à®µ": 5074,
      "Ġà®¯à®°à®ķ": 5075,
      "à®ĥà®ªà®°à®Ł": 5076,
      "à®²à®µ": 5077,
      "à®Ļà®ķà®±à®±": 5078,
      "à®ķà®Łà®ªà®°": 5079,
      "à®ķà®°à®·à®£à®©": 5080,
      "à®¸à®®": 5081,
      "à®ªà®ªà®©à®²": 5082,
      "Ġà®µà®Łà®Łà®©": 5083,
      "ĠCl": 5084,
      "Ġà®ªà®ªà®ļ": 5085,
      "05": 5086,
      "Ġ39": 5087,
      "Ġà®ªà®¯à®©à®ªà®Łà®¤à®¤à®µà®¤": 5088,
      "Ġà®¤à®ķà®¯à®²": 5089,
      "Ġà®¨à®ªà®³": 5090,
      "Ġà®¤à®°à®µà®²": 5091,
      "à®¯à®°à®ªà®ª": 5092,
      "Ġà®ªà®°à®Łà®ķà®³à®©": 5093,
      "Ġà®®à®ķà®ªà®ªà®": 5094,
      "Ġà®ªà®¯à®±à®ļà®¯": 5095,
      "Ġà®ħà®±à®ķà®ķà®Łà®Łà®³": 5096,
      "Ġà®ķà®ªà®ªà®ķà®": 5097,
      "à®ªà®ķà®ķà®µ": 5098,
      "Ġà®µà®µà®°à®Ļà®ķà®³": 5099,
      "CC": 5100,
      "Ġà®īà®ªà®ª": 5101,
      "Ġà®ĩà®²à®ķà®ķà®£à®®": 5102,
      "Ġà®¤à®Łà®ļ": 5103,
      "Ġà®®à®¤à®²à®µà®°": 5104,
      "Ġà®®à®Łà®ķà®±à®¤": 5105,
      "ree": 5106,
      "Ġà®ħà®²à®µà®²à®°": 5107,
      "Ġà®Ĩà®µà®°à®ķà®³": 5108,
      "à®ªà®µà®´": 5109,
      "Ġà®ħà®©à®ªà®ªà®ªà®ªà®Łà®Ł": 5110,
      "Ġà®ªà®¯à®©à®ªà®Łà®¤à®¤à®¯": 5111,
      "à®³à®ķà®ķà®®": 5112,
      "à®µà®Łà®¤à®²": 5113,
      "oll": 5114,
      "1983": 5115,
      "Ġà®®à®ķà®´à®ļà®ļ": 5116,
      "à®®à®°à®ļ": 5117,
      "Ġà®ķà®±à®ķà®ķà®³": 5118,
      "Ġà®ªà®¯à®°à®®": 5119,
      "Ġà®ªà®Łà®®à®©": 5120,
      "one": 5121,
      "Ġà®¸à®Łà®©": 5122,
      "Ġà®¤à®µà®±à®©": 5123,
      "à®²à®²à®®à®²": 5124,
      "Ġà®īà®¨à®¤": 5125,
      "à®ķà®ķà®°à®µ": 5126,
      "Ġà®¹à®©": 5127,
      "Ġà®ļà®Łà®Łà®¤à®¤à®©": 5128,
      "Ġà®Ĩà®ļà®°à®¯à®°à®ķà®³": 5129,
      "Ġà®ªà®©à®±à®µà®±à®±à®²": 5130,
      "Ġà®ªà®¤à®©à®®": 5131,
      "Ġà®ļà®¯à®¤à®©": 5132,
      "eral": 5133,
      "à®¯à®°à®¨à®¤à®¤": 5134,
      "Ġà®µà®Łà®ķà®³": 5135,
      "Ġà®ħà®Łà®¯à®®": 5136,
      "à®ªà®ªà®ķà®³à®®": 5137,
      "Ġà®ķà®³à®ķà®³": 5138,
      "Ġà®İà®©à®ªà®¤à®¯à®®": 5139,
      "à®ļà®ļà®°à®ªà®ªà®³à®³": 5140,
      "1971": 5141,
      "Ġà®ļà®¨à®¤à®¤à®¤": 5142,
      "Ġà®¤à®ķà®ķà®¤à®¤": 5143,
      "Ġà®ħà®µà®ķà®³": 5144,
      "Ġà®ĩà®°à®ķà®ķà®±à®°": 5145,
      "Ġà®ķà®Łà®ķà®ķà®©à®±à®©": 5146,
      "Ġà®ĩà®µà®°à®ķà®³à®©": 5147,
      "Ġà®¤à®°à®µà®£": 5148,
      "Ġà®ļà®²à®²à®©": 5149,
      "Ġà®İà®Łà®¤à®¤à®ļ": 5150,
      "Ġà®®à®ķà®®à®®à®¤": 5151,
      "Ġà®¤à®ķà®ķà®¯": 5152,
      "Ġà®ħà®®à®ªà®ªà®ķà®ķà®³": 5153,
      "Ġà®ķà®¤à®°à®¯": 5154,
      "Ġ400": 5155,
      "Ø§": 5156,
      "Ġà®ķà®²à®¯": 5157,
      "Ġà®µà®³à®°à®¤à®¤": 5158,
      "Ġà®ªà®Łà®¤à®¤à®¤": 5159,
      "Ġà®ķà®µà®²à®©": 5160,
      "à®Łà®®à®®": 5161,
      "Ġà®īà®²à®ķà®ķà®ķà®": 5162,
      "1986": 5163,
      "Ġà®¤à®µà®¤": 5164,
      "Ġà®µà®°à®®à®ª": 5165,
      "à®ķà®ķà®Łà®²": 5166,
      "Ġà®ªà®°à®©à®ļà®©": 5167,
      "Ġà®ĩà®¯à®±à®±à®¯": 5168,
      "Ġà®µà®°à®ªà®Ł": 5169,
      "Ġà®µà®Łà®ķà®ķà®²": 5170,
      "Ġà®²à®¯à®©": 5171,
      "ox": 5172,
      "à®¤à®¤à®ķà®ķà®®": 5173,
      "Ġà®ħà®ķà®¤à®¤": 5174,
      "Ġà®īà®Ļà®ķà®³": 5175,
      "Ġà®ħà®¤à®ķà®°à®ķà®ķà®®": 5176,
      "Ġà®¤à®Łà®°à®ļà®ļà®¯à®©": 5177,
      "Ġà®®à®¤à®µ": 5178,
      "Ġà®µà®³à®¯à®Łà®Łà®ķà®ķà®³": 5179,
      "Ġà®ĩà®¯à®²à®ª": 5180,
      "Ġà®®à®ķà®®à®¤": 5181,
      "Ġà®µà®³à®®à®£à®Łà®²": 5182,
      "Ġà®ªà®²à®¯à®²": 5183,
      "Ġà®ªà®Łà®¯à®©": 5184,
      "Ġà®ļà®°à®¤à®°à®¤à®¤": 5185,
      "Ġà®¨à®°à®®à®ª": 5186,
      "à®Ļà®ķà®ķà®©à®±à®¤": 5187,
      "Ġà®ļà®±à®ªà®ªà®ª": 5188,
      "Ġà®¨à®ķà®°à®Ļà®ķà®³à®²": 5189,
      "Ġà®ªà®²à®ķà®²à®ķà®ķà®´à®ķà®Ļà®ķà®³": 5190,
      "Ġà®¤à®³à®°": 5191,
      "à®ªà®ªà®¤à®²à®²": 5192,
      "à®ķà®ļà®²": 5193,
      "Ġ1941": 5194,
      "85": 5195,
      "à®³à®¤à®¤": 5196,
      "Ġà®®à®ķà®£à®¤à®¤à®²": 5197,
      "à®Ļà®ķà®³à®¤à®ļà®¤": 5198,
      "Ġà®ķà®²à®ŀ": 5199,
      "Ġà®ķà®²à®ªà®°à®©à®¯": 5200,
      "Ġà®µà®±à®ªà®Łà®¤à®¤": 5201,
      "Ġà®ķà®Łà®Łà®ªà®ªà®Łà®Łà®²": 5202,
      "à®ªà®¨à®¤à®©": 5203,
      "Ġà®ħà®®à®¨à®¤à®°à®ķà®ķà®®": 5204,
      "à®µà®ļà®²": 5205,
      "Ġà®¨à®®à®ª": 5206,
      "Ġà®İà®ļà®ļà®°": 5207,
      "à®ķà®ķà®Łà®©": 5208,
      "à®ķà®Łà®ķ": 5209,
      "1972": 5210,
      "Ġà®µà®Łà®µà®¤à®¤à®²": 5211,
      "angu": 5212,
      "à®ļà®°à®¨à®¤": 5213,
      "à®¯à®Łà®¤à®¤": 5214,
      "Ġà®īà®²à®ķà®¤": 5215,
      "ĠOn": 5216,
      "à®ļà®ķà®¤": 5217,
      "Ġà®µà®´à®Ļà®ķà®²": 5218,
      "1976": 5219,
      "Ġà®ħà®ļà®ļà®±": 5220,
      "Ġà®ķà®Łà®¯à®°à®ļà®©": 5221,
      "Ġà®ªà®²à®¯": 5222,
      "Ġà®ªà®¤à®µà®Ł": 5223,
      "Ġà®ħà®¤à®±": 5224,
      "Ġà®ªà®£à®ª": 5225,
      "Ġà®īà®Łà®¯à®¤": 5226,
      "1993": 5227,
      "Ġà®ĩà®Ļà®ķà®²à®¨à®¤à®²": 5228,
      "Ġà®¨à®Łà®ķà®³à®²à®®": 5229,
      "à®ĩà®¤à®¤à®°": 5230,
      "Ġà®ħà®Łà®ªà®ªà®Łà®¯à®²à®©": 5231,
      "à®ªà®ªà®Łà®Łà®³à®³": 5232,
      "Ġà®ķà®£à®Łà®²": 5233,
      "à®ªà®¤à®²à®®": 5234,
      "Ġà®ļà®²à®µà®®": 5235,
      "à®¨à®¤à®°à®ķà®ķà®®": 5236,
      "Ġà®¤à®ķà®ķà®¤à®²à®ķà®³": 5237,
      "à®®à®ķà®ķà®¯": 5238,
      "Ġà®µà®ķà®ªà®ªà®Łà®Ł": 5239,
      "à®¤à®°à®ªà®ªà®Ł": 5240,
      "Ġà®ªà®²à®ķ": 5241,
      "Ġà®ªà®²à®ľ": 5242,
      "Ġà®Ĵà®©à®±à®®": 5243,
      "à®ķà®¨à®¤à®©": 5244,
      "Ġà®ħà®°à®£à®ļà®²à®®": 5245,
      "Ġà®ĩà®°à®ļà®ļà®¯à®¤à®¤à®©": 5246,
      "Ġà®µà®·à®£": 5247,
      "Ġà®¤à®°à®®à®±": 5248,
      "Ġà®ªà®°à®³à®ªà®Łà®®": 5249,
      "à®Ĵà®µà®µà®°": 5250,
      "à®®à®ªà®ķà®¤": 5251,
      "Ġ1957": 5252,
      "86": 5253,
      "au": 5254,
      "à®ªà®Łà®Łà®¯à®²": 5255,
      "à®¤à®¤à®°à®®": 5256,
      "Ġà®ķà®Łà®©à®®": 5257,
      "Ġà®ĩà®¨à®¤à®¯à®©": 5258,
      "Ġà®İà®¤à®°à®ķà®²": 5259,
      "Ġà®ķà®°à®¤à®ķà®©à®±à®©à®°": 5260,
      "Ġà®İà®ļà®ªà®ªà®©à®¯": 5261,
      "ound": 5262,
      "à®ļà®¯à®ª": 5263,
      "Ġà®®à®Łà®°": 5264,
      "Ġà®Ĩà®ķà®¯à®µà®±à®±à®ķ": 5265,
      "Ġà®ĵà®µà®¯à®Ļà®ķà®³": 5266,
      "Ġà®¤à®ªà®ªà®ķà®ķà®": 5267,
      "Ġà®µà®°à®©": 5268,
      "Ġà®ªà®°à®¤à®ªà®²": 5269,
      "Ġà®®à®¤à®©à®®à®¤à®²à®²": 5270,
      "à®ªà®ªà®Łà®¤à®¤à®±à®ķ": 5271,
      "Ġ1944": 5272,
      "ral": 5273,
      "ton": 5274,
      "âĪĴ": 5275,
      "Ġà®®à®³à®³": 5276,
      "Ġà®Ĩà®£à®Łà®®": 5277,
      "Ġà®¨à®±à®ªà®¤": 5278,
      "à®ķà®ķà®Łà®¯à®²": 5279,
      "Ġà®ħà®Łà®ªà®ªà®Łà®¯à®ķ": 5280,
      "Ġà®ķà®ªà®Ł": 5281,
      "Ġà®®à®®à®ªà®Ł": 5282,
      "Al": 5283,
      "Ġà®ķà®°à®¤à®¤à®ķ": 5284,
      "Ġà®ªà®²à®Ł": 5285,
      "Ġà®ļà®²à®µà®ķà®ķ": 5286,
      "Ġà®ķà®³à®ª": 5287,
      "Ġà®ļà®°à®¨à®¤à®µà®°à®ķà®³": 5288,
      "....": 5289,
      "Ġà®ļà®®à®ªà®µ": 5290,
      "Ġà®ļà®Łà®°": 5291,
      "âĢĶ": 5292,
      "Ġà®ļà®°à®ªà®ķ": 5293,
      "Ġà®īà®°à®µà®ķà®ķà®¯à®¤": 5294,
      "1974": 5295,
      "1940": 5296,
      "Ġà®ļà®©à®±à®¤à®´": 5297,
      "Ġà®Ĳà®°à®ªà®ª": 5298,
      "Ġà®īà®³à®³à®Łà®ķà®ķà®¯à®¤": 5299,
      "Ġà®ªà®Ļà®ķà®³à®°": 5300,
      "à®ļà®µà®°": 5301,
      "Ġà®¤à®Łà®°à®µ": 5302,
      "Ġà®ĩà®¨à®¤à®ķà®ķà®³": 5303,
      "Ġà®Łà®¯": 5304,
      "Ġà®İà®£à®£à®ķà®ķà®¯à®²": 5305,
      "Ġà®¤à®Łà®Łà®¤à®¤à®©": 5306,
      "Ġà®¤à®²à®µà®°à®ķà®µà®®": 5307,
      "Ġà®ªà®°à®ķà®ļ": 5308,
      "Ġà®ªà®²à®ķà®²à®ķà®ķà®´à®ķà®¤à®¤à®©": 5309,
      "Ġà®°à®·à®¯": 5310,
      "Ġà®µà®ŀà®ļ": 5311,
      "Ġà®Ĩà®£à®Łà®ķà®³à®ķ": 5312,
      "Ġà®µà®ļà®ķà®ķà®®": 5313,
      "à®ķà®ķà®´à®®": 5314,
      "Ġà®ļà®©à®±à®ķà®³": 5315,
      "edia": 5316,
      "Ind": 5317,
      "Ġà®¤à®µà®ķà®ķ": 5318,
      "Ġà®¤à®²à®®à®¯à®ķà®®": 5319,
      "à®¨à®°à®ķ": 5320,
      "Ġà®¤à®°à®ķ": 5321,
      "Ġà®¨à®²à®ªà®ªà®ķà®¤": 5322,
      "Ġà®ĩà®¯à®²à®ªà®ķà®³": 5323,
      "Ġà®¤à®Łà®Łà®®à®Łà®Ł": 5324,
      "Ġà®ħà®±à®®à®ķà®®à®©à®°": 5325,
      "Ġstyle": 5326,
      "hi": 5327,
      "Ġà®ªà®Łà®ķà®ķà®®": 5328,
      "Ġà®Ĳà®¨à®¤à®®": 5329,
      "Ġà®ĩà®£à®¯à®¤à®³à®®": 5330,
      "Ġà®Łà®ķ": 5331,
      "Ġà®¨à®°à®®à®±": 5332,
      "Ġà®ªà®±à®ķà®²à®¤à®¤à®²": 5333,
      "à®İà®²à®²": 5334,
      "Ġà®ħà®´à®¨à®¤": 5335,
      "eng": 5336,
      "à®¤à®®à®´à®¨à®Łà®Łà®²": 5337,
      "Ġà®¤à®®à®ªà®¤": 5338,
      "à®Ļà®ķà®ªà®ªà®Ł": 5339,
      "Ġà®Ĵà®±à®±à®®": 5340,
      "à®µà®©à®ķ": 5341,
      "Ġà®ļà®°à®Ļà®ķà®³": 5342,
      "Ġà®¤à®®à®´à®´": 5343,
      "Ġà®®à®¤à®²à®¯à®°": 5344,
      "Ġà®Ĳà®¯": 5345,
      "Ġà®īà®²à®ķà®Ļà®ķà®³": 5346,
      "Ġà®¤à®Łà®°à®ªà®²": 5347,
      "Ġà®ĵà®°à®³à®µ": 5348,
      "2016": 5349,
      "Ġà®ļà®®à®©à®ªà®Ł": 5350,
      "Ġà®īà®³à®¨à®Łà®Łà®ª": 5351,
      "à®²à®¯à®®": 5352,
      "Ġà®īà®©à®©": 5353,
      "Ġà®ĩà®¤à®µà®®": 5354,
      "Ġà®ļà®®à®¯à®²": 5355,
      "à®µà®Łà®µà®®": 5356,
      "ĠMus": 5357,
      "ount": 5358,
      "Ġà®µà®ªà®¤à®¤": 5359,
      "ĠSci": 5360,
      "Ġà®ªà®°à®ļà®ķ": 5361,
      "Ġà®µà®°à®Łà®Ļà®ķà®³": 5362,
      "Ġà®ªà®ķà®ķà®µà®°": 5363,
      "Ġà®Łà®Łà®Ł": 5364,
      "Ġà®ªà®±à®ªà®ªà®±à®±": 5365,
      "Ġà®ĥà®ªà®¸": 5366,
      "earch": 5367,
      "92": 5368,
      "Ġà®ļà®¯à®±à®ķ": 5369,
      "Ġà®ķà®µà®²à®²": 5370,
      "Ġà®ķà®±à®¯à®Łà®ķà®³": 5371,
      "Ġà®īà®®": 5372,
      "Ġà®ĵà®µà®¯à®®": 5373,
      "Ġà®īà®±à®¤à®¯": 5374,
      "Ġà®®à®°à®µ": 5375,
      "à®µà®¤à®®à®ķ": 5376,
      "Ġà®µà®³à®µà®°": 5377,
      "à®ķà®ķà®Łà®ļà®¤": 5378,
      "Ġà®®à®´à®¯à®¯à®²": 5379,
      "Ġà®ķà®¤à®¨à®¯": 5380,
      "Ġà®ªà®°à®ļà®°à®®": 5381,
      "Ġ1951": 5382,
      "Ġà®®à®®à®®": 5383,
      "Ġà®¤à®°à®¯à®±": 5384,
      "Ġà®ķà®£à®Łà®±à®¨à®¤": 5385,
      "Ġà®¤à®°à®®à®ªà®¯": 5386,
      "Ġà®¤à®¯à®µà®®": 5387,
      "Ġà®ªà®±à®ªà®ķà®¤à®¯à®²": 5388,
      "1947": 5389,
      "Ġ1939": 5390,
      "Ar": 5391,
      "Ġà®ªà®°à®ļà®°": 5392,
      "Ġà®ķà®¤à®°à®ķà®³": 5393,
      "Ġà®īà®Łà®©à®Łà®¯à®ķ": 5394,
      "ement": 5395,
      "Ġà®¤à®°à®ļà®ļà®ª": 5396,
      "Ġà®®à®¯à®±à®ļà®¯à®²": 5397,
      "Ġà®Łà®²à®°à®ķà®³": 5398,
      "Ġà®®à®ķà®ķà®³à®¤à®ķà®¯à®²": 5399,
      "Ġà®ªà®°à®¤à®¤à®®": 5400,
      "Ġà®ıà®¤à®®": 5401,
      "Ġà®¨à®£à®£à®¯à®°": 5402,
      "Ġà®īà®¤à®µà®¯à®Łà®©": 5403,
      "Ġà®īà®µà®®": 5404,
      "à®ķà®¤à®ķà®³": 5405,
      "ery": 5406,
      "reat": 5407,
      "Ġà®ļà®ķà®¤à®°à®°": 5408,
      "Ġà®ļà®¯à®¯à®²à®®": 5409,
      "Ġà®¨à®°à®£à®¯": 5410,
      "Ġà®İà®©à®ªà®¤à®±à®ķ": 5411,
      "Ġ1946": 5412,
      "à®ķà®ķà®¤à®¤à®ķà®ķ": 5413,
      "ĠOff": 5414,
      "ock": 5415,
      "à®µà®¯à®±": 5416,
      "1969": 5417,
      "à®ķà®ķà®ªà®ª": 5418,
      "Ġà®ĩà®£à®¯à®¤à®¤à®³à®®": 5419,
      "06": 5420,
      "Ġà®¤à®Łà®°à®ķà®³": 5421,
      "Ġ1920": 5422,
      "Ġà®ħà®¤à®ķà®³": 5423,
      "Ġà®ªà®Łà®Łà®¯": 5424,
      "Ġà®ªà®³à®ķ": 5425,
      "ĠPl": 5426,
      "Ġà®¤à®³à®Ļà®ķà®³": 5427,
      "1975": 5428,
      "à®°à®ª": 5429,
      "à®ªà®Łà®¯à®©": 5430,
      "Ġà®ķà®²à®®à®©à®°": 5431,
      "à®ŀà®ļà®¯à®®": 5432,
      "à®ĩà®¤à®©à®¯à®®": 5433,
      "AT": 5434,
      "Ġà®ķà®´à®ķà®¤à®¤à®©": 5435,
      "Ġà®ªà®¯à®©à®ªà®Łà®¤à®¤à®²à®®": 5436,
      "à®Ļà®ķà®ªà®ªà®Łà®Ł": 5437,
      "88": 5438,
      "ym": 5439,
      "Ġà®¤à®®à®ķ": 5440,
      "Ġà®Łà®ľ": 5441,
      "Ġà®®à®Łà®ļà®ļ": 5442,
      "à®ķà®ķà®ªà®ªà®Łà®µà®¤": 5443,
      "Ġà®¨à®Łà®®à®±à®¯à®²": 5444,
      "à®°à®¯à®°": 5445,
      "Ġà®¤à®¯à®°à®ķà®ķà®ªà®ªà®Łà®Ł": 5446,
      "Ġà®®à®³à®ķà®°à®¤à®¤": 5447,
      "Ġà®ªà®£à®¯à®±à®±à®¯": 5448,
      "col": 5449,
      "Ġà®¨à®Łà®¤à®¤à®¤": 5450,
      "Ġà®ļà®¯à®µà®¤à®±à®ķ": 5451,
      "Ġà®µà®²à®°": 5452,
      "à®¤à®±à®ķà®®": 5453,
      "ĠInternational": 5454,
      "1950": 5455,
      "Ġà®ķà®£à®ķà®ķ": 5456,
      "à®¨à®Łà®ķà®³": 5457,
      "ĠCon": 5458,
      "Ġà®ıà®µà®ķà®£": 5459,
      "Ġà®ĩà®ªà®ªà®ķà®¤à®¯à®²": 5460,
      "à®µà®²à®©": 5461,
      "Ġà®ļà®©à®µà®²": 5462,
      "Ġà®ĩà®µà®µà®±à®©": 5463,
      "à®±à®¨à®¤": 5464,
      "Ġà®®à®ķà®ķà®Ł": 5465,
      "Ġà®®à®ķà®¸": 5466,
      "Ġà®ħà®®à®ķà®±à®¤": 5467,
      "Ġà®ħà®µà®±à®±à®³": 5468,
      "Ġà®ķà®°à®¤à®¤à®ķà®³": 5469,
      "Ġà®Ĳà®¨à®¤à®µà®¤": 5470,
      "Ġwebsite": 5471,
      "Ġà®ħà®ªà®ªà®¤à®¯": 5472,
      "Ġà®ħà®±à®®à®ķà®ªà®ªà®Łà®¤à®¤à®ªà®ªà®Łà®Łà®¤": 5473,
      "56": 5474,
      "Ġà®¨à®Łà®µà®£": 5475,
      "Ġà®Ĩà®£à®Łà®¤à®±à®®": 5476,
      "Ġà®°à®ª": 5477,
      "à®ªà®µà®¯à®¯à®²": 5478,
      "à®¹à®ļà®©": 5479,
      "1967": 5480,
      "ĠJohn": 5481,
      "Ġà®ªà®ķà®ķà®¤à®¤à®²": 5482,
      "Ġà®ĩà®£à®Ł": 5483,
      "Ġà®ªà®¤à®ķ": 5484,
      "Ġà®ķà®³à®µà®¤": 5485,
      "à®ĩà®¨à®¤à®¯à®ª": 5486,
      "ung": 5487,
      "Ġà®¯à®©à®¯à®©": 5488,
      "Ġà®İà®³à®¤à®ķ": 5489,
      "AN": 5490,
      "à®©à®©à®©": 5491,
      "Ġà®®à®²à®®à®®": 5492,
      "Ġà®īà®Łà®ķà®³": 5493,
      "à®¤à®ķà®µà®®": 5494,
      "à®¯à®°à®¸": 5495,
      "à®ķà®ķà®³à®¯à®®": 5496,
      "Ġà®¤à®±à®ķà®³": 5497,
      "1973": 5498,
      "Ġà®Łà®µà®©": 5499,
      "enn": 5500,
      "Ġà®ªà®ļà®©": 5501,
      "Ġà®ķà®±à®ªà®ªà®Łà®Łà®°": 5502,
      "à®ªà®°à®£à®®": 5503,
      "Ġà®ļà®±à®±à®ª": 5504,
      "ĠUS": 5505,
      "à®ªà®¤à®°": 5506,
      "Ġà®ıà®¤à®©à®®": 5507,
      "Ġà®ķà®Łà®Łà®¯à®®": 5508,
      "à®ªà®ļà®ļ": 5509,
      "Ġà®İà®©à®ªà®µà®°à®©": 5510,
      "Ġà®ªà®°à®¨à®¤à®ķà®³": 5511,
      "Ġà®ļà®¤à®¤à®®": 5512,
      "Ġà®ªà®°à®¯à®®": 5513,
      "Ġà®ªà®Łà®²à®®": 5514,
      "Ġà®ķà®´à®ķà®ķà®¨à®¤": 5515,
      "Ġà®®à®ķà®ķà®³à®®": 5516,
      "à®®à®¤à®¤à®¯": 5517,
      "à®¤à®¤à®ķà®³": 5518,
      "à®ļà®¤à®¤à®²": 5519,
      "Ġà®¤à®¨à®¤à®°": 5520,
      "Ġà®ļà®¯à®¯à®ªà®ªà®Łà®ķà®©à®±à®©": 5521,
      "Ġà®µà®£à®Łà®®à®©": 5522,
      "Ġà®ļà®¯à®±à®ķà®ķà®ķà®³": 5523,
      "Ġà®®à®¯à®®à®ķ": 5524,
      "Ġà®¤à®£à®®": 5525,
      "Ġà®ļà®±à®±à®ªà®ªà®¯": 5526,
      "Ġ1949": 5527,
      "Ġà®µà®±à®±à®ķà®°à®®à®ķ": 5528,
      "name": 5529,
      "ys": 5530,
      "à®°à®¯à®²": 5531,
      "Ġà®µà®ķà®ķà®ªà®ªà®Łà®Ł": 5532,
      "Ġà®Ĩà®£à®Łà®ķà®ķà®©": 5533,
      "à®Ĩà®¸à®¤à®°": 5534,
      "Ġà®ĩà®¯à®ķà®ķà®¤": 5535,
      "Ġà®İà®´à®¤à®¤à®²": 5536,
      "Ġch": 5537,
      "Ġà®ĩà®µà®ķà®³": 5538,
      "Ġà®µà®ķà®Ł": 5539,
      "à®µà®²à®°": 5540,
      "à®ŀà®ļà®®": 5541,
      "Ġà®ļà®´à®°": 5542,
      "ĠOr": 5543,
      "Ġà®µà®´à®ªà®ªà®£": 5544,
      "Ġà®¹à®©à®±": 5545,
      "Ġà®Ĭà®°à®ķà®³": 5546,
      "Ġà®Ĩà®£à®ķà®³à®ķà®ķ": 5547,
      "Ġà®¨à®£à®¯": 5548,
      "à®¯à®ķà®µ": 5549,
      "à®¯à®°à®¨à®¤à®°": 5550,
      "à®©à®°à®©": 5551,
      "Ġ2019": 5552,
      "Ġà®ķà®ķà®¤": 5553,
      "Ġà®·à®Ł": 5554,
      "89": 5555,
      "à®ļà®Ļà®ķà®°": 5556,
      "Ġà®µà®©à®©": 5557,
      "à®¨à®µà®©": 5558,
      "erm": 5559,
      "Ġà®īà®°à®µà®®": 5560,
      "à®²à®ķà®ķ": 5561,
      "Ġà®®à®ķà®Ł": 5562,
      "à®±à®±à®ķ": 5563,
      "Ġà®ĩà®°à®ªà®ªà®°": 5564,
      "Ġà®¨à®ķà®°à®¤à®¤à®©": 5565,
      "ates": 5566,
      "ican": 5567,
      "Ġà®īà®°à®³": 5568,
      "red": 5569,
      "Ġà®ħà®©à®±à®¯": 5570,
      "pe": 5571,
      "à®ªà®ªà®Ļà®ķà®³": 5572,
      "Ġà®ķà®£à®ªà®ªà®Łà®Łà®¤": 5573,
      "Ġà®ªà®¤à®µà®ķà®ķ": 5574,
      "Ġà®īà®³à®³à®®": 5575,
      "Ġà®ªà®Łà®Łà®¯à®©": 5576,
      "Ġà®¨à®ķà®°à®¤à®¤": 5577,
      "à®³à®°à®ķà®³à®©": 5578,
      "Ġà®ķà®°à®¤à®ªà®ªà®Ł": 5579,
      "Ġà®®à®£à®Łà®ªà®®": 5580,
      "Ġà®ĩà®°à®µà®°": 5581,
      "Ġà®¤à®°à®¯à®¤": 5582,
      "Ġà®¤à®°à®ªà®ªà®Łà®¤à®¤à®©": 5583,
      "Ġà®®à®ķà®ķà®³à®Łà®¯": 5584,
      "Ġà®¤à®ļà®¯à®©": 5585,
      "Ġà®ķà®Łà®¤à®²à®©": 5586,
      "rans": 5587,
      "Ġà®ļà®ķà®ķ": 5588,
      "Ġà®ªà®¤à®ªà®ªà®ķà®ķà®": 5589,
      "Ġà®¨à®¯à®ļà®²à®¨à®¤": 5590,
      "Ġà®²à®®": 5591,
      "Ġà®ħà®£à®¯": 5592,
      "à®Ĵà®³": 5593,
      "Ġà®¤à®ļà®¯à®²": 5594,
      "à®ļà®¤à®¤à®°à®®": 5595,
      "1965": 5596,
      "Ġas": 5597,
      "Ġà®ķà®°à®Łà®©": 5598,
      "Ġà®ħà®¤à®µ": 5599,
      "Ġà®ħà®²à®µà®°à®ļ": 5600,
      "Ġà®ĩà®´à®ªà®ª": 5601,
      "à®ªà®ªà®Łà®Łà®²": 5602,
      "à®ķà®ķà®µà®°": 5603,
      "ĠMan": 5604,
      "Ġà®ªà®¤à®¤à®£à®Ł": 5605,
      "Ġà®¤à®Łà®Łà®¤à®¤": 5606,
      "à®¨à®£": 5607,
      "Ġà®ĩà®³à®µà®°à®ļ": 5608,
      "Ġà®ªà®ķà®ªà®Ł": 5609,
      "Ġà®µà®²à®¯à®±à®¤à®¤": 5610,
      "Ġà®ķà®£à®·": 5611,
      "à®³à®³à®¤à®ķ": 5612,
      "Ġ1953": 5613,
      "Ġà®ķà®¨à®¤à®°à®®": 5614,
      "Ġà®ħà®¯à®°à®²à®¨à®¤": 5615,
      "ĠÂł": 5616,
      "Ġà®ļà®ªà®¯": 5617,
      "à®Łà®°à®²": 5618,
      "Ġà®Ĵà®©à®±à®¯à®¤à®¤à®©": 5619,
      "Ġà®ħà®®à®°à®ķà®ķà®ķ": 5620,
      "Ġà®®à®³à®ķ": 5621,
      "02": 5622,
      "Ġà®ªà®°à®£à®Ł": 5623,
      "Ġà®ªà®²à®ª": 5624,
      "Ġà®ıà®ŀà®ļà®²": 5625,
      "Ġà®ħà®¤à®ªà®²": 5626,
      "à®ªà®Łà®Łà®°": 5627,
      "Ġà®¨à®°à®Łà®¯": 5628,
      "Ġà®Īà®°à®©": 5629,
      "Ġà®ªà®Ļà®ķà®©": 5630,
      "Ġà®Ĵà®°à®µà®°à®ķ": 5631,
      "Ġà®®à®ļà®®à®©": 5632,
      "Ġà®¤à®Łà®®": 5633,
      "Ġà®µà®´à®ķà®ķà®¯à®²": 5634,
      "Ġà®ħà®°à®ļà®Ļà®ķ": 5635,
      "Ġà®Ĩà®¯à®µà®ķ": 5636,
      "2014": 5637,
      "Ġà®ħà®©à®¤à®¤à®¯à®®": 5638,
      "à®ķà®ķà®ªà®ªà®Łà®Łà®°à®¨à®¤à®¤": 5639,
      "Ġà®ĩà®ļà®¯": 5640,
      "Ġà®µà®³à®¯à®®": 5641,
      "Ġà®µà®Łà®ķ": 5642,
      "Ġà®ļà®®à®¨à®²": 5643,
      "ages": 5644,
      "07": 5645,
      "Ġà®®à®²à®¤": 5646,
      "Ġà®ħà®°à®ķà®®": 5647,
      "Ġà®ħà®²à®ķà®ķà®³": 5648,
      "Ġà®ħà®°à®Ļà®ķà®Łà®ļà®¯à®ķà®®": 5649,
      "Ġà®ķà®Łà®ªà®ªà®Ł": 5650,
      "Ġà®ķà®¯à®®à®Ł": 5651,
      "Ġà®ĩà®µà®µà®´": 5652,
      "1944": 5653,
      "1945": 5654,
      "Ġà®ıà®±à®ªà®Łà®¤à®¤à®¯à®¤": 5655,
      "à®Łà®¯à®²": 5656,
      "Ġà®°à®£à®µ": 5657,
      "à®ķà®ķà®²à®²": 5658,
      "ere": 5659,
      "Ġà®ħà®³à®¤à®¤à®°": 5660,
      "Ġà®ªà®Ļà®ķà®ªà®": 5661,
      "Ġà®¤à®®à®¸": 5662,
      "ĠYork": 5663,
      "à®µà®¤à®¯à®¯à®²": 5664,
      "à®ĩà®ļà®²à®®": 5665,
      "Ġà®İà®´à®¤à®¤à®±": 5666,
      "Ġà®ªà®µà®°": 5667,
      "ime": 5668,
      "Ġà®ªà®Ļà®ķà®³à®ªà®ª": 5669,
      "Ġà®¤à®°à®ķà®ķà®±à®³": 5670,
      "Ġà®ªà®ķà®ķà®°": 5671,
      "Ġà®ħà®£à®®à®¯à®²": 5672,
      "co": 5673,
      "à®¨à®°à®ķà®³": 5674,
      "Ġà®ļà®¯à®ķà®©à®±à®©": 5675,
      "Ġà®ļà®®à®¯à®¤à®¤": 5676,
      "Ġà®®à®£à®ķà®ķ": 5677,
      "Ġà®ªà®°à®µà®¤à®¤à®²": 5678,
      "Ġà®ļà®©à®±à®¤": 5679,
      "Ġà®¨à®®à®ªà®ªà®ªà®Łà®ķà®±à®¤": 5680,
      "à®¨à®¤à®¤à®©": 5681,
      "Ġà®ħà®¯": 5682,
      "Ġà®ļà®¤à®±": 5683,
      "à®ķà®°à®®à®©": 5684,
      "Ġà®®à®±à®±à®µà®°à®ķà®³": 5685,
      "Ġà®®à®¤à®¤à®®à®®": 5686,
      "1962": 5687,
      "09": 5688,
      "Ġà®¤à®Łà®Ļà®ķà®®": 5689,
      "à®Ļà®ķà®µà®°": 5690,
      "ĠPublish": 5691,
      "à¦": 5692,
      "Ġà®ļà®ªà®¯à®©": 5693,
      "Ġà®īà®ªà®ķà®°": 5694,
      "Ġà®ħà®´à®ªà®ª": 5695,
      "Ġà®ªà®¯à®©à®ªà®Łà®¤à®¤à®ķà®©à®±à®©": 5696,
      "à®ĩà®¨à®¤à®¯à®µà®©": 5697,
      "Ġà®ĩà®³à®¯": 5698,
      "à®µà®¨à®¤à®°": 5699,
      "à®¨à®ļà®ļ": 5700,
      "Ġà®ķà®Łà®ķà®ķà®ªà®ªà®Łà®Ł": 5701,
      "Ġà®İà®´à®ļà®ļ": 5702,
      "Ġà®¨à®Łà®³à®®à®©à®±à®®": 5703,
      "Ġà®¤à®µà®®": 5704,
      "Ġà®ķà®±à®µà®°": 5705,
      "à®®à®´à®ķà®ķ": 5706,
      "Ġà®®à®±à®¯à®®": 5707,
      "à®µà®±à®±à®©": 5708,
      "ĠĠĠĠĠ": 5709,
      "Ġà®¨à®±à®µà®©à®¤à®¤": 5710,
      "Ġà®İà®Łà®µà®°à®Ł": 5711,
      "Ġà®ļà®¯à®²à®ªà®Łà®ķà®±à®¤": 5712,
      "Ġà®ħà®°à®ķà®²à®³à®³": 5713,
      "round": 5714,
      "Ġà®İà®ļà®ªà®ªà®©": 5715,
      "Ġà®ĩà®°à®¨à®¤à®¤à®²": 5716,
      "Ġà®ķà®´à®ķà®ķà®ª": 5717,
      "Ġà®ļà®±à®µà®³": 5718,
      "Ġà®ļà®Łà®Ļà®ķà®ķà®³": 5719,
      "Ġà®¤à®Łà®Łà®®à®Ł": 5720,
      "Ġà®ļà®ķà®²": 5721,
      "Ġà®ªà®°à®¤à®¤à®²": 5722,
      "Ġà®¨à®³à®¤à®´": 5723,
      "Ġà®¨à®®à®¤": 5724,
      "72": 5725,
      "à®¨à®±à®±": 5726,
      "à®ķà®©à®ķ": 5727,
      "ited": 5728,
      "Ġà®®à®µà®Łà®Łà®Ļà®ķà®³à®²": 5729,
      "Ġà®ĩà®°à®£à®µà®®": 5730,
      "back": 5731,
      "Ġà®µà®¤à®¤à®ķ": 5732,
      "Ġà®ķà®°à®·": 5733,
      "ĠĠĠĠĠĠĠ": 5734,
      "Ġà®ªà®´à®Ļà®ķà®²": 5735,
      "IS": 5736,
      "Ġà®ªà®Łà®°": 5737,
      "à®ķà®ķà®ªà®ªà®Łà®¤": 5738,
      "à®ķà®ªà®ªà®©": 5739,
      "ĠGe": 5740,
      "ution": 5741,
      "à®ķà®ķà®ķà®ķà®Łà®®": 5742,
      "Ġà®®à®µà®°": 5743,
      "Ġà®ķà®±à®ķà®©à®±à®©à®°": 5744,
      "à®®à®ªà®´": 5745,
      "Ġà®ĩà®²à®µ": 5746,
      "Ġà®ļà®±à®µà®°": 5747,
      "Ġà®ªà®Ļà®ķà®²": 5748,
      "Ġà®¨à®Łà®Łà®ªà®ªà®±": 5749,
      "old": 5750,
      "ĠNational": 5751,
      "Ġà®ķà®©à®©à®¯à®ķà®®à®°": 5752,
      "Ġà®µà®²à®¯à®®à®ªà®ª": 5753,
      "ax": 5754,
      "ject": 5755,
      "Ġà®ªà®°à®¯à®¤": 5756,
      "Ġà®¤à®°à®µà®°à®ļ": 5757,
      "Ġà®ķà®²à®ªà®ªà®ķà®¤à®¯à®²": 5758,
      "Ġà®ªà®²à®¤à®¤": 5759,
      "Ġà®ªà®£à®ķà®³à®²": 5760,
      "Ġà®ĩà®Łà®¤à®¤à®ª": 5761,
      "Ġà®ļà®®à®ķà®ŀ": 5762,
      "à®ĩà®¨à®¤à®ķ": 5763,
      "à®ļà®°à®¯à®°à®ķà®³": 5764,
      "bin": 5765,
      "Ġà®ħà®®à®ķà®©à®±à®©": 5766,
      "Ġà®®à®°à®ªà®©": 5767,
      "à®ªà®ªà®°à®Ł": 5768,
      "ale": 5769,
      "Ġà®ªà®³à®¯": 5770,
      "Ġà®ªà®³à®³à®¯à®°": 5771,
      "à®ħà®±à®µà®¯à®²": 5772,
      "à®ķà®°à®µà®¨à®²": 5773,
      "iam": 5774,
      "Ġà®İà®ĥ": 5775,
      "Ġà®ķà®±à®²à®®": 5776,
      "Ġà®¨à®±à®µà®©à®Ļà®ķà®³à®©": 5777,
      "Ġà®¤à®ļà®¯à®ª": 5778,
      "Ġà®ĩà®¯à®²à®ªà®©": 5779,
      "Ġà®ļà®£à®®": 5780,
      "à®Łà®Łà®ª": 5781,
      "à®°à®¨à®¤à®²": 5782,
      "Ġ51": 5783,
      "Ġà®īà®£à®µà®ķà®³": 5784,
      "Ġà®¤à®´à®²à®¤à®±": 5785,
      "Ġ...": 5786,
      "Ġà®ħà®¸": 5787,
      "Ġà®µà®°à®®à®ªà®µ": 5788,
      "Ġà®ķà®Łà®Łà®¤": 5789,
      "Ġà®®à®°à®¯à®¤": 5790,
      "Ġà®®à®°à®ªà®µà®´": 5791,
      "à®ķà®ķà®Łà®ķà®³": 5792,
      "Ġà®ħà®£à®ķà®ķà®³": 5793,
      "ĠAmer": 5794,
      "Ġà®ĩà®©à®±à®¯à®®": 5795,
      "Ġà®ĩà®²à®Łà®ļà®®": 5796,
      "Ġà®ĩà®Łà®°": 5797,
      "Ġà®ļà®®à®£": 5798,
      "Ġà®¤à®Łà®ªà®ªà®Łà®Łà®®": 5799,
      "Ġà®¤à®°à®µà®¤à®¤à®³": 5800,
      "ety": 5801,
      "ĊĠĠ": 5802,
      "Ġà®ļà®©à®µà®©": 5803,
      "Ġ2018": 5804,
      "1964": 5805,
      "ÃĹ": 5806,
      "Ġà®ķà®Łà®ªà®ªà®¤": 5807,
      "Ġà®¨à®²à®ķà®³à®©": 5808,
      "ors": 5809,
      "à®ªà®¤à®¤à®°à®®": 5810,
      "ĠComm": 5811,
      "à®ªà®ķà®ķà®¤à®¤à®©": 5812,
      "Ġ#": 5813,
      "à®¤à®°à®ķ": 5814,
      "Ġà®ļà®°à®µà®°": 5815,
      "Ġà®®à®¤à®ªà®ªà®ķà®³": 5816,
      "Ġà®ķà®¯à®®": 5817,
      "Ġ64": 5818,
      "ĠBl": 5819,
      "Ġà®¤à®²à®µà®¯à®Ł": 5820,
      "à®µà®¯à®¤": 5821,
      "Ġà®¤à®£à®Łà®®": 5822,
      "Ġà®ħà®²à®®": 5823,
      "Ġà®Ĩà®ķà®¸": 5824,
      "Ġà®ªà®°à®ªà®ªà®®": 5825,
      "Ġà®®à®±à®ķà®ª": 5826,
      "ĠSch": 5827,
      "1968": 5828,
      "Ġà®Ĩà®µà®£à®Ļà®ķà®³": 5829,
      "new": 5830,
      "Î±": 5831,
      "à®µà®Ļà®ķà®³": 5832,
      "à®µà®²à®Ł": 5833,
      "à®©à®±à®®": 5834,
      "à®ķà®µà®ķ": 5835,
      "Ġà®ļà®²à®¤à®¤à®®": 5836,
      "Ġà®ıà®±à®ķà®ķà®±à®¯": 5837,
      "à®ļà®µà®©": 5838,
      "Ġà®Ĩà®£à®Łà®ķà®ķ": 5839,
      "Ġà®°à®²": 5840,
      "Ġà®ªà®Łà®Łà®²": 5841,
      "ance": 5842,
      "Ġà®µà®Łà®Łà®ķ": 5843,
      "Ġà®ªà®¤à®¤à®°à®Ļà®ķà®³": 5844,
      "Ġà®Ĩà®¤à®ķà®ķà®®": 5845,
      "Ġà®¤à®Łà®Ļà®ķà®ªà®ªà®Łà®Ł": 5846,
      "64": 5847,
      "CO": 5848,
      "à®¨à®¤à®¤à®®": 5849,
      "Ġà®ĵà®Łà®Łà®®": 5850,
      "Ġ34": 5851,
      "Ġà®®à®¨à®²à®Ļà®ķà®³à®²": 5852,
      "Ġà®İà®´à®¤à®ªà®ªà®Łà®Łà®¤": 5853,
      "Ġà®¤à®©à®±à®©à®°": 5854,
      "Ġà®İà®µà®µà®³à®µ": 5855,
      "Ġà®İà®°à®ļà®²à®®": 5856,
      "Ġà®¤à®Ļà®ķà®¤": 5857,
      "à®µà®¤à®ķà®®": 5858,
      "Ġà®µà®Łà®¤à®¤": 5859,
      "à®ķà®ķà®ķà®¤": 5860,
      "Ġà®¨à®±à®µà®©à®Ļà®ķà®³à®²": 5861,
      "Ġà®µà®£à®ķà®²": 5862,
      "à®ªà®ªà®µà®©": 5863,
      "Ġà®®à®¤à®²à®®à®ļà®ļà®°": 5864,
      "Ġà®ªà®°à®ļà®©": 5865,
      "Ġà®¤à®°à®¤à®¤à®®": 5866,
      "Ġà®ľà®®à®©": 5867,
      "à®ªà®Łà®Łà®²": 5868,
      "Ġà®®à®´à®¯à®ķ": 5869,
      "Ġà®ĩà®Łà®®à®ªà®±à®±à®¤": 5870,
      "à®¨à®ªà®²": 5871,
      "Ġà®¨à®ķ": 5872,
      "Ġà®ªà®²à®ķà®³à®©": 5873,
      "Ġà®¤à®©à®¤à®¤à®µ": 5874,
      "Ġà®¸à®ķà®°": 5875,
      "Ġà®İà®©à®ªà®µà®©": 5876,
      "91": 5877,
      "Ġà®ķà®²à®¯à®£": 5878,
      "Ġà®ªà®°à®¤à®¨à®¤": 5879,
      "Ġà®®à®°à®¤à®¤à®µà®ķ": 5880,
      "à®ªà®ªà®Łà®Łà®°à®ķà®ķà®®": 5881,
      "Ġà®¨à®Łà®³à®®à®©à®±à®¤": 5882,
      "Ġà®µà®©à®¯à®²à®³à®°": 5883,
      "ER": 5884,
      "Ġà®İà®Ļà®ķ": 5885,
      "Ġà®Ĵà®²à®²": 5886,
      "Ġà®°à®¯à®©": 5887,
      "Ġà®µà®²à®¯à®²": 5888,
      "Ġ1955": 5889,
      "Ġà®¨à®¤à®°à®²à®¨à®¤": 5890,
      "Ġà®®à®ļà®¤": 5891,
      "Ġà®¨à®¯à®©à®°": 5892,
      "à®ĩà®¯à®ļ": 5893,
      "Ġà®ªà®¤à®ķà®ķà®Łà®Ł": 5894,
      "à®ªà®ķà®±": 5895,
      "Ġà®®à®©à®©à®ŀà®ļà®²": 5896,
      "à®ĩà®³à®®": 5897,
      "à®ªà®ªà®¤à®µà®ķà®³": 5898,
      "Ġà®ķà®£à®Łà®°à®ķà®ķà®©à®±à®©": 5899,
      "Ġà®¤à®°à®¤à®²à®ķà®³": 5900,
      "Ġà®ªà®¯à®©à®°à®ķà®³": 5901,
      "Ġà®ĩà®°à®µà®²": 5902,
      "Ġà®ļà®®à®®à®©": 5903,
      "Ġà®®à®°à®Łà®Ł": 5904,
      "Ġà®ªà®ķà®¤à®ķà®³à®ķ": 5905,
      "ise": 5906,
      "Ġà®ªà®Łà®Łà®¯à®²à®Ł": 5907,
      "Ġà®Ĩà®Ļà®ķà®²à®¯à®°": 5908,
      "ĠInstitut": 5909,
      "ha": 5910,
      "Ġà®ªà®²à®¸": 5911,
      "à®ħà®µ": 5912,
      "Ġà®¹à®Łà®°": 5913,
      "Ġ65": 5914,
      "ĠLib": 5915,
      "Ġà®ªà®Łà®²à®ķà®³à®²": 5916,
      "Ġà®ıà®±à®±à®®à®¤": 5917,
      "04": 5918,
      "res": 5919,
      "à®±à®©": 5920,
      "à®ħà®¤à®©": 5921,
      "Ġà®İà®¤à®°à®ķà®³": 5922,
      "hem": 5923,
      "Ġà®Ĵà®´à®Ļà®ķ": 5924,
      "Ġà®¨à®ķà®ķà®Ļà®ķà®³": 5925,
      "à®ªà®°à®¤à®¤à®²": 5926,
      "Ġà®¤à®²à®¯": 5927,
      "Ġà®ħà®©à®ª": 5928,
      "Ġà®ĩà®µà®µà®ķ": 5929,
      "Ġà®¤à®©à®©à®¨à®¤": 5930,
      "ural": 5931,
      "Ġà®īà®¯à®°à®£à®ķà®ķà®³": 5932,
      "Ġà®ªà®°à®¤à®¨à®¤à®¤à®¤à®µ": 5933,
      "Ġà®ªà®²à®¨à®¤": 5934,
      "Ġà®ħà®®à®°à®¨à®¤": 5935,
      "Ġà®ħà®¤à®±à®ķà®©": 5936,
      "à®Łà®ļà®²": 5937,
      "ative": 5938,
      "à®¯à®Łà®Łà®°": 5939,
      "à®ªà®ªà®±à®®": 5940,
      "Ġà®µà®³à®Ļà®ķà®©à®°": 5941,
      "Ġà®°à®ļà®ļà®°à®Ł": 5942,
      "Ġà®ļà®°à®ªà®©": 5943,
      "Ġà®ħà®±à®ªà®¤": 5944,
      "Ġà®ļà®¤à®µà®¤à®®": 5945,
      "à®¨à®ķà®°à®ª": 5946,
      "Ġà®ªà®©à®©à®³à®²": 5947,
      "à®ıà®ªà®°à®²": 5948,
      "Ġ1943": 5949,
      "Ġà®µà®ķà®ķà®³à®²": 5950,
      "Ġà®ħà®®à®ļà®ļà®°à®µ": 5951,
      "Ġà®ĩà®¯à®±à®ªà®¯à®²à®³à®°": 5952,
      "Ġà®Ĵà®µà®µà®©": 5953,
      "Ġà®ħà®²à®ķà®ļà®¨à®¤à®°": 5954,
      "eth": 5955,
      "à®¤à®¤à®©à®©": 5956,
      "à®µà®³à®®": 5957,
      "Ġà®ªà®Ļà®ķà®Ł": 5958,
      "Ġà®¤à®ķà®ªà®ªà®²": 5959,
      "Ġà®¤à®µà®¤à®®": 5960,
      "à®ļà®°à®²": 5961,
      "Ġà®ķà®ªà®©": 5962,
      "Ġà®ĩà®²à®ķà®ķà®¯à®Ļà®ķà®³": 5963,
      "à®ķà®°à®²": 5964,
      "Ġà®ķà®±à®ķà®©à®±à®©": 5965,
      "Ġà®ªà®ļà®ªà®ķ": 5966,
      "Ġ47": 5967,
      "Ġà®ķà®´à®¨à®¤à®ķà®³à®ķà®ķ": 5968,
      "Ġà®ķà®£à®ķà®³": 5969,
      "icle": 5970,
      "Ġà®īà®°à®®à®ª": 5971,
      "à®ķà®ŀà®ļ": 5972,
      "à®ļà®®à®°": 5973,
      "Ġà®¤à®³à®µà®ķ": 5974,
      "à®ªà®ªà®ķà®ķà®²": 5975,
      "Ġà®ļà®°à®®à®Ļà®ķà®³": 5976,
      "Ġà®Ĩà®°à®®à®ªà®ķà®ķà®ªà®ªà®Łà®Łà®¤": 5977,
      "Ġà®¤à®¤à®°à®ķà®®": 5978,
      "à®Ĳà®°à®ªà®ªà®¯": 5979,
      "à®µà®²à®¯": 5980,
      "Ġà®İà®©à®ªà®¤à®Ł": 5981,
      "Ġà®¯à®¤à®°": 5982,
      "Ġà®īà®²à®ķà®ªà®ªà®°": 5983,
      "Ġà®ķà®±à®¤à®¤à®µà®°à®ķà®³": 5984,
      "Ġà®¤à®¤à®¤à®µà®®": 5985,
      "Ġà®ªà®±à®±à®³à®³à®°": 5986,
      "Ġà®®à®²à®°à®ķà®³": 5987,
      "Ġà®²à®Łà®ļ": 5988,
      "à®ªà®±à®ªà®ªà®ķà®³": 5989,
      "Ġà®Ĩà®³à®¨à®°": 5990,
      "à®Ļà®ķà®ªà®Ł": 5991,
      "iy": 5992,
      "Ġà®¤à®°à®µà®®": 5993,
      "à®ļà®¯à®ļ": 5994,
      "Ġà®®à®Łà®Łà®°à®ķà®³": 5995,
      "à®®à®°à®²à®ªà®©": 5996,
      "Ġà®¤à®ķà®ķà®ķà®ªà®ªà®Łà®Ł": 5997,
      "Ġà®Ĩà®Łà®¯": 5998,
      "Ġà®ļà®°à®¤à®°": 5999,
      "Ġà®ķà®®à®ªà®ķà®£": 6000,
      "Ġà®ªà®°à®³à®²": 6001,
      "Ġà®ħà®µà®ļà®°": 6002,
      "Ġà®®à®¯à®¯": 6003,
      "1963": 6004,
      "Ġà®¤à®¸": 6005,
      "Ġà®ķà®²à®ªà®ª": 6006,
      "ans": 6007,
      "ĠIS": 6008,
      "Ġà®ķà®±à®ªà®ªà®Łà®ªà®ªà®Łà®ķà®±à®¤": 6009,
      "Ġà®ķà®£à®Łà®ªà®Łà®ķà®ķà®ªà®ªà®Łà®Łà®¤": 6010,
      "à®Ļà®ķà®ªà®µ": 6011,
      "à®¤à®ŀà®ļ": 6012,
      "Ġà®µà®´à®µà®©": 6013,
      "Ġà®¨à®²à®¤à®¤à®²": 6014,
      "Ġà®ļà®°à®²": 6015,
      "Ġà®ļà®®à®¤à®¤": 6016,
      "à®ļà®®à®¯": 6017,
      "Ġà®Ĩà®°à®®à®ªà®ķà®²": 6018,
      "Ġ1938": 6019,
      "ford": 6020,
      "Ġà®ļà®©à®°": 6021,
      "Ġà®¤à®©à®¯à®ķ": 6022,
      "à®ªà®¯à®±à®ļ": 6023,
      "Ġà®ħà®´à®ķà®ķ": 6024,
      "Ġà®īà®²à®ķà®Ļ": 6025,
      "1948": 6026,
      "Ġà®Ĩà®£à®Łà®µà®°": 6027,
      "rid": 6028,
      "à®¯à®¤à®²": 6029,
      "Ġà®µà®Łà®Łà®®à®©": 6030,
      "Ġà®ªà®°à®ļà®¤": 6031,
      "Ġà®ħà®ļà®°": 6032,
      "Ġà®ķà®²à®®à®ªà®¯": 6033,
      "Ġà®ªà®¤à®ķà®ķà®ķà®ªà®ªà®Łà®Ł": 6034,
      "Ġà®ĩà®²à®µà®ļ": 6035,
      "Ġà®¤à®®à®´à®ķà®¤à®¤à®©": 6036,
      "Ġà®®à®¤à®Ļà®ķà®³à®²": 6037,
      "Ġà®®à®£à®²": 6038,
      "ames": 6039,
      "Ġà®īà®£à®µà®ª": 6040,
      "Ġà®ħà®£à®ķà®®à®±": 6041,
      "à®ķà®°à®¸": 6042,
      "Ġà®¨à®²à®¯à®ķ": 6043,
      "Ġà®µà®²à®ļ": 6044,
      "Ġà®ĩà®¯à®ķà®ķà®¤à®¤": 6045,
      "Ġà®®à®©à®©à®±à®±à®®": 6046,
      "à®ķà®ķà®®à®ªà®¤": 6047,
      "Ġà®¨à®²à®ª": 6048,
      "Ġà®µà®¨à®¤à®³à®³à®¤": 6049,
      "Ġà®µà®¤à®®à®©": 6050,
      "ĠArch": 6051,
      "net": 6052,
      "Ġà®İà®©à®ªà®ªà®Łà®µà®¤": 6053,
      "Ġà®ªà®Łà®ªà®ªà®°": 6054,
      "Ġà®¨à®°à®ķà®£": 6055,
      "Ġà®¯à®¤à®¤": 6056,
      "als": 6057,
      "Ġà®ħà®µà®¤à®©": 6058,
      "à®ķà®ķà®Łà®Łà®²": 6059,
      "Ġà®ķà®°à®£à®¨à®¤": 6060,
      "à®ªà®ªà®Łà®ªà®ª": 6061,
      "Ġà®ªà®±à®±à®³à®³à®©": 6062,
      "Ġà®®à®¨à®²à®¤à®¤à®²à®³à®³": 6063,
      "AP": 6064,
      "Ġà®īà®ļà®ļà®°": 6065,
      "Ġà®ķà®Łà®ķà®³à®²": 6066,
      "Ġà®®à®±à®ķà®£à®Łà®°": 6067,
      "Ġà®ļà®±à®ªà®Ļà®ķà®³": 6068,
      "Ġà®¤à®©à®®à®¯": 6069,
      "93": 6070,
      "Ġà®®à®ªà®²": 6071,
      "Ġà®¤à®°à®ªà®ªà®²": 6072,
      "Ġà®ĩà®¯à®¨à®¤à®°à®®": 6073,
      "ater": 6074,
      "Ġà®īà®°à®µà®ķ": 6075,
      "Ġà®¨à®³à®®à®©": 6076,
      "Ġà®¤à®°à®ļà®ļà®ªà®¯à®©": 6077,
      "de": 6078,
      "du": 6079,
      "à®ķà®ĥ": 6080,
      "à®ķà®°à®³": 6081,
      "à®ķà®ķà®ªà®ªà®±": 6082,
      "Ġà®µà®´à®ķà®ķà®ķà®³": 6083,
      "Ġà®¨à®²à®µà®°": 6084,
      "Ġà®ķà®³à®Ļà®ķà®³": 6085,
      "Ġà®īà®±à®µà®ķà®³": 6086,
      "Ġà®ķà®Łà®®à®¯à®ķ": 6087,
      "à®Īà®´": 6088,
      "Ġà®¨à®©à®±à®ķ": 6089,
      "à®¨à®²à®²à®°": 6090,
      "à®©à®ªà®Ł": 6091,
      "Ġà®µà®ķà®ķà®²": 6092,
      "à®ķà®±à®ªà®ª": 6093,
      "amp": 6094,
      "Ġà®ķà®£à®£à®©": 6095,
      "Ġà®ķà®Łà®©à®®à®©": 6096,
      "))": 6097,
      "Ġà®ªà®°à®ķà®ķà®²à®®": 6098,
      "Ġà®µà®¯à®±à®±": 6099,
      "Ġà®®à®²à®²à®¯": 6100,
      "à®ļà®Łà®Łà®®à®©à®±à®¤": 6101,
      "Ġà®ħà®®à®ªà®ªà®ķ": 6102,
      "Ġà®ªà®£à®ķà®³à®®": 6103,
      "Ġà®ĩà®Łà®¤à®¤à®¯à®®": 6104,
      "Ġà®¯à®ļ": 6105,
      "Ġ42": 6106,
      "à®ªà®ªà®ļà®ļ": 6107,
      "Ġ1936": 6108,
      "Ġà®µà®¸à®µà®¨à®¤à®©": 6109,
      "Ġà®¤à®¤à®¤à®ķà®ķà®Ł": 6110,
      "87": 6111,
      "Ġà®ªà®¹": 6112,
      "Ġà®ľà®ļà®ª": 6113,
      "Ġà®ĩà®¯à®ķà®ķà®Ļà®ķà®³": 6114,
      "Ġà®®à®©à®©à®¤à®ķ": 6115,
      "Ġà®ĩà®±à®¤à®ª": 6116,
      "94": 6117,
      "Ġà®¨à®¯à®ķ": 6118,
      "Ġà®ķà®£à®Ļà®ķà®³": 6119,
      "à®ķà®¤à®²": 6120,
      "Ġà®İà®´à®¤à®®": 6121,
      "Ġà®īà®Łà®ªà®Łà®¤à®¤": 6122,
      "à®īà®³": 6123,
      "Ġà®µà®±à®±à®®": 6124,
      "Ġà®ªà®µà®¯à®©": 6125,
      "Ġà®ľà®©à®¸": 6126,
      "Ġà®¨à®£à®¯à®Ļà®ķà®³": 6127,
      "Ġà®ļà®ķà®¤à®°à®°à®ķà®³": 6128,
      "Ġà®µà®µà®ļà®¯à®®": 6129,
      "Ġà®ªà®°à®®à®ªà®ķà®¤": 6130,
      "Ġà®ķà®±à®ªà®ªà®Łà®Łà®¤": 6131,
      "Ġà®ıà®ķà®ķà®°": 6132,
      "à®£à®®à®°à®¤à®¤": 6133,
      "à®¨à®²à®¯": 6134,
      "ĠAc": 6135,
      "Ġ2017": 6136,
      "Ġà®ķà®°à®£à®¤à®¤à®²": 6137,
      "1941": 6138,
      "Ġà®®à®²à®ļà®¯à®µà®²": 6139,
      "Ġà®ħà®ķà®°à®¤": 6140,
      "à®ªà®ªà®Łà®Łà®®": 6141,
      "Ġà®ķà®°à®¯à®°": 6142,
      "à®¹à®²": 6143,
      "Ġà®¤à®°à®®à®ªà®©à®°": 6144,
      "Ġà®ķà®°à®ª": 6145,
      "Ġà®ķà®±à®ķ": 6146,
      "lect": 6147,
      "Ġà®¤à®°à®µà®£à®£à®®à®²": 6148,
      "Ġex": 6149,
      "à®ķà®¹": 6150,
      "à®ļà®ªà®¤": 6151,
      "à®µà®¤à®¯": 6152,
      "Ġà®ķà®´à®ķà®¤à®¤à®²": 6153,
      "ley": 6154,
      "ĠGu": 6155,
      "1957": 6156,
      "à®ĩà®±à®ªà®ªà®ķà®³": 6157,
      "Ġà®İà®²à®®à®ª": 6158,
      "formation": 6159,
      "à®ķà®±à®¯": 6160,
      "à®µà®³à®¯à®²": 6161,
      "Ġà®¸à®ķà®Ł": 6162,
      "Ġà®ªà®°à®³à®ķ": 6163,
      "Ġà®ªà®²à®ķà®²à®ķà®ķà®´à®ķà®¤": 6164,
      "Ġ1942": 6165,
      "Ġà®Ĩà®¯à®¤à®Ļà®ķà®³": 6166,
      "ĠĠĠĠĠĠĠĠĠĠĠĠĠĠĠĠĠĠĠĠĠĠĠĠĠĠĠĠĠĠĠĠĠĠĠĠĠĠĠĠĠĠĠĠĠĠĠĠĠĠĠĠĠĠĠĠĠĠĠĠĠĠĠĠ": 6167,
      "ool": 6168,
      "à®ķà®³à®ķà®®": 6169,
      "à®£à®¯à®²": 6170,
      "ins": 6171,
      "ĠAss": 6172,
      "ĠRe": 6173,
      "à®®à®¨à®²": 6174,
      "Ġà®¨à®ľ": 6175,
      "Ġà®µà®°à®¯à®²à®®": 6176,
      "à®ķà®ķà®ªà®ªà®±à®±": 6177,
      "Ġà®¨à®±à®¤à®¤à®²": 6178,
      "à®¯à®Łà®ļ": 6179,
      "à®®à®ªà®²à®®": 6180,
      "Ġà®ļà®¯à®±à®ªà®Łà®ķà®³": 6181,
      "Ġà®ķà®£à®Łà®ªà®Łà®ªà®ªà®ķà®³": 6182,
      "Ġà®ªà®£à®£à®©": 6183,
      "Ġà®Ĳà®¤à®°à®ļà®©": 6184,
      "Ġà®®à®Łà®Łà®ķà®ķà®³à®ªà®ª": 6185,
      "67": 6186,
      "ier": 6187,
      "à®¨à®µà®²": 6188,
      "Ġà®ªà®°à®¤à®¯": 6189,
      "Ġà®ķà®°à®¨à®Ł": 6190,
      "à®ķà®©à®®": 6191,
      "Ġà®ķà®ªà®®": 6192,
      "Ġà®¤à®©à®®à®Ļà®ķà®³": 6193,
      "Ġà®ªà®¤à®¤à®°à®ķ": 6194,
      "à®³à®ķà®ķ": 6195,
      "Ġà®ķà®°à®¤à®©à®°": 6196,
      "Ġà®ħà®®à®¯": 6197,
      "à®µà®¯à®µà®©": 6198,
      "à®ķà®ķà®ªà®ªà®Łà®²à®®": 6199,
      "Ġà®ħà®³à®¤à®¤à®¤": 6200,
      "Ġà®¨à®ķà®´à®¨à®¤à®¤": 6201,
      "Ġà®µà®³à®¯à®Łà®Łà®ª": 6202,
      "Ġà®µà®£à®Łà®ķà®³": 6203,
      "Ġà®ħà®±à®±": 6204,
      "Ġà®®à®±à®ķà®³à®²": 6205,
      "Ġà®ħà®±à®¯à®®": 6206,
      "Ġà®ĩà®©à®¤à®¤": 6207,
      "Ġ55": 6208,
      "Ġà®ĩà®ķà®ķà®°": 6209,
      "à®İà®´à®¤à®¤": 6210,
      "Ġà®ķà®¯à®°": 6211,
      "Ġà®ķà®ªà®ªà®³": 6212,
      "à®²à®©à®¤": 6213,
      "Ġà®®à®ķà®£à®¤à®¤à®©": 6214,
      "Ġà®ªà®£à®ªà®°à®¨à®¤": 6215,
      "echn": 6216,
      "Ġà®ļà®ªà®¤": 6217,
      "à®ķà®ķà®®à®®": 6218,
      "à®ªà®Łà®Łà®¤": 6219,
      "Ġà®µà®ŀà®ŀà®©": 6220,
      "68": 6221,
      "Un": 6222,
      "Ġà®ļà®²à®²à®¤": 6223,
      "à®Łà®ļà®ķ": 6224,
      "Ġà®īà®±à®ŀà®ļ": 6225,
      "Ġà®¨à®ķà®°à®ķ": 6226,
      "arch": 6227,
      "Ġà®¨à®ªà®¨à®¤à®©": 6228,
      "Ġà®ªà®°à®¤à®°": 6229,
      "Ġà®ªà®±à®ķà®±à®¤": 6230,
      "Ġà®µà®³à®ķà®ķà®Ļà®ķà®³": 6231,
      "Ġà®µà®²à®µà®©": 6232,
      "Ġà®µà®ļà®¨à®¤": 6233,
      "Ġà®®à®©à®©à®Łà®Łà®®": 6234,
      "Ġà®ļà®²à®²à®²": 6235,
      "Ġ1937": 6236,
      "ife": 6237,
      "à®ªà®¤à®¤à®¤": 6238,
      "Ġà®ķà®°à®µà®±": 6239,
      "Ġà®ªà®©à®¤à®°": 6240,
      "Ġà®ªà®°à®®à®¯à®°": 6241,
      "Ġà®¤à®µà®ķà®ķà®¤à®¤à®²": 6242,
      "à®ķà®¤à®¤à®ķ": 6243,
      "Ġà®ķà®ķà®ķà®³": 6244,
      "1942": 6245,
      "Ġà®ªà®°à®µà®²à®©": 6246,
      "Ġà®¨à®Łà®ªà®±à®ķà®±à®¤": 6247,
      "Ġà®®à®´à®ªà®¯à®°à®ªà®ª": 6248,
      "à®µà®°à®µ": 6249,
      "à®Ĩà®ķà®ļ": 6250,
      "à®ķà®£à®¤": 6251,
      "Ġà®¤à®ķà®¤à®¯à®©": 6252,
      "Ġà®ľà®°à®®à®©à®¯à®ª": 6253,
      "à®ªà®°à®¤à®¤à®©à®¯": 6254,
      "Ġà®®à®ķà®ªà®°": 6255,
      "Ġà®ĩà®ªà®ªà®¯à®°": 6256,
      "Ġà®®à®©à®ªà®ķ": 6257,
      "à®ķà®ķà®ķà®²": 6258,
      "Ġà®Ĩà®¯à®µà®²": 6259,
      "à®ķà®ķà®£à®Łà®¤": 6260,
      "Ġà®µà®°à®¯à®±à®ķà®ķà®ªà®ªà®Łà®Ł": 6261,
      "Ġà®ķà®²à®¤à®¤à®±à®ķ": 6262,
      "Ġà®¨à®Łà®®": 6263,
      "Ġà®ªà®¤à®¨à®²": 6264,
      "Ġà®°à®¤à®¤": 6265,
      "Ġà®Ĭà®Łà®ķà®µà®¯à®²": 6266,
      ".(": 6267,
      "à®¤à®°à®ªà®ªà®Łà®®": 6268,
      "à®®à®©à®©à®°": 6269,
      "Ġà®µà®³à®Ļà®ķà®³": 6270,
      "Ġà®ªà®Łà®Łà®¤à®¤": 6271,
      "Ġà®ļà®®à®ļ": 6272,
      "Ġà®ªà®°à®¨à®¤à®®": 6273,
      "Ġà®ļà®¤à®©à®Ļà®ķà®³": 6274,
      "à®¨à®±à®µà®©à®®": 6275,
      "à®¤à®¤à®ķà®ķà®³": 6276,
      "Ġà®Ĵà®²à®¯": 6277,
      "à®¤à®²à®°à®¨à®¤": 6278,
      "Ġà®ħà®°à®ļà®ķà®³": 6279,
      "à®µà®£à®©": 6280,
      "Ġà®Ĩà®°à®®à®ªà®¤à®¤à®°": 6281,
      "à®ĩà®°à®ªà®¤à®®": 6282,
      "Ġà®ħà®¯à®²": 6283,
      "Ġà®¨à®°à®¨à®¤à®°": 6284,
      "Ġà®Ĵà®¤à®¤à®´": 6285,
      "à®ķà®±à®®": 6286,
      "à®ĩà®Ļà®ķà®²à®¨à®¤": 6287,
      "Ġà®¤à®²à®Ļà®ķà®³à®²": 6288,
      "Ġà®¤à®³à®µà®©": 6289,
      "Ġà®ıà®´à®®": 6290,
      "Ġà®ĩà®Łà®¯à®¯à®©": 6291,
      "Ġà®ªà®°à®®à®ªà®°à®¯à®ķ": 6292,
      "Ġà®ħà®¤à®¤à®ķà®¯": 6293,
      "Ġà®ļà®ķà®ķà®°à®¤à®¤à®©": 6294,
      "html": 6295,
      "à®ļà®ªà®Łà®®à®ªà®°": 6296,
      "Ġà®ķà®²à®¤": 6297,
      "Ġà®ªà®¤à®ļà®ļà®°": 6298,
      "Ġà®®à®±à®µ": 6299,
      "Ġà®īà®±à®µà®©": 6300,
      "à®Ļà®ķà®³à®²à®°à®¨à®¤": 6301,
      "à®ĩà®¨à®¤à®ª": 6302,
      "Ġà®Ĩà®°à®ķà®ķà®¯": 6303,
      "Ġ59": 6304,
      "ĠBook": 6305,
      "Ġà®ķà®ªà®ļ": 6306,
      "Ġà®®à®ķà®©à®©": 6307,
      ")-": 6308,
      "Ġà®µà®ķà®ķà®°à®®": 6309,
      "Ġà®ķà®Łà®Łà®£à®®": 6310,
      "Ġà®ļà®°à®²à®¸": 6311,
      "Ġà®ĩà®¯à®ķà®ķà®¤à®¤à®©": 6312,
      "Ġà®ĩà®±à®µ": 6313,
      "Ġà®ķà®±à®±à®µà®³": 6314,
      "Ġà®ªà®°à®©à®ļà®ļ": 6315,
      "IP": 6316,
      "Ġà®Ĩà®ªà®ªà®³": 6317,
      "à®İà®£": 6318,
      "arn": 6319,
      "Ġà®¤à®¯à®ķà®°": 6320,
      "Ġà®ĩà®¨à®¨à®ķà®´": 6321,
      "Ġà®®à®°à®¤à®¤à®µà®°à®ķà®³": 6322,
      "1954": 6323,
      "Ġà®ªà®±à®ķà®ķà®£": 6324,
      "à®ĩà®µà®µà®°": 6325,
      "Ġà®ħà®Łà®¨à®¤à®°": 6326,
      "Ġà®ļà®Łà®Łà®ķà®ķà®Łà®Ł": 6327,
      "Ġà®µà®¯à®´": 6328,
      "led": 6329,
      "1966": 6330,
      "Ġà®ħà®®à®²à®Ļà®ķà®³": 6331,
      "Ġà®ķà®°à®£à®Ł": 6332,
      "Ġà®ļà®±à®µ": 6333,
      "Ġà®¤à®°à®ªà®ªà®Łà®ª": 6334,
      "Ġà®Ĩà®ķà®¯à®²": 6335,
      "Ġà®ķà®ªà®°à®®": 6336,
      "61": 6337,
      "AS": 6338,
      "Ġà®¤à®Łà®Ļà®ķà®µ": 6339,
      "ana": 6340,
      "Ġà®ªà®´à®©": 6341,
      "à¤°": 6342,
      "Ġà®Ĩà®Łà®Łà®®à®´": 6343,
      "Ġà®Ĵà®Łà®Łà®®à®¤à®¤": 6344,
      "fer": 6345,
      "à®ķà®°à®Ļà®ķà®³": 6346,
      "Ġà®ªà®²à®®à®ªà®°": 6347,
      "Ġà®ħà®³à®µà®ķ": 6348,
      "Ġà®ķà®±à®ªà®ªà®Łà®Łà®³à®³à®°": 6349,
      "ott": 6350,
      "Ġà®İà®´à®¤à®¤à®±à®µ": 6351,
      "Ġ1935": 6352,
      "Ġà®ļà®¨à®¤à®°à®©": 6353,
      "Ġà®ªà®Łà®ªà®ªà®Łà®¯à®ķ": 6354,
      "Ġà®¤à®²à®ķà®ªà®ªà®¯à®®": 6355,
      "à®°à®°": 6356,
      "Ġà®ªà®°à®µà®ķ": 6357,
      "Ġà®¤à®°à®ļ": 6358,
      "Ġà®µà®°à®®à®ªà®©à®°": 6359,
      "Ġà®ķà®°à®ļà®²": 6360,
      "Ġà®ħà®®à®ķà®ķ": 6361,
      "Ġà®īà®°à®µà®ķà®ķà®ķà®±à®¤": 6362,
      "à®¤à®®à®´à®ª": 6363,
      "Ġà®ķà®Łà®ļà®¯à®ķ": 6364,
      "à®ªà®ªà®Łà®Łà®°à®¨à®¤à®¤": 6365,
      "03": 6366,
      "82": 6367,
      "Ġà®ħà®ķà®µ": 6368,
      "Ġà®ħà®©à®²": 6369,
      "à®´à®¨à®¤": 6370,
      "à®®à®©à®µà®°": 6371,
      "Ġà®µà®³à®ķà®Ł": 6372,
      "Ġà®ĩà®¯à®ķà®ķà®©": 6373,
      "Ġà®¨à®ķà®°à®µà®°": 6374,
      "Ġà®ħà®°à®¤à®¤": 6375,
      "Ġà®ķà®©à®Łà®¯": 6376,
      "ome": 6377,
      "à®¯à®ļà®Ļà®ķà®°": 6378,
      "ose": 6379,
      "Ġà®ħà®®à®ļà®ļà®°à®ķà®³": 6380,
      "Ġà®¤à®°à®ķà®ķà®¯": 6381,
      "Ġà®¤à®°à®ķà®£à®®à®²": 6382,
      "à®¤à®©à®±": 6383,
      "à®®à®©à®Ł": 6384,
      "Ġà®®à®©à®ļà®°à®®": 6385,
      "Ġà®µà®Łà®¤": 6386,
      "Ġà®Łà®©à®®": 6387,
      "à®ªà®ªà®¤à®±à®ķà®®": 6388,
      "Ġà®ªà®¯à®©à®ªà®Łà®¤à®¤à®ķ": 6389,
      "à®ķà®ķà®©à®±à®°": 6390,
      "à®ªà®ķà®ķà®²": 6391,
      "à®ķà®¨à®¤à®°": 6392,
      "Ġà®¨à®£à®ªà®°à®ķà®³": 6393,
      "Ġà®ªà®°à®®à®±": 6394,
      "Ġà®µà®°à®®à®©à®®": 6395,
      "Ġà®¨à®Łà®ªà®Ļà®ķà®³": 6396,
      "à®ķà®ķà®³à®²à®®": 6397,
      "Ġà®ĩà®£à®¯à®ķ": 6398,
      "Ġà®ķà®®à®°à®©": 6399,
      "ings": 6400,
      "1961": 6401,
      "Ġà®ıà®±à®ªà®Łà®²à®®": 6402,
      "1959": 6403,
      "à®¤à®µà®©": 6404,
      "à®£à®¯à®©": 6405,
      "Ġà®¨à®ªà®ªà®²": 6406,
      "à®ļà®ļà®¯à®©": 6407,
      "Ġà®®à®±à®©": 6408,
      "Ġà®ļà®°à®ªà®ķà®³": 6409,
      "Ġà®ĩà®Łà®Ļà®ķà®³à®²à®®": 6410,
      "yl": 6411,
      "Ġà®İà®¤à®¤à®©": 6412,
      "Ġà®İà®©à®ķà®±à®°": 6413,
      "Ġà®®à®±à®ªà®ªà®Ł": 6414,
      "Ġà®¨à®²à®Ļà®ķà®³": 6415,
      "Ġà®ļà®±à®±à®¯à®³à®³": 6416,
      "Ġà®Ĩà®°à®®à®ªà®®à®©à®¤": 6417,
      "Ġà®ķà®´à®®à®ªà®²": 6418,
      "à®¤à®®à®´à®²": 6419,
      "Ġà®ķà®Łà®µ": 6420,
      "Ġà®µà®´à®ªà®ªà®£à®°à®µ": 6421,
      "Ġà®īà®ªà®¨": 6422,
      "Ġà®ªà®°à®ªà®°": 6423,
      "Ġà®µà®°à®®à®±": 6424,
      "Ġà®ķà®²à®ķà®ķà®³": 6425,
      "Ġà®ªà®©à®Ł": 6426,
      "Ġà®ªà®£à®¯à®®": 6427,
      "Ġà®¨à®±à®µà®¯": 6428,
      "Ġ95": 6429,
      "Ġà®ħà®±à®µà®¯à®²à®³à®°à®ķà®³": 6430,
      "1956": 6431,
      "Ġà®¤à®´à®²à®¨à®Łà®ªà®ķ": 6432,
      "Ġ×": 6433,
      "à®µà®ľà®¯": 6434,
      "Ġà®ļà®ªà®ªà®¯": 6435,
      "à®ļà®¯à®¤à®¤": 6436,
      "Ġà®®à®Łà®®": 6437,
      "à®·à®Łà®°": 6438,
      "Ġà®īà®£à®£à®®": 6439,
      "Ġ1929": 6440,
      "Ġà®®à®©à®©à®±à®±à®ķ": 6441,
      "Ġà®µà®¯à®Łà®¨à®®": 6442,
      "Ġà®ļà®©à®²": 6443,
      "Ġà®ĵà®®": 6444,
      "à®ķà®ķà®©à®±à®°à®ķà®³": 6445,
      "Ġà®®à®ļà®²à®®": 6446,
      "Ġà®ķà®±à®µà®ķà®µ": 6447,
      "Ġà®ħà®ķà®ªà®°": 6448,
      "à®¸à®Łà®Ł": 6449,
      "Ġà®ħà®±à®ķà®ķà®¯": 6450,
      "Ġcon": 6451,
      "à®¤à®£à®¤": 6452,
      "Ġà®ªà®°à®µà®¯à®²": 6453,
      "Ġà®ļà®®à®ķà®¤à®¤à®²": 6454,
      "Ġà®¤à®±à®µ": 6455,
      "Ġà®ªà®°à®¨à®¤à®¯": 6456,
      "Ġà®¨à®®à®Ł": 6457,
      "ĠIndian": 6458,
      "AR": 6459,
      "Ġà®ħà®¨à®¤à®°": 6460,
      "Ġà®¤à®°à®¯à®®à®ķ": 6461,
      "Ġà®µà®°à®µà®Ł": 6462,
      "Ġà®®à®©à®ķà®²": 6463,
      "Ġà®ļà®¯à®¯à®¤": 6464,
      "Ġà®ªà®³à®µ": 6465,
      "Ġà®ªà®®à®ª": 6466,
      "ondon": 6467,
      "Ġà®ħà®¤à®ķà®ªà®Łà®ļ": 6468,
      "à®ļà®ļà®°à®µ": 6469,
      "à®ĩà®®à®®": 6470,
      "à®ķà®ķà®°à®µà®ķà®³": 6471,
      "Ġà®ĵà®µà®¯à®°": 6472,
      "à®ķà®ķà®ķà®´": 6473,
      "Ġà®µà®Łà®Łà®¯à®Ł": 6474,
      "à®ķà®ķà®ķà®³à®©": 6475,
      "Ġà®µà®ķà®¯à®ļ": 6476,
      "Ġà®ķà®®à®¯à®©à®¸à®Ł": 6477,
      "FC": 6478,
      "Ġà®ĩà®°à®ķà®ķà®¤": 6479,
      "Ġà®ķà®³à®¤à®¤à®²": 6480,
      "Ġà®¨à®±à®ķà®®": 6481,
      "à®ļà®°à®²à®¨à®¤": 6482,
      "Ġà®īà®Łà®ªà®±": 6483,
      "Ġà®®à®¸à®²à®®à®ķà®³": 6484,
      "Ġ120": 6485,
      "Ġà®ļà®±à®ªà®´": 6486,
      "Ġà®ļà®®à®¨à®¤": 6487,
      "à®Ĩà®ļà®°à®¯à®°": 6488,
      "à®ķà®ķà®©à®²": 6489,
      "Ġà®īà®±à®ªà®¤à®¤à®¯à®²": 6490,
      "Ġà®·à®°": 6491,
      "Ġà®®à®¸à®Łà®°": 6492,
      "Ġà®ķà®£à®µà®°": 6493,
      "Ġà®µà®²à®¸": 6494,
      "Ġà®ħà®¤à®ķà®°à®ªà®ªà®°": 6495,
      "Ġà®ļà®©à®©à®¤": 6496,
      "Ġà®µà®°à®®à®ªà®¤": 6497,
      "Ġà®ħà®Ļà®ķà®°": 6498,
      "Ġà®µà®°à®®à®ªà®¯": 6499,
      "Ġà®ªà®±à®±à®ķà®ķà®±": 6500,
      "Ġà®ĩà®µà®°à®ķà®³à®ķà®ķ": 6501,
      "Ġà®ħà®±à®µà®±": 6502,
      "à®Ĩà®ļà®¯": 6503,
      "Ġà®ħà®³à®ķà®ķ": 6504,
      "à®ķà®£à®Łà®©": 6505,
      "1952": 6506,
      "Ġà®ıà®¤à®µà®¤": 6507,
      "Ġà®ļà®®à®ªà®¯à®©à®·": 6508,
      "ground": 6509,
      "Ġà®ªà®±à®ķà®²": 6510,
      "Ġ49": 6511,
      "Ġà®µà®¤à®Ł": 6512,
      "Ġà®ªà®°à®¤à®¤à®®à®©": 6513,
      "Ġà®ªà®®à®¯à®©": 6514,
      "ays": 6515,
      "à®ĵà®°": 6516,
      "Ġà®¨à®£à®®": 6517,
      "Ġà®Łà®ļ": 6518,
      "Ġà®ªà®±à®±à®ª": 6519,
      "Ġà®¤à®²à®¯à®²": 6520,
      "Ġà®ħà®±à®µà®°": 6521,
      "Ġà®ļà®¯à®¯à®ªà®ªà®Łà®Łà®©": 6522,
      "Ġà®ªà®¯à®©à®ªà®Łà®ķà®©à®±à®¤": 6523,
      "Ġà®ķà®ªà®ªà®±à®±à®¯à®¤": 6524,
      "Ġà®µà®ķà®¤à®¤à®°": 6525,
      "Ġà®ľà®°à®®à®©à®¯à®©": 6526,
      "Ġà®ªà®ŀà®ļà®®à®®": 6527,
      "Ġà®ķà®°à®°": 6528,
      "Ġà®ªà®¯à®¨à®¤": 6529,
      "Ġà®ļà®±à®ªà®ªà®®": 6530,
      "à®ªà®ªà®°à®²": 6531,
      "Ġà®ħà®°à®ªà®ªà®£": 6532,
      "Ġà®Ĭà®Łà®ķà®Ļà®ķà®³": 6533,
      "Ġà®¨à®¤à®¤": 6534,
      "Ġà®ªà®Łà®©à®°": 6535,
      "Ġà®ªà®©à®©à®®": 6536,
      "Ġà®ļà®°à®ªà®ª": 6537,
      "Ġà®¨à®±à®®à®±à®ķà®³": 6538,
      "Ġà®¨à®°à®ªà®ª": 6539,
      "Ġà®®à®´à®ķà®ķ": 6540,
      "Ġà®¨à®²à®²à®°": 6541,
      "Ġà®®à®Łà®¯à®®à®²": 6542,
      "Ġà®ķà®£à®Łà®ªà®Łà®ķà®ķà®ªà®ªà®Łà®Ł": 6543,
      "Ġà®¤à®±à®ķà®²à®¤à®¤à®²": 6544,
      "Ġà®¤à®Łà®°à®µà®£à®Ł": 6545,
      "IN": 6546,
      "iel": 6547,
      "Ð¸": 6548,
      "Ġà®ħà®ªà®µ": 6549,
      "Ġà®ķà®£à®¤à®¤": 6550,
      "Ġ2021": 6551,
      "Ġà®®à®¨à®Łà®Łà®²": 6552,
      "Ġà®¨à®Łà®ªà®®": 6553,
      "Ġà®ķà®Łà®Łà®¯à®¤": 6554,
      "Ġà®ķà®®à®ªà®ķà®³": 6555,
      "Ġà®ĩà®ļà®¤": 6556,
      "Ġ85": 6557,
      "Ġ1934": 6558,
      "à®ķà®ªà®ªà®Łà®Łà®©à®®": 6559,
      "ission": 6560,
      "à®®à®¯à®®": 6561,
      "à®ªà®Łà®¯à®ķ": 6562,
      "Ġà®ļà®°à®ķ": 6563,
      "Ġà®ķà®´à®µà®©à®°": 6564,
      "à®µà®Łà®Łà®¤à®¤à®²": 6565,
      "Ġà®ķà®¯à®©": 6566,
      "Ġ52": 6567,
      "Ġà®®à®ķà®ķà®¯à®®à®©à®¤": 6568,
      "Ġà®µà®¤à®¯à®²": 6569,
      "Ġà®ªà®¤à®ķà®ªà®ªà®©": 6570,
      "Ġà®İà®³à®®à®¯à®©": 6571,
      "Ġà®īà®¤à®¤à®¯": 6572,
      "Ġà®¨à®Łà®ķà®³à®®": 6573,
      "Ġà®ħà®®à®µà®Łà®®": 6574,
      "Ġà®ªà®Łà®ķà®±à®¤": 6575,
      "Ġsp": 6576,
      "1958": 6577,
      "Ġà®µà®ķà®ªà®ªà®ķà®³": 6578,
      "62": 6579,
      "à®ªà®ªà®Łà®¯": 6580,
      "Ġà®®à®²à®ķà®ķ": 6581,
      "Ġà®®à®Łà®ķà®ķ": 6582,
      "ĠAd": 6583,
      "Ġà®ħà®²à®²à®®à®²": 6584,
      "Ġà®®à®Łà®Łà®¤à®¤à®²": 6585,
      "ĠHar": 6586,
      "ett": 6587,
      "span": 6588,
      "Ġà®¨à®°à®ļà®®à®®": 6589,
      "Ġà®ħà®µà®µà®ªà®ªà®¤": 6590,
      "Ġà®ħà®¤à®ķà®ªà®ªà®Łà®¯à®©": 6591,
      "cri": 6592,
      "Ġà®¤à®ķà®¨à®¤": 6593,
      "Ġà®µà®´à®¨à®Ł": 6594,
      "Ġà®Łà®ªà®³à®¯": 6595,
      "Ġà®ĩà®Łà®ķà®ķà®²": 6596,
      "Ġà®µà®¯à®ªà®ªà®ķà®³": 6597,
      "Ġà®ĥà®ªà®°à®Ł": 6598,
      "Ġà®®à®±à®ķà®³à®³à®ªà®ªà®Łà®Ł": 6599,
      "con": 6600,
      "à®ªà®ªà®Łà®ķ": 6601,
      "Ġà®¤à®°à®ªà®ªà®¤": 6602,
      "Ġà®ªà®²à®µà®®": 6603,
      "à®ķà®±à®¤à®¤à®µ": 6604,
      "Ġà®ªà®¤à®µà®¯": 6605,
      "à®¯à®µà®ķà®ķ": 6606,
      "à®±à®ķà®¤": 6607,
      "à®Łà®Łà®¤à®¤à®²": 6608,
      "à®ĩà®¨à®¤à®¤": 6609,
      "Ġà®ķà®£à®Łà®°à®¨à®¤à®©": 6610,
      "Ġà®¨à®²à®ķà®ķà®°": 6611,
      "Ġà®īà®£à®°à®¤à®¤": 6612,
      "à®ħà®®à®°à®ķà®ķà®¤": 6613,
      "EE": 6614,
      "Ġ*": 6615,
      "à®¤à®²à®ķà®ªà®ªà®¯": 6616,
      "Ġà®ªà®Łà®µà®°": 6617,
      "Ġà®ļà®°à®ķà®ķà®ªà®ªà®Łà®Ł": 6618,
      "Ġà®ĥà®ªà®¯": 6619,
      "Ġà®ªà®´à®Ļà®ķà®Łà®¯à®©": 6620,
      "Ġà®µà®Łà®ķà®ķà®¯à®³à®°à®ķà®³": 6621,
      "Ġà®¤à®ªà®ķà®±": 6622,
      "Ġà®ĩà®ªà®ªà®Łà®¤à®¤": 6623,
      "à®ªà®°à®ŀà®ļ": 6624,
      "Ġà®®à®©à®¯à®²": 6625,
      "Ġà®®à®©à®ªà®°à®Łà®ķà®³": 6626,
      "Ġà®¨à®°à®¯à®°à®²": 6627,
      "Ġà®ĩà®ļà®ķà®ķà®²": 6628,
      "Ġà®¨à®¯à®³à®ķà®³": 6629,
      "Ġà®İà®´à®¤à®¤à®ķà®³": 6630,
      "à®ªà®ļà®©": 6631,
      "Ġà®¤à®£à®Łà®ķà®ķà®²": 6632,
      "ĠWh": 6633,
      "Ġà®ĩà®¯à®±à®ķà®¯à®©": 6634,
      "Ġà®ħà®µà®³à®¤": 6635,
      "Ġà®µà®¸à®Ł": 6636,
      "Ġà®ħà®ļà®²": 6637,
      "Ġà®ªà®Łà®²à®²": 6638,
      "Ġà®ªà®Łà®ķà®°à®ķà®³": 6639,
      "à®ªà®ªà®°à®µà®°": 6640,
      "à®¯à®Łà®Łà®©": 6641,
      "Ġà®¸à®ªà®©": 6642,
      "ĨĴ": 6643,
      "Ġà®µà®°à®®à®ªà®®": 6644,
      "à®ļà®°à®¸": 6645,
      "à®ķà®ªà®¤": 6646,
      "Ġà®ļà®ķà®¤à®¯": 6647,
      "Ġà®ĩà®¤à®´à®©": 6648,
      "Ġà®ħà®¤à®°à®µà®£": 6649,
      "Ġà®ļà®±à®¤à®³à®µ": 6650,
      "Ġà®ĩà®¯à®¨à®¤à®°à®Ļà®ķà®³": 6651,
      "08": 6652,
      "Ġj": 6653,
      "Ġà®µà®ķà®ķà®Ł": 6654,
      "Ġà®ªà®°à®Łà®©": 6655,
      "ÂłÂł": 6656,
      "Ġà®ªà®ªà®³": 6657,
      "Ġ1931": 6658,
      "Ġà®Ĩà®ļà®°à®¯à®°à®ķ": 6659,
      "Ġà®ķà®µà®©à®¤à®¤": 6660,
      "Ġà®¤à®®à®´à®±à®ŀà®°": 6661,
      "rist": 6662,
      "uth": 6663,
      "Ġà®Ĩà®¤à®®": 6664,
      "Ġà®®à®²à®ļà®¯à®¤": 6665,
      "à®ĩà®²à®ķà®ķà®¯": 6666,
      "Ġà®ªà®©à®©à®°à®£à®Ł": 6667,
      "ific": 6668,
      "ward": 6669,
      "Ð°": 6670,
      "à®Łà®¤à®²": 6671,
      "à®£à®ķ": 6672,
      "Ġà®ķà®²à®µà®°": 6673,
      "Ġà®¨à®Łà®¨à®²": 6674,
      "Ġà®ªà®¯à®±à®±": 6675,
      "à®ħà®ķà®Łà®ªà®°": 6676,
      "ĠRev": 6677,
      "à®ªà®ªà®ķà®ķà®©": 6678,
      "Ġà®ªà®¯à®£à®¤à®¤": 6679,
      "Ġà®ªà®Łà®¯à®Łà®ªà®ª": 6680,
      "Ġà®ļà®¤à®®à®ªà®°à®®": 6681,
      "ĠInstitute": 6682,
      "Ġà®Ĵà®ªà®ªà®¤à®²": 6683,
      "Ġà®ķà®²à®µà®¤": 6684,
      "à®ĩà®¤à®¤à®²": 6685,
      "Ġà®ļà®°à®µà®¤": 6686,
      "à®ļà®°à®µà®¤à®ļ": 6687,
      "à®ķà®ķà®Łà®¤": 6688,
      "Ġà®¯à®°à®®": 6689,
      "Ġà®īà®°à®µà®ķà®±à®¤": 6690,
      "Ġà®ªà®¯à®°à®ķ": 6691,
      "Ġà®ķà®°à®¤à®ªà®ªà®Łà®Łà®¤": 6692,
      "Ġà®¤à®Ļà®ķà®³à®©": 6693,
      "Ġà®Ĩà®¸": 6694,
      "Ġà®ķà®´à®®à®®": 6695,
      "Ġà®ķà®¯à®²à®²": 6696,
      "Ġà®ªà®¯à®©à®ªà®Łà®¤à®¤à®ķà®±à®¤": 6697,
      "2015": 6698,
      "Ġà®ªà®¤à®¤à®°à®¤à®¤à®²": 6699,
      "Ġà®ĩà®¯à®±à®ªà®¯à®°": 6700,
      "ĠComp": 6701,
      "Ġà®ªà®¯à®°à®ķà®³à®²": 6702,
      "Ġà®ļà®°à®ªà®¯": 6703,
      "Ġà®®à®´à®µà®¤à®²à®®": 6704,
      "à®Ļà®ķà®¤à®¤à®²": 6705,
      "Ġà®ªà®°à®µà®¯à®¤": 6706,
      "Ġà®µà®Łà®ķà®ķà®¯à®³à®°": 6707,
      "Ġà®ķà®£à®®à®Ł": 6708,
      "Ġà®ªà®Łà®µ": 6709,
      "Ġà®µà®´à®ķà®³": 6710,
      "Ġà®¤à®®à®´à®©": 6711,
      "Ġà®®à®Łà®Łà®²": 6712,
      "Ġà®µà®±à®±à®ªà®±à®±": 6713,
      "Ġà®ĩà®³à®ŀà®°à®ķà®³": 6714,
      "ull": 6715,
      "Ġà®ĩà®¯à®±à®ķà®¯": 6716,
      "à®µà®°à®²à®±à®±": 6717,
      "Ġà®ªà®°à®¤à®¤à®©à®¯à®ª": 6718,
      "à®®à®ķà®µà®®": 6719,
      "Ġà®ħà®ŀà®ļ": 6720,
      "Ġà®¤à®°à®©": 6721,
      "Ġà®¤à®°à®ļà®ļà®°à®ªà®ªà®³à®³": 6722,
      "Ġà®¨à®Łà®°": 6723,
      "Ġà®µà®¯à®¤à®©": 6724,
      "à®ªà®ªà®£à®ķà®³": 6725,
      "1946": 6726,
      "Ġà®ħà®ªà®ª": 6727,
      "Ġà®ļà®¤à®¤à®¤": 6728,
      "à®Łà®Łà®©à®°": 6729,
      "Ġà®ķà®±à®ªà®ªà®Łà®ķà®©à®±à®©": 6730,
      "à®ķà®¤à®¤à®°": 6731,
      "Ġà®¤à®©à®¯à®©": 6732,
      "à®®à®±à®¯à®ķ": 6733,
      "Ġà®ļà®©à®µà®ļà®©": 6734,
      "à®īà®°à®®": 6735,
      "Ġà®µà®®à®©à®Ļà®ķà®³": 6736,
      "Ġà®®à®±à®®à®²à®°à®ļà®ļ": 6737,
      "Cl": 6738,
      "à®ļà®¯à®°": 6739,
      "à®¨à®µà®®à®ªà®°": 6740,
      "Ġà®İà®Łà®Łà®®": 6741,
      "Ġà®¨à®Łà®µ": 6742,
      "Ġà®¤à®©à®ķà®´": 6743,
      "Ġà®ļà®¯à®µà®¤à®²": 6744,
      "Ġà®¨à®°à®ķà®°": 6745,
      "Ġà®ħà®°à®ľà®©": 6746,
      "Ġà®µà®£à®ķà®²à®®": 6747,
      "ĠHe": 6748,
      "Ġà®µà®¤à®¤à®¯à®²": 6749,
      "anguage": 6750,
      "à®Łà®µà®©": 6751,
      "à®²à®¯à®²": 6752,
      "à®£à®Łà®¯": 6753,
      "à®ķà®²à®ķà®³": 6754,
      "à®µà®ķà®³à®ķà®ķ": 6755,
      "Ġà®ķà®¤à®¯": 6756,
      "Ġà®¨à®ķà®°à®ķà®ķ": 6757,
      "ara": 6758,
      "Ġà®ķà®±à®±à®°": 6759,
      "Ġà®®à®¯à®¤à®¤à®²": 6760,
      "Ġpr": 6761,
      "oph": 6762,
      "Ġà®ķà®£à®Łà®ªà®Łà®¤à®¤à®°": 6763,
      "Ġà®ķà®£à®Łà®Łà®ªà®ªà®Łà®ķà®±à®¤": 6764,
      "Ġà®īà®Łà®ªà®Łà®Łà®¤": 6765,
      "Ġà®ıà®©à®©à®±à®²": 6766,
      "à®Łà®µà®²": 6767,
      "Ġà®®à®©à®Łà®ļ": 6768,
      "Ġà®ĩà®¨à®¤à®¯à®°à®ķà®³": 6769,
      "Ġà®ħà®¤à®ª": 6770,
      "Ġà®ªà®£à®¤à®¤": 6771,
      "Ġà®ªà®ķà®¤à®ķà®³à®©": 6772,
      "Ġà®ħà®´à®ªà®ªà®°": 6773,
      "Ġà®ķà®®à®ªà®²": 6774,
      "Ġ44": 6775,
      "Ġà®ªà®³à®³à®ķà®³à®²": 6776,
      "Ġà®ķà®ķà®¯": 6777,
      "Ġà®Ĩà®¯à®µà®³à®°": 6778,
      "Ġpl": 6779,
      "1953": 6780,
      "Ġà®Ĩà®°à®®à®ªà®¤à®¤à®¤": 6781,
      "Ġà®İà®©à®ķà®ķ": 6782,
      "Ġà®ªà®±à®ªà®ªà®Łà®Łà®¤": 6783,
      "Ġà®ķà®±à®ŀà®ļ": 6784,
      "à®ĩà®®": 6785,
      "Ġà®ªà®¤à®ªà®ªà®²": 6786,
      "Ġà®®à®±à®ķà®¨à®¤": 6787,
      "Ġà®ħà®£à®ķà®²": 6788,
      "Ġà®ķà®©à®µ": 6789,
      "ref": 6790,
      "Ġ72": 6791,
      "Ġà®ªà®°à®Łà®ļà®¯": 6792,
      "ociety": 6793,
      "Ġà®Ĵà®µà®µà®©à®±à®®": 6794,
      "83": 6795,
      "Ġà®ļà®¯à®¤à®¤à®¤": 6796,
      "Ġà®ķà®µà®¨à®¤": 6797,
      "Ġà®ĩà®±à®ļà®ļ": 6798,
      "Ġà®µà®³à®¯à®Łà®Łà®²": 6799,
      "Ġà®®à®¤à®¤à®¤à®©": 6800,
      "Ġà®µà®°à®²à®Ł": 6801,
      "Ġ600": 6802,
      "Ġà®µà®³à®°à®ªà®ª": 6803,
      "1939": 6804,
      "Ġà®®à®²à®ķà®ķà®±à®ķà®³": 6805,
      "Ġà®¸à®Łà®Łà®¯": 6806,
      "AE": 6807,
      "Ġà®ħà®ªà®°": 6808,
      "Ġà®¤à®°à®¯à®°": 6809,
      "Ġà®ķà®Łà®ķà®ķà®µà®²à®²": 6810,
      "Ġà®ķà®°à®¤à®¤à®©": 6811,
      "Ġà®ķà®²à®µà®¯à®²": 6812,
      "Ġà®ĩà®¤à®ª": 6813,
      "Ġà®µà®Łà®ķà®´à®ķà®ķ": 6814,
      "Ġà®ļà®±à®®": 6815,
      "Ġà®ļà®®à®ª": 6816,
      "Ġà®®à®²à®¤à®©": 6817,
      "Ġà®ĩà®£à®¨à®¤à®°": 6818,
      "Ġà®Ĭà®°à®©": 6819,
      "1955": 6820,
      "]]": 6821,
      "Ġà®¤à®°à®¯à®Ł": 6822,
      "à®ªà®°à®Łà®ļ": 6823,
      "Ġà®¨à®ķà®°à®ķà®®": 6824,
      "Ġà®Ĭà®¤": 6825,
      "à®®à®°à®ķ": 6826,
      "Ġà®¤à®ķà®¤à®ķà®ķà®®": 6827,
      "Ġà®İà®²à®²à®ķà®³": 6828,
      "Ġà®ķà®²à®²à®°à®²": 6829,
      "Ġà®ªà®ķà®ªà®ª": 6830,
      "à¸": 6831,
      "Ġà®¤à®ªà®²": 6832,
      "Ġà®İà®©à®ªà®ªà®Ł": 6833,
      "à®¸à®¸": 6834,
      "Ġà®®à®±à®±à®©à®±": 6835,
      "Ġà®®à®²à®µ": 6836,
      "à®ļà®°à®®à®©": 6837,
      "Ġà®ªà®ķà®¤à®¤à®±": 6838,
      "Ġà®¯à®ķà®®": 6839,
      "Ġà®ĵà®¯": 6840,
      "Ġà®ĩà®±à®¯à®¯à®²": 6841,
      "Ġà®ķà®²à®²à®ªà®ªà®Łà®Łà®°": 6842,
      "Ġà®µà®°à®¤à®¤à®ķà®®": 6843,
      "69": 6844,
      "à®µà®¤à®ķà®µà®®": 6845,
      "Ġà®¤à®©à®ķà®´à®ķà®ķ": 6846,
      "Ġà®İà®²à®²à®¯à®²": 6847,
      "Ġà®ķà®´à®¨à®¤à®ķà®³à®©": 6848,
      "Ġà®®à®¤à®©à®®à®¤à®²à®ķ": 6849,
      "Ġà®ªà®°à®¤à®ļà®¤à®¤à®²": 6850,
      "port": 6851,
      "ªà®ª": 6852,
      "Ġà®ĩà®ķà®ķà®´": 6853,
      "Ġà®µà®ķà®ķà®ªà®ªà®Łà®Łà®¤": 6854,
      "Ġà®µà®³à®¨à®¤": 6855,
      "à®µà®³à®¯à®Ł": 6856,
      "Ġà®ħà®©à®¤à®¤à®ª": 6857,
      "à®ķà®Ļà®ķà®³à®®": 6858,
      "Ġà®µà®Łà®µà®®à®ķà®ķà®ªà®ªà®Łà®Ł": 6859,
      "ower": 6860,
      "Ġà®ķà®Łà®®à®ªà®¤à®¤à®©à®°": 6861,
      "land": 6862,
      "Î¿": 6863,
      "Ġà®ļà®ªà®ª": 6864,
      "Ġà®ªà®Łà®¨à®²": 6865,
      "Ġà®ªà®£à®ķà®³à®ķà®ķ": 6866,
      "Ġà®ĩà®°à®¨à®¤à®ªà®¤": 6867,
      "Ġà®ħà®©à®ªà®ªà®µ": 6868,
      "Ġà®Ĭà®´à®²": 6869,
      "Ġà®Ĩà®£à®Łà®²à®°à®¨à®¤": 6870,
      "1949": 6871,
      "Ġà®¯à®´à®ªà®ªà®£à®¤à®¤à®²": 6872,
      "Ġà®ķà®Łà®®à®ªà®¤à®¤à®ļ": 6873,
      "à®¤à®¤à®ķà®ķà®©": 6874,
      "Ġà®¤à®°à®µà®ķ": 6875,
      "à®¯à®°à®ķà®ķà®±à®°": 6876,
      "Ġà®ħà®¤à®±à®ķà®ª": 6877,
      "Ġà®ªà®´à®ķà®ķà®®": 6878,
      "à®µà®¤à®±à®ķà®ª": 6879,
      "Ġà®ķà®²à®²à®±": 6880,
      "Ġà®ªà®¤à®¤à®°à®ķà®¯": 6881,
      "71": 6882,
      "Ġà®®à®´à®¤à®®": 6883,
      "Ġà®Ĭà®±à®±": 6884,
      "ĠWar": 6885,
      "Ġà®®à®°à®¤à®¤à®µà®®à®©à®¯à®²": 6886,
      "Ġà®ħà®°à®ļà®¯à®²à®®à®ªà®ª": 6887,
      "Ġà®İà®ŀà®ļà®¯": 6888,
      "Ġà®ķà®£à®£à®®": 6889,
      "Ġà®®à®©à®ªà®Ł": 6890,
      "Ġà®µà®´à®ķà®ķà®¤": 6891,
      "Ġà®ķà®Łà®Łà®Ļà®ķà®³": 6892,
      "ina": 6893,
      "Ġà®İà®´à®¤à®¤à®°": 6894,
      "Ġà®ªà®ķà®¤à®ķà®ķ": 6895,
      "Ġà®īà®¯à®°à®ķà®³": 6896,
      "Ġà®ļà®©à®ķ": 6897,
      "Ġà®¤à®£à®¤": 6898,
      "ĠÐ": 6899,
      "à®®à®ķà®°": 6900,
      "à®ļà®Ļà®ķà®ªà®ªà®°": 6901,
      "Ġà®µà®°à®Ļà®ķà®³": 6902,
      "à®¯à®°à®ķà®³à®²": 6903,
      "Ġà®ķà®°à®®à®ª": 6904,
      "Ġà®µà®³à®Ļà®ķà®®": 6905,
      "Ġà®ĩà®²à®Łà®ļ": 6906,
      "Ġà®ļà®¯à®µà®°": 6907,
      "à®Ĩà®¤à®°à®®": 6908,
      "Ġà®®à®´à®ª": 6909,
      "ink": 6910,
      "ature": 6911,
      "Ġà®¤à®´à®²à®¤à®ªà®°": 6912,
      "Ġà®Ĩà®Łà®Łà®¤à®¤à®²": 6913,
      "Ġà®ĩà®°à®£à®µà®¤à®¤à®©à®°": 6914,
      "Ġà®Ĩà®ķà®ļà®Ł": 6915,
      "ole": 6916,
      "Ġà®ķà®²à®¨à®Ł": 6917,
      "Ġà®¤à®Łà®°à®®": 6918,
      "Ġà®ªà®£à®ªà®ª": 6919,
      "orn": 6920,
      "Ġà®¤à®µà®°à®ķà®ķ": 6921,
      "1943": 6922,
      "Ġà®īà®¤à®°à®£": 6923,
      "Ġà®ķà®£à®¤à®µà®¯à®²à®³à®°": 6924,
      "ĠOfficial": 6925,
      "à®³à®ķ": 6926,
      "Ġà®µà®£à®®": 6927,
      "Ġà®ħà®Ļà®ķà®³à®³": 6928,
      "Ġà®ĩà®°à®¤à®¤à®®": 6929,
      "à®¤à®°à®µà®Ł": 6930,
      "Ġà®ĩà®¯à®ķà®ķà®µà®¯à®²": 6931,
      "à®µà®±à®ķà®®": 6932,
      "Ġà®ĩà®ļà®ª": 6933,
      "Ġà®ļà®Łà®Łà®¯à®°": 6934,
      "Ġà®ķà®ªà®ªà®±": 6935,
      "Ġà®¨à®±à®±à®£à®Łà®¤": 6936,
      "Ġab": 6937,
      "Ġà®ķà®¨à®¤à®°": 6938,
      ",\"": 6939,
      "Ġà®ķà®£à®ļà®®à®©": 6940,
      "à®ķà®µà®²à®²": 6941,
      "Ġà®ķà®²à®²à®ªà®ªà®Łà®Ł": 6942,
      "Ġà®ªà®°à®ľ": 6943,
      "Ġà®ĩà®Łà®®à®ķ": 6944,
      "Ġà®¨à®°à®®à®©": 6945,
      "Ġà®ħà®°à®ļà®ª": 6946,
      "ĠIsl": 6947,
      "Ġà®ħà®°à®ļà®¯à®²à®²": 6948,
      "Ġà®İà®°à®µ": 6949,
      "à®¤à®°à®ļà®ļ": 6950,
      "Ġà®ªà®Łà®¯à®³à®³à®°": 6951,
      "à®ķà®ķà®±à®ķà®³": 6952,
      "Ġà®ħà®´à®ķà®©": 6953,
      "à®ŀà®ļà®´": 6954,
      "Ġà®ķà®°à®¤à®ªà®ªà®Łà®Ł": 6955,
      "Ġà®®à®¤à®°à®ķà®³": 6956,
      "Ġ1933": 6957,
      "à®īà®³à®³à®Łà®ķà®ķà®®": 6958,
      "à®¤à®¤à®±à®±": 6959,
      "à®ļà®µà®²": 6960,
      "Ġà®ļà®°à®ľ": 6961,
      "Ġà®¨à®°à®ķ": 6962,
      "à®ķà®¤à®¤à®Łà®©": 6963,
      "Ġà®µà®©à®ªà®Ł": 6964,
      "Ġà®ķà®±à®±à®ªà®ªà®Ł": 6965,
      "Ġà®ĩà®²à®²à®¤à®¤à®²": 6966,
      "IC": 6967,
      "Ġà®µà®°à®®à®ªà®ķà®": 6968,
      "Ġà®ķà®Łà®ķà®®": 6969,
      "Ġà®¨à®Łà®µà®°à®ķ": 6970,
      "Ġà®ªà®Łà®¤à®¤à®±": 6971,
      "Ġà®ļà®²à®ªà®ªà®¤": 6972,
      "Ġà®¤à®´à®²à®ķà®³": 6973,
      "à®ķà®Łà®Łà®²": 6974,
      "Ġà®ķà®°à®¤à®ªà®ªà®Łà®ķà®©à®±à®¤": 6975,
      "Ġà®ļà®¯à®¯à®ªà®ªà®Łà®Łà®©à®°": 6976,
      "Ġà®¤à®´à®²à®¨à®Łà®ªà®Ļà®ķà®³": 6977,
      "Ġà®Īà®Łà®ªà®Łà®Łà®°": 6978,
      "illiam": 6979,
      "Ġà®µà®ķà®©à®Ļà®ķà®³": 6980,
      "Ġà®®à®±à®±à®¯": 6981,
      "Ġà®ķà®±à®¯à®³à®³à®°": 6982,
      "Ġà®ļà®®à®ªà®ªà®µ": 6983,
      "Ġà®ķà®ªà®ªà®Ł": 6984,
      "Ġà®®à®ķà®ķà®¯à®ª": 6985,
      "left": 6986,
      "Ġà®Ĩà®Łà®ļà®ķ": 6987,
      "IT": 6988,
      "ren": 6989,
      "à®Łà®Łà®ļ": 6990,
      "Ġà®Ĵà®ªà®ªà®Łà®®": 6991,
      "Ġà®µà®°à®¤à®®": 6992,
      "Ġà®®à®©à®ķà®¨à®¤": 6993,
      "Ġà®ĩà®¤à®ªà®©à®±": 6994,
      "à®µà®³à®°à®ļà®ļ": 6995,
      "Ġà®®à®²à®¤à®¤à®Łà®°": 6996,
      "à®İà®ĥ": 6997,
      "à®·à®®": 6998,
      "ĠPar": 6999,
      "ĠLe": 7000,
      "eter": 7001,
      "ĠArt": 7002,
      "à®²à®¯à®¤": 7003,
      "Ġà®µà®³à®µà®°à®®": 7004,
      "Ġà®¤à®Łà®²": 7005,
      "Ġà®ķà®³à®°à®µ": 7006,
      "Ġà®¨à®¤à®ķà®³": 7007,
      "Ġà®µà®´à®µà®ķà®¤à®¤à®¤": 7008,
      "Ġà®ĩà®¯à®ķà®ķà®¨à®°à®ķà®³": 7009,
      "SP": 7010,
      "ham": 7011,
      "pro": 7012,
      "Ġà®ĩà®ķà®ķà®²à®¤à®¤à®²": 7013,
      "Ġà®ķà®Łà®¤à®¤à®©": 7014,
      "Ġà®¤à®©à®¨à®¤": 7015,
      "Ġà®®à®±à®¯à®ķà®®": 7016,
      "Ġà®¨à®°à®µà®´": 7017,
      "à®ķà®ķà®¤à®¤à®Łà®©": 7018,
      "Ġà®µà®Łà®ªà®³à®°": 7019,
      "ma": 7020,
      "à®ķà®±à®ªà®ªà®¤à®µà®ķà®³": 7021,
      "Ġà®ħà®®à®ķà®ķà®ªà®ªà®Łà®Łà®³à®³à®¤": 7022,
      "Ġà®ķà®´à®ªà®ªà®®": 7023,
      "à®ķà®´à®¨à®¤": 7024,
      "Ġà®īà®¯à®°à®µ": 7025,
      "Ġà®ļà®¯à®¯à®³": 7026,
      "Ġà®ªà®ķà®ķà®Ļ": 7027,
      "Ġà®ĩà®²à®ķà®ķà®¯à®ª": 7028,
      "Ġà®īà®Łà®²à®¨à®²": 7029,
      "Ġà®¨à®ķà®´à®ļà®ļà®¯à®©": 7030,
      "à®ķà®ķà®ķà®©à®±à®¤": 7031,
      "à®°à®¯à®©": 7032,
      "à®¨à®ķà®ķà®¯": 7033,
      "Ġà®ļà®¸à®¤à®°": 7034,
      "à®´à®ªà®ª": 7035,
      "Ġà®®à®©à®¨à®²": 7036,
      "à®°à®ļà®Ł": 7037,
      "à®ļà®¯à®¸": 7038,
      "Ġà®®à®²à®¯à®©": 7039,
      "à®µà®Łà®¤à®¤à®²": 7040,
      "Ġà®īà®¯à®°à®¨à®²à®ª": 7041,
      "Ġà®ĩà®©à®ķà®ķà®´": 7042,
      "isc": 7043,
      "Ġà®ķà®°à®¤à®ªà®ªà®Łà®ķà®±à®°": 7044,
      "Ġà®Ĩà®Łà®ļà®ķà®ķ": 7045,
      "Ġà®µà®ķà®Łà®°à®¯": 7046,
      ".[": 7047,
      "Ġà®¤à®Ļ": 7048,
      "Ġà®ĩà®°à®ªà®¤à®¤": 7049,
      "Ġà®ķà®²à®ļà®ļ": 7050,
      "Ġà®®à®©à®©à®®": 7051,
      "Ġà®ķà®µà®ŀà®°à®ķà®³": 7052,
      "à®īà®Łà®²": 7053,
      "ĠAs": 7054,
      "Ġà®¤à®°à®µà®ª": 7055,
      "Ġà®¤à®£à®ķà®³": 7056,
      "à®ªà®ļà®°": 7057,
      "Ġà®ªà®¤à®©à®Ļà®ķà®³": 7058,
      "Ġà®ļà®®à®ªà®¨à®¤à®°": 7059,
      "Ġà®¤à®´à®²à®®à®±": 7060,
      "Ġà®ħà®ªà®µà®°à®¤à®¤": 7061,
      "ķà®¤": 7062,
      "Ġà®¤à®®à®©": 7063,
      "Ġà®µà®Łà®¯à®Ļà®ķà®³": 7064,
      "ĠâĢĻ": 7065,
      "à®īà®£à®µ": 7066,
      "Ġà®µà®±à®°": 7067,
      "ital": 7068,
      "Ġà®ħà®¤à®ķà®°à®¤à®¤à®¤": 7069,
      "Ġà®Ĵà®°à®µà®°à®ķà®ķ": 7070,
      "à®İà®©à®©à®®": 7071,
      "à®¤à®ļà®©": 7072,
      "Ġà®µà®¯à®°": 7073,
      "Ġà®µà®Ļà®ķà®µ": 7074,
      "Ġà®ļà®Łà®ļ": 7075,
      "Ġà®µà®°à®¸": 7076,
      "Ġà®®à®²à®Ł": 7077,
      "erg": 7078,
      "à®Łà®°à®¸": 7079,
      "orth": 7080,
      "Ġà®ªà®ļà®ªà®ªà®Łà®ķà®±à®¤": 7081,
      "ents": 7082,
      "Ġà®ķà®±à®ªà®ªà®Łà®ªà®ªà®Łà®Łà®³à®³à®¤": 7083,
      "Ġà®¤à®Ļà®ķà®³à®Łà®¯": 7084,
      "Ġà®ľà®©à®¤à®ªà®¤": 7085,
      "à®¯à®ķà®¤": 7086,
      "Ġà®¨à®¯à®°": 7087,
      "Ġà®ķà®£à®¤à®®": 7088,
      "Ġà®ķà®±à®ªà®¨à®¤": 7089,
      "Ġà®ªà®¯à®Ļà®ķà®°": 7090,
      "Ġà®Ĩà®£à®Łà®ķà®³à®©": 7091,
      "Ġà®ĩà®Łà®®à®ķà®®": 7092,
      "Ġà®²à®°à®©": 7093,
      "Ġ2020": 7094,
      "Ġ250": 7095,
      "Ġà®İà®¨à®¤à®°": 7096,
      "Ġà®ªà®²à®µà®±à®±": 7097,
      "Ġà®ļà®®à®ªà®ª": 7098,
      "Ġà®īà®°à®µà®ķà®ķà®ªà®ªà®Łà®®": 7099,
      "Ġà®ļà®¯à®²à®®à®±à®ķà®³": 7100,
      "Ġà®¨à®Łà®¤à®¤à®®": 7101,
      "Ġà®ħà®®à®°à®ķà®ķà®©": 7102,
      "Ġà®İà®Łà®¤à®¤à®ķà®ķà®³à®³": 7103,
      "Ġ1921": 7104,
      "Ġà®®à®±à®ªà®°à®ªà®ª": 7105,
      "Ġà®ķà®¤à®°à®µà®ļà®ļ": 7106,
      "Ġà®ķà®£à®ªà®ķà®ķà®": 7107,
      "Ġà®ļà®®à®®à®ķ": 7108,
      "à®ķà®ļà®®": 7109,
      "Ġà®ķà®¤à®ªà®ªà®¤à®¤à®°": 7110,
      "Ġà®īà®Łà®ķà®°": 7111,
      "Ġà®ĩà®³à®ŀà®°": 7112,
      "Ġà®Ĩà®°à®¯à®¨à®¤": 7113,
      "ET": 7114,
      "cess": 7115,
      "Ġà®ķà®ĥ": 7116,
      "Ġà®İà®ļà®ļ": 7117,
      "Ġà®ķà®°à®ļ": 7118,
      "©à®±à®©": 7119,
      "Ġà®ªà®£à®¯à®³à®°": 7120,
      "à®µà®´à®µ": 7121,
      "Ġà®ĥà®ªà®©": 7122,
      "Ġà®ħà®®à®ļà®ļà®°à®ķ": 7123,
      "Ġà®ªà®°à®°à®Łà®ļà®ķà®³": 7124,
      "Ġà®ĩà®µà®©à®¤": 7125,
      "à®Łà®Łà®¤à®¤à®©": 7126,
      "Ġà®®à®©à®¤à®²": 7127,
      "Ġà®ħà®±à®¯à®²à®®": 7128,
      "Ġà®ĵà®Łà®®": 7129,
      "Ġà®¤à®©à®©à®Łà®ļ": 7130,
      "Ġà®µà®£à®Łà®®à®©à®±": 7131,
      "Ġà®¤à®ķà®ķà®¤à®²à®²": 7132,
      "1930": 7133,
      "Ġà®¨à®®à®ªà®ķà®ķà®ķà®³": 7134,
      "ĠâĨĴ": 7135,
      "53": 7136,
      "Ġà®¨à®Łà®ļ": 7137,
      "Ġà®¤à®Łà®ķà®³": 7138,
      "à®ķà®Łà®µà®³": 7139,
      "Ġà®®à®¤à®°à®¯à®©": 7140,
      "ĠFor": 7141,
      "Ġà®ªà®©à®©à®£à®ª": 7142,
      "63": 7143,
      "à®¤à®¸": 7144,
      "Ġà®ħà®°à®¨à®¤": 7145,
      "Ġà®¨à®¯à®²": 7146,
      "Ġà®ķà®°à®µà®¯": 7147,
      "Ġà®ļà®¯à®µ": 7148,
      "Ġà®®à®²à®Ļà®ķà®³": 7149,
      "à®®à®±à®®": 7150,
      "Ġà®¨à®°à®£": 7151,
      "à®ķà®ªà®ªà®²": 7152,
      "Ġà®¨à®©à®¤à®¤": 7153,
      "Ġà®ļà®±à®±à®¤à®´": 7154,
      "Ġà®¤à®¯à®°à®ªà®ªà®ķà®³": 7155,
      "Ġà®ļà®¤à®¤à®ķà®ķà®³": 7156,
      "Ġà®ĩà®ļà®¯à®®à®ªà®ªà®³à®°": 7157,
      "84": 7158,
      "Ġà®ļà®¤à®¤à®©": 7159,
      "Ġà®ļà®²à®©": 7160,
      "Ġà®®à®¤à®¤à®°à®®": 7161,
      "ĠVol": 7162,
      "Ġà®µà®¯à®²à®ķ": 7163,
      "Ġà®ªà®±à®¤": 7164,
      "Ġà®²à®µà®°": 7165,
      "à®®à®°à®¤à®¤à®µ": 7166,
      "à®Ļà®ķà®¤à®¤": 7167,
      "own": 7168,
      "Ġà®ħà®ķ": 7169,
      "Ġà®ħà®ªà®ªà®°": 7170,
      "Ġà®µà®°à®ļà®¯": 7171,
      "Ġà®¨à®Łà®ļà®¤à®¤à®°à®®": 7172,
      "Ġ--": 7173,
      "Ġà®¤à®°à®ªà®ªà®Łà®®à®©": 7174,
      "atic": 7175,
      "à®ķà®£à®¤à®®": 7176,
      "ari": 7177,
      "ene": 7178,
      "its": 7179,
      "Ġà®®à®©à®©à®´à®¤à®¤": 7180,
      "Ġà®®à®¯à®Ļà®ķà®³": 7181,
      "Ġà®¤à®ķà®ªà®ªà®©": 7182,
      "Ġà®Ĩà®ķà®µà®³à®³à®©à®°": 7183,
      "Ġà®ķà®°à®ķà®°à®¯à®©": 7184,
      "Ġà®ĩà®³à®µà®°à®ļà®°": 7185,
      "db": 7186,
      "Ð¾": 7187,
      "Ġà®ĩà®µà®°à®®": 7188,
      "Ġà®¨à®Łà®¤à®¤à®ªà®ªà®Łà®Łà®¤": 7189,
      "Ġ43": 7190,
      "Ġà®ªà®°à®ļà®ķà®³": 7191,
      "Ġà®ħà®Łà®ªà®ªà®Łà®¯à®©": 7192,
      "à®ļà®Ļà®ķà®ķà®²": 7193,
      "à®ªà®ķà®ķà®µà®°à®¤à®¤": 7194,
      "³à®³": 7195,
      "Ġà®µà®Ļ": 7196,
      "Ġà®ªà®Łà®¤à®¤à®¯": 7197,
      "Ġ1918": 7198,
      "Ġà®¨à®ķà®°à®µ": 7199,
      "ator": 7200,
      "Ġà®ĩà®°à®ķà®ķà®®à®ªà®¤": 7201,
      "Ġ1925": 7202,
      "Ġà®ķà®Łà®Łà®ªà®ªà®Łà®ķà®³": 7203,
      "glish": 7204,
      "aul": 7205,
      "Ġle": 7206,
      "Ġà®ĩà®ªà®ªà®Łà®®": 7207,
      "à®ªà®ªà®Łà®¤à®¤à®©": 7208,
      "Ġà®ªà®±à®¤à®¤à®µà®°": 7209,
      "Ġà®¤à®®à®´à®ķà®®": 7210,
      "à®ķà®ķà®±à®ª": 7211,
      "Ġà®®à®°à®©": 7212,
      "Ġà®ħà®¤à®©à®Łà®¯": 7213,
      "Ġà®µà®²à®®à®¯à®©": 7214,
      "ĠâĪĴ": 7215,
      "à®¤à®Łà®°à®ª": 7216,
      "Ġà®µà®´à®ķà®ķà®±à®ŀà®°": 7217,
      "Ġà®ļà®Ļà®ķà®ķà®²à®ª": 7218,
      "79": 7219,
      "bl": 7220,
      "Ġà®ļà®ķà®©": 7221,
      "Ġà®ķà®£à®©à®ķà®³": 7222,
      "Ġà®ķà®Łà®¯à®©": 7223,
      "Ġà®ªà®Łà®ķà®³à®©": 7224,
      "Ġà®ķà®³à®¯": 7225,
      "Ġà®ĩà®µà®µà®¤": 7226,
      "à®¤à®¤à®±à®ķà®³": 7227,
      "Ġà®®à®Łà®Łà®®à®²à®²à®®à®²": 7228,
      "Ġ1932": 7229,
      "Ġà®Ĩà®´à®®à®©": 7230,
      "Ġà®Łà®ľà®Łà®Łà®²": 7231,
      "73": 7232,
      "ĠÂ": 7233,
      "Ġim": 7234,
      "Ġà®®à®®à®ªà®¯": 7235,
      "Ġà®µà®¤à®¤à®²": 7236,
      "Ġà®ļà®µà®µà®¯": 7237,
      "Ġà®īà®°à®®à®©": 7238,
      "à®²à®²à®°": 7239,
      "à®ªà®ªà®²à®°à®¨à®¤": 7240,
      "Ġà®ļà®¨à®¤à®°à®ļ": 7241,
      "Ġà®¨à®³à®©": 7242,
      "Ġà®ļà®²à®²à®ªà®ªà®Łà®ķà®±à®¤": 7243,
      "ĠLondon": 7244,
      "Ġà®¤à®¨à®¤à®¯à®°": 7245,
      "Ġà®¯à®©à®Łà®Ł": 7246,
      "Ġ1928": 7247,
      "Ġà®ħà®´à®ķà®ķà®ªà®ªà®Łà®ķà®©à®±à®¤": 7248,
      "background": 7249,
      "Ġà®®à®ªà®°à®®": 7250,
      "Ġà®µà®´à®ķà®³à®²": 7251,
      "Ġà®ªà®ķà®©": 7252,
      "à®®à®±à®µ": 7253,
      "Ġà®ħà®°à®ļà®ķà®ķ": 7254,
      "ĠIP": 7255,
      "Ġà®ħà®¤à®²à®°à®¨à®¤": 7256,
      "à®Ĩà®£à®Łà®ķà®³": 7257,
      "Ġà®®à®ķà®°à®ļà®ªà®Ł": 7258,
      "à®ªà®ªà®Łà®Ļà®ķà®³": 7259,
      "ĠĠĠĊ": 7260,
      "Ġà®ķà®Łà®Łà®±à®µ": 7261,
      "Ġà®ħà®£à®£à®®à®²": 7262,
      "Ġà®īà®¯à®°à®¯": 7263,
      "à®·à®²": 7264,
      "Ġà®¸à®ķà®²": 7265,
      "Ġà®µà®£à®ķà®°": 7266,
      "Ġà®¤à®²à®µà®°à®©": 7267,
      "Ġà®Ĩà®¯à®°à®ķà®ķà®£à®ķà®ķà®©": 7268,
      "Ġà®ªà®±à®ķà®©à®±à®©": 7269,
      "Ġà®µà®³à®ķà®³à®²": 7270,
      "Ġà®ªà®Łà®²à®©": 7271,
      "Ġà®ĩà®Łà®¤à®¤à®±à®ķ": 7272,
      "Ġà®ļà®®à®ķà®¤à®¤": 7273,
      "Ġà®ķà®ļà®©": 7274,
      "1951": 7275,
      "à®ªà®´à®¯": 7276,
      "à®ħà®Łà®ªà®ªà®Ł": 7277,
      "Ġà®®à®¯à®®à®ķà®ķ": 7278,
      "Ġà®ĩà®¨à®¨à®ķà®°à®®": 7279,
      "51": 7280,
      "Ġà®ļà®ķà®¸": 7281,
      "à®´à®ķà®³": 7282,
      "à®³à®³à®µ": 7283,
      "à®¯à®°à®ķà®³à®ķà®ķ": 7284,
      "Ġà®ķà®²à®ļà®°": 7285,
      "Ġà®µà®´à®¨à®¤à®¤": 7286,
      "Ġà®ļà®°à®¤à®¤à®°": 7287,
      "Ġà®ħà®Łà®²à®£à®Ł": 7288,
      "Ġà®®à®Łà®Łà®ķà®³": 7289,
      "Ġà®¤à®¯à®°à®ķà®ķà®®": 7290,
      "ild": 7291,
      "Ġà®µà®©à®±à®µà®°à®ķà®³": 7292,
      "Ġ{": 7293,
      "Ġà®İà®ĥà®ª": 7294,
      "à®¯à®°à®ļ": 7295,
      "©à®±à®©à®°": 7296,
      "Ġà®ªà®Łà®Łà®¯à®Ł": 7297,
      "ĠCo": 7298,
      "Ġcl": 7299,
      "ular": 7300,
      "Ġ1924": 7301,
      "Ġà®·à®Łà®ľà®®": 7302,
      "Ġà®¤à®¯à®ķà®®": 7303,
[...]
